. 2699764
, 1609958
I 1602488
the 1406611
to 1185226
and 828093
a 820879
in 645573
of 640186
is 604923
it 520468
my 485000
that 374693
for 356064
you 318609
was 294709
have 289285
! 260399
- 249540
&quot; 237843
this 235604
but 232002
are 223544
so 220017
with 213087
we 205030
n&apos;t 202875
&apos;s 201350
be 197563
on 197224
do 188121
me 182490
not 179369
can 171156
as 170351
at 159064
will 153212
? 146839
they 144114
people 143048
because 138545
about 137819
like 137515
very 137334
there 137220
time 136825
English 136417
he 134108
from 127806
) 119333
&apos;m 114152
by 113948
when 111978
or 109384
if 106606
one 106439
more 104405
( 99664
all 99514
had 98827
some 97475
an 95804
am 93936
good 90895
think 90432
want 88603
she 85084
go 85081
what 83369
their 83310
: 82325
would 80964
today 80534
many 79875
has 78531
which 78487
them 77406
your 77284
day 75572
also 75156
know 73606
our 72554
could 71844
her 68661
now 68549
first 67447
who 66152
other 65284
his 63231
up 61429
&apos; 61237
were 60554
been 59246
how 58630
after 58161
really 56993
get 56692
should 55937
just 55716
went 55579
Japanese 55415
work 55243
lot 54226
friends 52420
did 51539
only 51178
make 50975
new 50097
much 49635
than 48830
school 48312
life 47940
most 47300
Japan 45824
years 45304
way 45040
out 43976
well 43644
see 43536
no 43419
use 43273
going 43053
last 42615
take 41563
too 41192
then 39876
however 39253
these 38573
him 38498
study 38426
need 38108
public 37727
year 37339
feel 37121
help 37000
always 36691
even 36533
friend 36015
love 35587
two 35246
long 34562
every 34500
things 34254
got 34229
said 34201
us 33967
such 33634
world 33562
home 33559
best 33507
job 32900
ca 32742
any 32242
write 32037
hope 31308
why 31268
since 31083
before 30773
made 30691
something 30368
transport 30263
old 30208
&apos;ll 30016
car 29810
say 29668
next 29530
days 29513
here 29492
important 29487
&apos;ve 28828
little 28424
find 28210
back 28004
different 27955
family 27865
still 27706
learn 27588
happy 27344
hard 27033
better 26888
live 26598
money 26080
place 25732
please 25314
used 25257
where 25059
read 24879
yesterday 24862
country 24856
same 24226
great 24178
come 24126
while 24043
future 23796
try 23735
students 23649
city 23647
into 23597
^ 23588
children 23471
; 23209
writing 22988
another 22926
/ 22883
thought 22825
must 22733
able 22728
may 22709
never 22668
person 22403
around 22203
high 22135
over 22025
food 21959
again 21948
big 21822
8 21727
2 21692
give 21680
house 21663
started 21568
thing 21506
play 21481
language 21184
does 21155
week 21071
its 20532
speak 20521
diary 20414
night 20397
kind 20329
found 20229
difficult 20144
sometimes 20121
each 19921
understand 19793
class 19729
everyone 19710
enjoy 19631
ago 19614
summer 19607
problem 19607
* 19597
without 19592
morning 19557
nice 19530
working 19359
example 19340
part 19317
movie 19130
bad 19071
during 18982
tell 18960
name 18862
myself 18850
took 18788
came 18723
thank 18586
talk 18562
course 18477
improve 18468
though 18426
looking 18258
being 18251
book 18221
own 18053
keep 18046
reading 18003
studying 17933
called 17812
those 17806
buy 17723
soon 17542
~ 17498
music 17444
learning 17425
= 17382
right 17372
start 17367
meet 17299
eat 17297
look 17179
few 17134
3 17063
three 17046
watch 17006
using 16924
become 16847
sport 16771
maybe 16740
university 16636
although 16513
experience 16254
teacher 16252
felt 16192
beautiful 16161
1 16108
often 15963
company 15843
interesting 15840
let 15724
parents 15688
care 15591
change 15563
tomorrow 15474
Hello 15369
man 15285
countries 15279
saw 15268
someone 15215
student 15187
travel 15152
doing 15107
fun 15097
reason 15096
told 15052
words 15045
especially 15027
recently 14971
through 14902
shopping 14885
problems 14882
believe 14809
wanted 14786
might 14744
enough 14642
hand 14602
decided 14596
TV 14479
between 14335
actually 14267
finally 14247
end 14167
famous 14150
show 14063
almost 13925
both 13917
cold 13900
month 13890
second 13847
usually 13743
therefore 13670
means 13640
down 13596
room 13561
makes 13548
everything 13519
put 13506
Hi 13504
technology 13500
young 13477
free 13383
books 13363
forward 13302
hours 13301
small 13245
mother 13153
order 13068
times 13058
information 12888
water 12880
game 12831
off 12812
getting 12770
asked 12676
having 12672
story 12628
test 12538
bought 12475
fact 12424
cars 12408
favorite 12388
living 12378
&apos;d 12292
already 12288
dear 12244
correct 12237
spend 12166
others 12063
Tokyo 12008
lives 11991
government 11975
_ 11910
town 11877
skills 11868
restaurant 11842
anyway 11830
easy 11827
watching 11799
until 11790
sure 11760
visit 11740
hot 11726
environment 11722
tired 11692
5 11602
The 11601
nuclear 11539
english 11525
Lang 11510
heard 11459
Chinese 11440
opinion 11426
train 11341
mind 11310
near 11307
ate 11253
possible 11250
trip 11194
idea 11123
site 11040
thinking 11000
foreign 10994
sports 10958
speaking 10958
stay 10929
4 10904
playing 10897
system 10887
party 10862
girl 10843
interested 10843
weather 10799
bus 10766
anything 10749
together 10708
sleep 10689
energy 10622
bit 10540
thanks 10494
once 10474
s 10428
team 10410
away 10394
taking 10346
ever 10257
clothes 10085
number 10063
power 10054
health 10040
busy 9999
months 9911
less 9909
main 9905
tried 9811
met 9723
10 9661
society 9649
body 9617
age 9603
news 9597
quite 9530
far 9527
special 9491
making 9448
ask 9429
addition 9402
nowadays 9390
situation 9335
result 9318
point 9299
face 9295
practice 9282
knew 9265
American 9249
exam 9246
office 9237
2009 9234
seems 9212
due 9195
watched 9177
dream 9175
Michael 9139
popular 9109
everyday 9102
left 9087
human 9061
early 9040
It 9033
places 9029
business 8937
e 8912
talking 8883
several 8827
education 8815
stop 8807
choose 8781
shop 8754
chance 8740
finished 8739
activities 8698
travelling 8685
phone 8636
process 8626
looked 8625
dinner 8619
moment 8614
later 8603
coming 8568
father 8559
gave 8538
short 8513
true 8503
computer 8497
feeling 8477
o 8474
seen 8464
holiday 8462
hear 8453
development 8449
minutes 8444
lunch 8424
listening 8409
area 8399
full 8384
nothing 8363
reasons 8354
lots 8340
enjoyed 8332
word 8286
instead 8248
China 8222
elderly 8222
weekend 8215
movies 8202
whole 8198
remember 8141
yet 8124
fast 8109
cost 8102
call 8088
real 8069
drink 8033
question 8024
played 8011
culture 7989
wish 7983
6 7974
football 7973
past 7945
done 7931
design 7919
research 7894
listen 7876
film 7872
expensive 7869
late 7845
&apos;re 7829
air 7823
prefer 7802
became 7800
changed 7786
son 7779
pay 7770
whether 7756
social 7732
abroad 7715
knowledge 7700
written 7681
teach 7678
un@@ 7665
URL 7642
answer 7585
plan 7582
sad 7569
internet 7558
wife 7527
vacation 7515
mean 7496
etc 7387
re@@ 7334
&#93; 7327
group 7311
moreover 7249
run 7249
known 7232
college 7219
New 7205
Korean 7205
least 7171
worked 7148
bed 7137
wrote 7116
comfortable 7107
poor 7107
child 7106
service 7092
leave 7067
happened 7062
case 7034
talked 7022
easily 7017
Korea 7014
wait 7003
picture 6994
useful 6964
trying 6954
song 6952
walk 6919
strong 6913
entry 6907
level 6898
D 6896
recommend 6861
evening 6845
wo 6842
sorry 6838
languages 6828
season 6810
daily 6799
population 6796
lost 6779
wrong 6766
learned 6750
Oh 6732
alone 6720
favourite 6709
S@@ 6700
half 6696
running 6673
letter 6635
transportation 6612
in@@ 6592
eating 6570
everybody 6567
needs 6567
present 6555
ways 6552
club 6550
swimming 6544
according 6537
support 6522
kinds 6515
conclusion 6498
sister 6496
four 6488
games 6487
hour 6485
i 6473
meeting 6467
check 6464
30 6459
daughter 6444
door 6442
winter 6435
front 6419
woman 6414
birthday 6411
surprised 6364
members 6359
private 6347
spending 6346
Internet 6335
m 6323
&amp; 6317
price 6281
native 6278
funny 6276
view 6270
convenient 6230
weeks 6207
7 6198
studied 6188
cause 6187
large 6181
concert 6165
save 6144
heart 6140
probably 6124
under 6114
website 6107
opportunity 6092
wonderful 6088
aged 6087
Singapore 6022
delicious 6016
besides 6008
glad 6001
move 5997
classes 5988
A 5987
&gt; 5981
set 5973
building 5970
waiting 5969
brother 5951
outside 5935
clean 5927
sentences 5921
spring 5916
teachers 5895
er 5894
five 5890
waste 5889
matter 5881
thus 5871
takes 5866
questions 5863
excited 5860
hair 5858
open 5852
ability 5845
kids 5827
rain 5824
bring 5811
sentence 5809
rather 5798
boy 5795
forget 5793
yours 5792
finish 5771
park 5770
lesson 5765
necessary 5759
spent 5756
various 5742
walking 5726
conversation 5717
suddenly 5687
side 5674
perfect 5669
traffic 5665
rest 5656
cool 5655
natural 5653
arrived 5641
program 5639
husband 5633
local 5630
20 5628
skill 5625
comes 5595
products 5587
continue 5582
increase 5560
ones 5552
history 5546
quality 5536
eyes 5535
amount 5532
ed 5517
cities 5497
s@@ 5495
station 5490
.@@ 5487
huge 5449
close 5448
common 5437
healthy 5436
agree 5426
amazing 5390
songs 5386
wanna 5385
women 5383
following 5367
store 5366
afraid 5358
pollution 5335
self 5331
television 5323
guess 5319
anyone 5307
wonder 5282
shops 5264
mistake 5258
article 5252
taken 5246
America 5243
works 5243
exciting 5204
afternoon 5204
e@@ 5197
wear 5190
attention 5162
London 5144
strange 5142
major 5139
University 5131
unfortunately 5111
mistakes 5100
difference 5091
coffee 5087
secondly 5083
lived 5077
areas 5074
P@@ 5055
introduce 5055
advice 5052
passed 5045
consider 5044
K@@ 5039
exercise 5038
men 5033
companies 5023
simple 5010
among 5000
style 4997
firstly 4984
explain 4983
international 4981
T 4974
video 4962
turn 4957
share 4950
fine 4945
quickly 4941
given 4938
above 4924
festival 4924
T@@ 4924
cook 4907
serious 4901
realized 4900
sea 4898
held 4895
needed 4895
dog 4891
pretty 4881
closed 4879
personal 4872
journal 4865
pictures 4864
&#91; 4840
art 4837
sound 4805
modern 4804
friendly 4804
D@@ 4800
nervous 4798
light 4797
themselves 4791
aging 4791
communicate 4785
driving 4783
furthermore 4776
nature 4771
pass 4769
cooking 4767
low 4761
Sunday 4759
shows 4749
third 4743
saying 4742
helps 4719
type 4719
snow 4714
hotel 4710
9 4709
C@@ 4705
rice 4686
post 4685
t@@ 4684
paper 4681
ing 4652
street 4650
A@@ 4649
prepare 4638
drive 4632
warm 4624
wants 4618
-@@ 4618
training 4610
choice 4609
baby 4609
earthquake 4609
girls 4585
send 4579
provide 4569
economic 4561
teaching 4552
beginning 4551
safety 4548
yes 4545
cut 4544
event 4533
born 4531
older 4531
began 4515
guys 4513
k@@ 4510
seeing 4499
says 4497
looks 4495
happen 4482
green 4478
easier 4471
ten 4465
guy 4465
B@@ 4464
animals 4461
visited 4446
September 4444
completely 4442
voice 4436
worried 4434
score 4425
hospital 4421
en@@ 4418
against 4405
basketball 4403
usual 4400
t 4394
communication 4384
goal 4381
boring 4378
G@@ 4372
lose 4371
tennis 4367
market 4361
H@@ 4357
road 4339
grammar 4338
reduce 4336
report 4332
es 4332
step 4331
contact 4326
lol 4322
goes 4320
US 4311
helped 4311
hearing 4308
cute 4306
space 4302
imagine 4297
mail 4293
mobile 4289
results 4283
solve 4277
traditional 4271
role 4270
miss 4255
soccer 4251
web 4250
i@@ 4249
M@@ 4239
o@@ 4229
y@@ 4227
available 4226
sense 4226
top 4224
decide 4221
current 4221
&lt; 4214
starting 4213
Day 4212
head 4193
My 4184
including 4179
deal 4175
O@@ 4174
red 4173
F@@ 4164
Saturday 4159
issue 4157
USA 4143
workers 4143
haha 4142
activity 4134
position 4134
line 4121
genetic 4112
terrible 4111
control 4097
inside 4088
rainy 4087
hate 4077
compared 4076
temperature 4070
homework 4065
French 4063
meaning 4061
tonight 4060
related 4059
advertisement 4058
R@@ 4056
holidays 4050
developed 4049
moved 4048
increasing 4041
accident 4039
break 4038
medical 4038
along 4037
liked 4033
Retrieved 4031
Christmas 4029
N@@ 4020
immediately 4016
gone 4015
per 4005
couple 4000
a@@ 3990
field 3985
interview 3964
generation 3961
/@@ 3951
ideas 3949
online 3948
join 3947
six 3944
mom 3930
drinking 3926
E@@ 3924
heavy 3923
seemed 3915
topic 3914
sounds 3906
n@@ 3906
boyfriend 3905
weight 3896
center 3895
won 3890
gives 3886
follow 3885
jobs 3885
based 3883
... 3882
d@@ 3880
project 3877
similar 3873
u@@ 3872
develop 3870
yourself 3866
expected 3864
12 3859
lang 3856
certain 3854
P 3843
worry 3843
science 3832
U 3831
definitely 3829
fall 3826
period 3826
global 3825
points 3823
Australia 3819
y 3811
positive 3811
white 3810
player 3799
clear 3798
express 3795
instance 3792
advantages 3790
younger 3786
lack 3785
Taiwan 3785
July 3783
15 3777
taught 3770
camp 3769
schools 3768
beach 3768
relax 3765
l 3764
changes 3763
relationship 3758
sent 3752
fish 3742
longer 3739
normal 3724
al@@ 3714
middle 3714
issues 3709
bank 3705
seem 3701
g@@ 3684
woke 3683
foods 3682
I@@ 3680
00 3673
bye 3667
Friday 3666
received 3659
taste 3654
B 3649
L@@ 3645
trouble 3645
suitable 3644
final 3642
October 3629
lessons 3627
begin 3626
doctor 3626
turned 3618
appreciate 3618
tea 3616
Spanish 3614
11 3609
totally 3607
library 3606
create 3603
cat 3601
sleepy 3594
types 3593
benefits 3588
higher 3587
u 3586
an@@ 3582
worse 3579
World 3579
further 3575
feelings 3568
engineering 3558
April 3557
stayed 3554
black 3552
stopped 3547
safe 3544
50 3542
else 3539
considered 3537
dance 3535
p@@ 3530
competition 3529
character 3516
condition 3515
subject 3511
apply 3510
studies 3510
nobody 3505
located 3503
series 3501
ice 3489
opened 3486
l@@ 3484
catch 3474
sky 3472
OK 3465
staff 3465
despite 3462
avoid 3447
plants 3446
c@@ 3446
de@@ 3443
boss 3438
sing 3437
physical 3436
caused 3433
mine 3421
likes 3420
pain 3417
drama 3411
purpose 3401
japanese 3400
term 3392
effort 3387
Monday 3379
decision 3375
economy 3374
clock 3366
band 3366
$ 3362
planning 3362
sick 3362
stress 3358
message 3354
member 3353
plant 3334
offer 3334
speaker 3333
wedding 3326
graduate 3326
performance 3324
return 3324
March 3316
interest 3313
national 3312
recent 3306
ball 3303
form 3302
You 3298
m@@ 3295
na 3295
blog 3295
lead 3293
married 3291
Canada 3290
TOEIC 3289
dangerous 3284
except 3280
attend 3277
law 3276
changing 3275
angry 3275
whenever 3275
cafe 3270
stand 3269
al 3268
brought 3265
resources 3265
table 3255
wake 3253
r@@ 3250
Kyoto 3237
win 3235
rules 3232
reactor 3232
noticed 3228
fresh 3219
essay 3219
b@@ 3214
kept 3209
j@@ 3209
http://www.@@ 3203
li@@ 3200
biggest 3195
sincerely 3194
electricity 3191
ticket 3190
atmosphere 3188
hobby 3184
cake 3181
Peter 3174
realize 3173
crazy 3173
touch 3172
named 3165
faster 3164
sleeping 3159
dishes 3159
Mr 3155
loved 3150
buses 3147
Sir 3139
hence 3139
beer 3137
reactors 3135
events 3133
wind 3133
joined 3133
general 3131
ch@@ 3129
facilities 3126
hit 3110
limited 3106
ready 3103
professional 3102
cheap 3101
programs 3095
foreigners 3089
becoming 3088
J@@ 3087
breakfast 3087
customers 3087
stage 3077
lucky 3076
Year 3073
individual 3071
speakers 3071
anymore 3069
characters 3065
sweet 3059
computers 3057
stories 3056
fashion 3054
August 3054
PC 3043
enjoyable 3040
smile 3038
painting 3036
tend 3035
keeping 3034
exchange 3026
examination 3024
security 3020
land 3017
fell 3013
particular 3013
build 3013
blue 3010
yen 3009
costs 2999
card 2997
players 2997
someday 2995
fuel 2995
W@@ 2994
2008 2994
en 2986
reach 2985
God 2981
pool 2978
helping 2976
grow 2975
giving 2972
notes 2971
VHTR 2971
action 2970
er@@ 2970
focus 2970
exams 2967
excellent 2965
trees 2963
success 2959
_@@ 2955
date 2953
sum 2953
cheaper 2952
ran 2950
improved 2949
truth 2947
media 2945
Y@@ 2944
prepared 2942
restaurants 2940
f@@ 2938
experiences 2936
C 2934
hands 2933
financial 2928
product 2924
community 2920
ly 2913
walked 2908
solution 2902
shoes 2895
junior 2893
floor 2892
materials 2889
impossible 2889
effective 2887
photo 2886
developing 2886
mountain 2883
method 2883
bar 2881
sh@@ 2881
stuff 2878
forgot 2877
introduction 2875
on@@ 2874
single 2871
hold 2867
June 2866
houses 2866
rich 2865
broken 2857
within 2857
presentation 2855
rubbish 2855
Osaka 2853
worth 2850
parts 2842
previous 2837
Spain 2836
disappointed 2831
importance 2831
May 2829
somebody 2828
h@@ 2828
negative 2826
behind 2822
v@@ 2822
color 2821
ers 2819
p 2819
families 2818
either 2817
text 2817
citizens 2815
currently 2812
respect 2805
match 2803
account 2802
achieve 2798
fortunately 2786
knows 2784
ar@@ 2779
effect 2778
2010 2778
degree 2777
ri@@ 2776
ated 2773
expect 2769
centre 2768
grade 2768
es@@ 2765
hometown 2760
meal 2759
harder 2755
surprise 2754
career 2753
prevent 2746
di@@ 2741
enter 2740
basic 2740
sun 2739
sunny 2736
supposed 2734
n 2734
cup 2733
apartment 2732
built 2731
improving 2730
moving 2730
hurt 2729
plane 2727
receive 2726
as@@ 2721
raining 2718
bike 2717
helpful 2712
effects 2709
entrance 2706
lazy 2704
staying 2693
electric 2693
ab@@ 2689
nevertheless 2682
tickets 2680
se@@ 2678
Skype 2677
ation 2673
twice 2672
police 2669
Italian 2668
whatever 2667
faithfully 2666
bicycle 2659
girlfriend 2655
blood 2654
fantastic 2646
singing 2644
master 2644
happiness 2643
Italy 2638
department 2636
dark 2633
gon 2633
ride 2631
earth 2630
title 2630
streets 2629
below 2627
gets 2625
services 2624
progress 2622
confidence 2621
original 2620
buildings 2619
speed 2615
Europe 2612
ent 2611
essential 2608
ti@@ 2608
earlier 2605
thoughts 2603
till 2602
mentioned 2595
U@@ 2592
confused 2588
crowded 2587
enjoying 2585
fit 2581
protect 2581
brain 2576
vocabulary 2575
visiting 2574
England 2572
box 2571
paid 2569
concerned 2568
disease 2565
speech 2564
towards 2563
cherry 2556
everywhere 2554
gym 2554
at@@ 2551
search 2550
key 2550
luck 2550
z@@ 2545
notice 2544
active 2538
window 2537
pressure 2536
himself 2535
photos 2534
sitting 2533
factors 2532
environmental 2530
journey 2529
German 2527
w@@ 2524
village 2522
trains 2521
plays 2520
films 2520
classmates 2517
museum 2516
mood 2507
memory 2506
buying 2505
death 2504
variety 2503
United 2497
chat 2496
task 2491
le 2487
military 2480
k 2477
advantage 2476
York 2473
perhaps 2471
technologies 2469
application 2466
created 2465
reply 2463
100 2463
British 2459
Tom 2459
sheets 2457
terms 2451
river 2450
de 2448
be@@ 2443
baseball 2442
RFID 2439
2011 2438
starts 2436
pronunciation 2433
radio 2430
UK 2428
gas 2427
lower 2426
or@@ 2425
non 2420
caught 2416
growing 2416
size 2414
option 2412
sit 2411
careful 2409
scared 2406
aspects 2406
advance 2404
We 2403
uses 2402
sales 2400
risk 2398
machine 2396
it@@ 2396
satisfied 2395
If 2393
airport 2392
{ 2391
ages 2389
swim 2386
growth 2384
dictionary 2383
statement 2382
somewhere 2381
medicine 2377
wondering 2373
required 2373
likely 2372
suggest 2370
accidents 2368
allow 2366
add 2365
becomes 2365
describe 2363
cases 2362
actor 2355
subjects 2355
g 2355
st@@ 2354
cream 2353
strongly 2351
rate 2350
Facebook 2349
exactly 2348
con@@ 2345
lovely 2345
South 2344
chose 2344
efficient 2344
schedule 2342
industry 2341
wide 2339
oil 2337
century 2334
hardly 2333
accept 2330
fan 2325
plans 2325
happens 2324
regards 2318
18 2314
preparing 2313
state 2313
successful 2313
ting 2313
bag 2310
specific 2310
lately 2309
wearing 2308
engineers 2307
pm 2306
dead 2303
policies 2303
goods 2302
simply 2301
responsible 2300
garden 2300
mainly 2300
island 2298
cultural 2297
attitude 2294
traveling 2292
kitchen 2289
ground 2286
d 2280
dreams 2279
extremely 2278
ts 2277
bored 2276
died 2276
experienced 2275
chocolate 2274
benefit 2270
co 2270
ted 2263
page 2260
relatives 2260
Madam 2257
die 2256
musical 2253
worker 2253
im@@ 2252
3@@ 2250
afford 2247
responsibility 2246
V@@ 2244
camera 2243
patient 2242
drank 2239
humans 2236
listened 2236
showed 2235
opportunities 2234
seven 2232
tough 2228
source 2228
meat 2227
impact 2227
What 2226
flowers 2223
pleasure 2222
entries 2220
carry 2219
newspaper 2218
complete 2215
tourists 2215
situations 2214
colleagues 2213
smart 2210
boys 2209
courses 2208
war 2206
vegetables 2205
clearly 2198
X 2194
earn 2193
understanding 2191
dogs 2183
leaving 2180
email 2180
cinema 2180
slept 2178
bath 2175
produce 2174
increased 2174
States 2174
attractive 2173
Russian 2171
stars 2169
possibility 2168
proud 2168
sushi 2167
disadvantages 2166
dad 2165
stores 2165
race 2165
th@@ 2164
2007 2164
rock 2163
4@@ 2158
aim 2155
users 2154
13 2153
regret 2152
discuss 2152
testing 2151
E 2149
convenience 2149
France 2148
vehicles 2148
dancing 2146
policy 2146
piece 2145
stupid 2144
reality 2138
warming 2136
management 2133
challenge 2133
king 2128
distance 2125
deep 2122
sell 2117
adults 2117
le@@ 2116
educational 2116
absolutely 2115
heat 2114
cultures 2109
checked 2109
fluently 2106
calm 2105
si@@ 2105
unique 2102
16 2100
whose 2099
sold 2097
fight 2096
causes 2096
doubt 2095
differences 2093
invited 2090
cell 2090
groups 2088
highly 2088
welcome 2084
O 2082
Russia 2076
guitar 2075
generally 2075
note 2074
ourselves 2073
aware 2071
piano 2071
regarding 2069
manage 2067
eye 2064
continued 2063
driver 2058
comments 2056
th 2056
weak 2055
graduated 2055
introduced 2054
am@@ 2052
14 2051
conditions 2049
loves 2047
expression 2047
destination 2046
influence 2044
ter 2043
professor 2043
bread 2040
access 2039
depends 2033
employees 2031
twenty 2030
25 2029
allowed 2027
ended 2027
figure 2023
list 2020
concern 2019
John 2017
diet 2013
ag@@ 2013
shape 2012
actors 2007
friendship 2007
memories 2006
ac@@ 2006
programme 2005
mental 2005
senior 2002
impressed 2001
milk 2001
willing 1999
attended 1998
gain 1997
IV 1996
privacy 1995
latest 1993
articles 1989
awesome 1989
argue 1988
Hong 1987
anywhere 1985
plastic 1984
entered 1983
mi@@ 1983
prices 1982
knowing 1977
worst 1973
fire 1972
pick 1972
range 1971
me@@ 1971
itself 1969
In 1968
planned 1967
understood 1967
cooked 1965
arrive 1963
scene 1962
5@@ 1960
encourage 1959
value 1957
ordinary 1957
finding 1957
ha@@ 1955
soup 1951
ceremony 1943
ha 1941
manager 1940
to@@ 1939
bigger 1937
pe@@ 1937
whom 1937
honest 1936
ex@@ 1934
ordered 1934
autumn 1930
led 1927
1st 1927
charge 1926
maintain 1925
National 1924
hobbies 1924
across 1923
glass 1921
elementary 1921
governments 1919
million 1918
significant 1917
damage 1915
practise 1911
version 1911
THE 1908
ap@@ 1906
indeed 1905
eventually 1904
familiar 1903
historical 1903
japan 1901
quiet 1900
tests 1900
relaxed 1898
ma@@ 1898
magazine 1897
academic 1896
track 1896
seriously 1895
2@@ 1895
provides 1895
Kong 1894
International 1893
se 1890
ant 1890
spoke 1889
India 1889
im 1888
40 1887
certainly 1886
quit 1885
extra 1884
wine 1883
act 1880
tree 1880
novel 1880
nearly 1879
carefully 1879
customer 1879
solutions 1877
drunk 1876
semester 1876
happening 1875
Z@@ 1875
graduation 1873
theatre 1872
camps 1871
asking 1870
saving 1870
cleaning 1868
dis@@ 1864
roads 1862
pleased 1854
+ 1854
details 1851
alcohol 1849
parking 1847
te 1846
European 1844
motivation 1843
kill 1840
background 1838
shocked 1838
meals 1837
apart 1836
Hey 1834
offers 1833
typhoon 1833
curry 1833
teenagers 1832
singer 1831
hungry 1830
volunteer 1830
te@@ 1821
typical 1821
entertainment 1820
He 1820
image 1818
fear 1816
ar 1816
gradually 1816
beauty 1814
December 1812
answered 1812
involved 1810
forever 1809
diseases 1808
capital 1808
chicken 1806
software 1806
confident 1804
leaves 1802
mention 1800
systems 1800
surveillance 1799
math 1798
contrast 1795
DVD 1795
No 1794
potential 1792
killed 1791
overcome 1790
ease 1789
over@@ 1788
allows 1788
tasks 1787
provided 1786
ating 1785
disaster 1782
tr@@ 1781
XD 1781
individuals 1780
lifestyle 1778
8@@ 1777
include 1773
secret 1771
habit 1771
review 1770
ad@@ 1766
female 1766
sp@@ 1764
Festival 1761
slowly 1761
model 1761
material 1760
appropriate 1759
slow 1758
broke 1755
rule 1754
24 1753
ci@@ 1752
ty 1750
fully 1749
pop 1747
mostly 1747
laugh 1746
flight 1745
wall 1744
valuable 1743
total 1742
expressions 1740
Do 1736
considering 1736
ch 1734
prefecture 1731
weird 1730
yeah 1729
ya 1728
treatment 1728
smoking 1727
gift 1727
phrase 1725
god 1725
complicated 1723
response 1721
fat 1718
17 1716
iPhone 1716
riding 1715
the@@ 1714
2000 1713
require 1713
Germany 1711
ensure 1710
7@@ 1708
nation 1707
patients 1705
January 1705
church 1704
chinese 1704
dress 1703
suffering 1703
drinks 1702
examples 1702
op@@ 1701
corrections 1700
healthcare 1700
psychology 1698
recommended 1693
production 1692
corrected 1691
um 1690
pleasant 1690
lonely 1690
In@@ 1689
guide 1688
exist 1685
concentrate 1685
failed 1684
host 1683
demand 1679
discussion 1678
star 1677
methods 1676
topics 1673
returned 1673
released 1673
childhood 1672
ic 1672
el@@ 1672
dont 1672
0 1670
planet 1669
opinions 1667
personality 1667
items 1667
brings 1667
relaxing 1666
boat 1666
okay 1666
personally 1663
freedom 1662
discovered 1662
ok 1661
spoken 1659
weekends 1659
requires 1659
standing 1658
reached 1657
vehicle 1657
ine 1654
participate 1654
comment 1654
via 1654
board 1653
asleep 1652
2004 1652
mall 1651
os@@ 1650
wishes 1649
ous 1646
anime 1643
prize 1642
1@@ 1642
2005 1642
minute 1639
pre@@ 1639
City 1639
kid 1638
regular 1638
feels 1638
author 1637
drawing 1635
salary 1635
seat 1633
ta@@ 1633
passion 1633
affect 1632
dollars 1631
su@@ 1631
colour 1631
proper 1630
scientific 1630
per@@ 1629
mouth 1628
hang 1627
# 1625
audience 1623
screen 1623
midnight 1623
TOEFL 1623
telling 1622
6@@ 1622
data 1621
magic 1621
plenty 1620
bu@@ 1618
construction 1615
surfing 1615
foot 1614
ad 1614
ded 1613
celebrate 1610
directly 1607
pair 1604
cats 1604
ment 1602
K 1602
us@@ 1601
chatting 1600
fever 1599
efforts 1597
fireworks 1596
laptop 1595
phones 1594
skin 1594
former 1593
supermarket 1592
tour 1592
section 1592
crisis 1592
goals 1592
sight 1591
Tuesday 1590
efficiency 1590
appeared 1588
tool 1587
2006 1587
managed 1586
cry 1586
shown 1585
9@@ 1585
lecture 1585
behavior 1584
pet 1583
practicing 1582
pizza 1581
TO 1574
throw 1573
eight 1571
bi@@ 1571
trust 1571
http://@@ 1571
Summer 1570
references 1569
decrease 1569
features 1568
advanced 1568
menu 1567
mountains 1566
fly 1566
difficulties 1563
om@@ 1562
partner 1562
How 1560
aspect 1558
S 1556
.com/@@ 1556
tion 1550
innovation 1550
dish 1549
otherwise 1548
shy 1548
surely 1548
difficulty 1547
sites 1546
exhausted 1544
standard 1543
letters 1542
peace 1541
electronic 1540
equipment 1538
c 1536
remembered 1535
consequently 1534
affected 1531
theater 1531
depressed 1529
translate 1529
climbing 1528
belong 1527
IT 1526
majority 1526
draw 1526
rent 1525
February 1522
suffer 1521
soft 1521
exercises 1521
for@@ 1520
obviously 1519
subway 1518
School 1517
income 1517
moon 1516
em@@ 1516
b 1514
explained 1512
tions 1512
ni@@ 1512
sign 1512
produced 1511
This 1511
insurance 1511
lie 1510
flat 1508
advertising 1507
suit 1505
applied 1503
smell 1502
practical 1501
habits 1500
h 1499
Mt 1499
frequently 1498
ca@@ 1498
alternative 1496
spite 1495
improvement 1495
Asian 1493
19 1492
foreigner 1491
upset 1490
values 1488
sort 1485
organization 1484
cover 1482
relationships 1480
accepted 1479
x 1479
raise 1478
address 1475
content 1475
technological 1473
picked 1471
ancient 1470
technical 1470
crying 1469
independent 1469
consideration 1468
ot@@ 1468
followed 1467
survive 1466
ary 1465
nose 1465
sometime 1462
ship 1461
scientists 1461
blossoms 1459
somehow 1457
consequences 1456
particularly 1455
designed 1455
suppose 1454
force 1454
budget 1454
alive 1453
com@@ 1452
projects 1452
headache 1449
Wow 1449
entire 1448
homes 1446
jogging 1446
anybody 1444
theme 1444
fix 1444
properly 1443
upon 1442
eaten 1441
brand 1440
inter@@ 1439
ge@@ 1438
contribute 1437
adult 1435
birth 1432
perfectly 1431
lo@@ 1431
Nuclear 1431
male 1430
uncomfortable 1430
owner 1429
tourist 1429
volleyball 1428
sharing 1427
raised 1427
average 1426
animal 1425
22 1425
M 1423
learners 1420
forest 1419
Wednesday 1418
chosen 1418
limit 1418
ing@@ 1417
sightseeing 1415
interests 1415
deeply 1415
Pat 1414
region 1414
garbage 1414
lights 1413
nearby 1413
believed 1412
powerful 1411
21 1411
includes 1410
teams 1410
reference 1409
missed 1409
percent 1409
spread 1406
marriage 1406
parties 1405
birds 1405
programmes 1402
numbers 1401
mo@@ 1401
sat 1400
hall 1400
political 1398
Al@@ 1397
st 1397
retirement 1397
vi@@ 1396
messages 1396
skype 1395
hi@@ 1394
Asia 1394
providing 1392
thousand 1391
Re@@ 1391
searching 1390
recycling 1390
desire 1389
treat 1388
actions 1386
bright 1385
23 1385
whereas 1384
grandmother 1384
leads 1384
pieces 1384
fried 1384
desk 1383
covered 1381
ex 1381
rooms 1380
bear 1378
co@@ 1378
impression 1378
overseas 1377
wash 1375
Brazil 1375
engineer 1374
climate 1374
concept 1374
connected 1373
ring 1373
destroyed 1371
Park 1371
balance 1370
factor 1370
temple 1369
opposite 1367
wi@@ 1367
record 1366
lines 1366
visitors 1365
ou@@ 1363
depend 1363
solar 1363
director 1362
hundred 1362
lady 1361
translation 1360
teeth 1358
fee 1357
ne@@ 1356
generations 1356
normally 1355
Twitter 1355
rise 1354
castle 1354
Thursday 1353
curious 1353
operation 1353
throughout 1353
shirt 1352
primary 1352
universities 1352
reasonable 1351
shower 1351
yellow 1350
sweets 1350
stronger 1349
@ 1349
hunting 1347
z 1346
sources 1345
smoke 1344
abilities 1340
nor 1339
machines 1339
steps 1339
grateful 1338
der 1338
discover 1337
funds 1336
sa@@ 1335
appear 1334
sed 1332
surgery 1329
admit 1328
Paris 1328
Google 1328
colleague 1327
promise 1326
G 1326
dirty 1326
unless 1322
November 1322
ve 1322
conclude 1321
filled 1321
cards 1321
forced 1320
rights 1320
novels 1314
North 1313
processes 1313
taxi 1312
flower 1312
tells 1310
flu 1310
opening 1309
quick 1309
scenery 1308
net 1308
golf 1307
There 1307
glasses 1307
suggested 1306
leader 1306
toward 1304
au@@ 1304
reduced 1304
carbon 1303
feet 1302
ates 1302
Earth 1302
degrees 1302
loud 1300
countryside 1299
wet 1299
AM 1298
CD 1297
writer 1295
facing 1295
promised 1293
offered 1293
fans 1292
phrases 1292
creative 1291
ence 1291
fields 1291
Thailand 1291
California 1289
awful 1288
registered 1288
com 1287
chances 1286
chair 1285
noise 1285
(@@ 1285
Thai 1284
fail 1283
president 1283
function 1282
badminton 1281
Cup 1281
hesitate 1279
korean 1279
inform 1278
album 1278
acting 1277
fighting 1277
comedy 1277
telephone 1276
loss 1274
names 1273
south 1273
tasty 1272
mon@@ 1271
ic@@ 1270
highest 1270
routine 1270
ki 1270
Anna 1268
20@@ 1268
Fuji 1268
noodles 1266
drop 1265
ding 1263
emotions 1261
practiced 1261
parks 1259
disagree 1259
damaged 1259
straight 1258
gotten 1258
waited 1257
learnt 1257
km 1257
argument 1256
network 1256
comic 1256
overall 1255
Mar@@ 1253
answers 1252
burden 1252
north 1251
beings 1250
greatly 1250
ko 1250
horrible 1249
regularly 1248
el 1246
10@@ 1245
tall 1244
horse 1244
crime 1244
user 1243
ge 1243
smaller 1241
cor@@ 1241
marketing 1241
ans 1240
ageing 1240
skating 1240
sides 1239
forgotten 1238
stomach 1238
Paul 1236
failure 1236
separate 1235
rush 1235
scary 1235
fair 1232
unknown 1231
invention 1231
dry 1231
do@@ 1231
correcting 1231
spare 1230
falling 1228
location 1228
animation 1228
qu@@ 1226
Harry 1226
shot 1225
putting 1223
missing 1223
claim 1222
beside 1219
strength 1219
consumption 1218
metal 1217
options 1216
danger 1215
license 1215
constantly 1214
super 1214
newspapers 1213
haven&apos;t 1213
organized 1212
leisure 1211
discussed 1211
levels 1210
nine 1208
par@@ 1207
Seoul 1206
leading 1205
usage 1203
request 1202
papers 1200
era 1200
sauce 1200
cousin 1199
funding 1199
correction 1199
complex 1198
carried 1198
finishing 1198
complain 1197
cycling 1197
incredible 1196
precious 1196
cancer 1195
accent 1193
ends 1192
collect 1191
stood 1190
escape 1190
thinks 1190
movement 1190
underground 1188
compare 1186
grew 1185
elder 1184
manga 1184
yoga 1184
selling 1183
structure 1183
round 1181
western 1181
legs 1181
correctly 1181
thesis 1181
ds 1180
classroom 1180
jam 1179
pray 1178
creating 1177
dairy 1177
re 1176
jams 1176
cl@@ 1175
sisters 1175
Hokkaido 1174
awareness 1172
R 1171
washing 1171
measures 1171
views 1170
45 1169
bo@@ 1169
bags 1168
closer 1168
connection 1167
presents 1166
choosing 1165
pl@@ 1164
included 1163
accommodation 1163
il@@ 1163
brothers 1162
ideal 1161
als 1161
lake 1159
meant 1158
devices 1158
preparation 1157
mass 1157
corner 1156
Americans 1156
no@@ 1155
sh 1155
ked 1154
joke 1154
herself 1154
fruit 1153
2nd 1152
ong 1150
Okinawa 1149
Beijing 1149
videos 1148
ak@@ 1148
.html 1148
19@@ 1147
da 1147
ful 1146
tears 1146
cheerful 1146
Indian 1145
employment 1145
bathroom 1144
suggestions 1144
sc@@ 1144
tongue 1144
pr@@ 1143
Generation 1143
IN 1141
concerns 1141
websites 1141
ir@@ 1140
he@@ 1140
attached 1140
appearance 1139
s/@@ 1139
os 1137
decades 1137
housing 1137
theory 1136
laughing 1136
Mexico 1135
expenses 1135
relieved 1135
stone 1135
rarely 1134
diaries 1134
ai 1132
lyrics 1132
impressive 1131
log 1130
succeed 1130
ke 1130
shi@@ 1129
ka 1129
artist 1127
Australian 1127
commercial 1126
jump 1126
serve 1126
High 1125
ec@@ 1125
First 1125
ning 1124
annoying 1124
ending 1124
target 1124
harmful 1123
fixed 1123
keen 1122
Ch@@ 1122
2003 1121
um@@ 1119
challenges 1119
br@@ 1119
ji 1119
court 1118
beef 1118
est 1116
}&#91;HYPERLINK 1116
regard 1115
safer 1114
tive 1114
recover 1114
dramas 1114
strict 1113
energetic 1113
mum 1110
passing 1110
turns 1110
ally 1109
assistant 1109
detail 1108
effectively 1108
60 1108
luckily 1107
Disney 1107
aly 1106
bird 1106
greatest 1105
nap 1105
2012 1104
basically 1102
factory 1101
robots 1101
Moscow 1101
L 1100
x@@ 1099
extent 1099
gr@@ 1098
choices 1098
beneficial 1098
ons 1097
digital 1096
ent@@ 1095
handle 1095
ill 1094
stuck 1094
innovations 1093
illness 1091
pets 1091
magazines 1091
thousands 1091
cried 1091
wa 1089
radiation 1089
r 1088
ness 1088
rapidly 1088
&apos;t 1087
rid 1087
artists 1086
invite 1086
literature 1086
cloudy 1085
F 1084
grown 1084
tax 1084
3rd 1083
meanwhile 1083
attract 1083
arts 1082
car@@ 1082
checking 1082
honestly 1082
fr@@ 1081
classmate 1080
relatively 1080
out@@ 1079
losing 1078
naturally 1076
ator 1076
aid 1076
.. 1074
f 1074
gained 1074
wondered 1073
rare 1073
thirty 1073
published 1073
wore 1072
incident 1072
stressed 1070
contains 1069
26 1069
greater 1067
prove 1066
drove 1065
ings 1064
economics 1064
ses 1063
encouraged 1063
brown 1062
ta 1062
passengers 1062
announced 1061
youth 1060
added 1060
profile 1060
Poland 1059
ance 1059
stressful 1059
painful 1059
3D 1059
Mrs 1058
achieved 1058
journalists 1057
peaceful 1057
comfort 1057
crucial 1056
eggs 1056
Golden 1055
obvious 1054
Alison 1052
press 1052
beyond 1052
advise 1052
Ar@@ 1052
ce 1052
supply 1052
Vietnam 1052
spirit 1051
cheese 1051
recognize 1050
replied 1050
slightly 1050
competitive 1048
cakes 1048
12@@ 1047
mark 1046
memorize 1046
dentist 1046
Yokohama 1045
subtitles 1045
Club 1044
basis 1044
sale 1043
matters 1043
bl@@ 1043
religion 1043
romantic 1042
experiment 1042
empty 1041
Is 1041
cheer 1041
She 1040
Con@@ 1040
fluent 1040
sore 1040
Barcelona 1039
Central 1038
hydrogen 1038
18@@ 1037
contents 1037
rely 1036
scale 1036
journals 1036
approach 1035
eager 1035
protection 1035
courage 1035
talent 1034
served 1034
release 1034
truly 1033
perform 1033
dropped 1033
direction 1033
lastly 1032
San 1032
none 1032
clothing 1032
salt 1032
ter@@ 1030
smiled 1030
pace 1030
ze 1029
ver@@ 1029
ur@@ 1029
shall 1029
depending 1029
museums 1029
fi@@ 1029
Danny 1028
marathon 1028
Africa 1028
windows 1027
go@@ 1027
pot 1026
ten@@ 1026
printed 1026
hopefully 1025
thin 1024
ocean 1024
Nagoya 1023
hurry 1020
conversations 1020
images 1020
infrastructure 1020
attack 1019
tri@@ 1018
pages 1018
dy 1018
ations 1017
To 1017
Vancouver 1017
welfare 1017
parent 1014
faces 1013
ro@@ 1013
coat 1012
keeps 1011
seminar 1011
circumstances 1010
path 1010
str@@ 1010
occurred 1010
priority 1009
nt 1008
sl@@ 1007
rising 1007
holding 1006
cycle 1006
excuse 1005
wa@@ 1005
persons 1005
soap 1004
paint 1003
tiring 1002
emergency 1002
beat 1001
fruits 1001
contrary 1000
remain 1000
wh@@ 1000
custom 1000
One 999
Madrid 999
ow@@ 999
device 999
doctors 998
ul@@ 998
reducing 998
fewer 997
pub 993
noon 993
textbook 993
throat 992
weapons 992
so@@ 992
climb 992
surprisingly 992
enhance 992
Energy 992
ob@@ 991
furniture 991
Science 990
shared 989
sheet 989
applying 989
drivers 988
ramen 988
setting 987
28 987
X@@ 987
affects 986
documents 986
contest 985
realised 985
Today 985
cr@@ 985
official 985
laughed 984
egg 984
errors 984
connect 983
hahaha 983
Shanghai 983
moments 982
laboratory 982
mu@@ 982
karaoke 982
discount 980
hell 980
educate 979
Apple 979
facebook 979
severe 979
Camp 978
towns 978
trend 977
ol@@ 977
But 977
faced 976
chi@@ 976
tools 976
status 976
phenomenon 976
meters 975
av@@ 974
ys 971
educated 971
AND 970
calls 970
employee 969
harm 968
umbrella 967
tense 967
consists 966
mixed 966
secrets 965
ina 965
calling 964
ical 963
ay 963
brush 963
noodle 963
minds 962
is@@ 962
solved 962
ties 962
plot 962
pity 961
colors 961
spot 960
maintenance 960
reliable 959
sufficient 958
hoping 956
placed 956
surrounded 956
twitter 956
showing 955
sector 955
unable 954
saved 954
lies 954
Potter 954
unlike 953
et@@ 953
push 953
sons 953
ton 952
anxious 952
27 952
gi@@ 951
dealing 951
sang 951
kindergarten 951
residents 949
leg 948
ai@@ 948
posted 948
additionally 948
tips 947
Sh@@ 947
neither 946
agreed 946
ou 946
bottom 946
depression 946
functions 945
replace 944
stick 944
skiing 944
Jo 944
credit 943
80 943
direct 943
inventions 942
behaviour 942
mar@@ 942
recognized 942
tastes 942
formal 941
cellphone 941
J 940
adapt 940
cooled 940
attending 939
ker 939
grass 939
workplace 939
radioactive 939
ble 938
pa@@ 938
recycle 938
facts 937
paying 936
emotional 936
King 935
ors 935
investment 935
speaks 934
ks 934
w 933
central 932
duty 932
critical 932
Chernobyl 932
IS 930
appreciated 930
So 930
adventure 930
ahead 929
fe@@ 928
decisions 927
sake 927
challenging 926
ps 926
ki@@ 926
purchase 926
tries 925
suffered 925
researchers 925
ingredients 924
discovery 923
badly 922
ang 922
grandfather 921
improvements 921
rec@@ 920
hero 919
ski 919
Zealand 919
flying 919
Museum 917
wild 917
joy 916
man@@ 915
admire 915
count 915
gu@@ 915
lab 914
Kim 913
factories 912
feed 912
shoulder 912
scenes 911
double 911
Reactor 911
wherever 910
packed 909
enormous 908
successfully 908
repair 908
victims 908
bodies 907
ity 907
des@@ 907
cleaned 907
passage 907
bedroom 906
numerous 906
core 905
horror 903
0@@ 903
disappear 903
pasta 903
Week 903
composition 902
po@@ 902
Mi@@ 902
disasters 902
presented 901
situated 901
airplane 901
states 901
ve@@ 900
appointment 900
humid 900
unhappy 899
arms 899
tiny 899
episode 898
dr@@ 897
ev@@ 897
invented 896
skilled 896
completed 895
instruments 894
concerning 894
influenced 894
pri@@ 894
1000 894
follows 894
hide 894
blossom 894
fossil 893
occur 892
implemented 892
Taiwanese 892
min@@ 891
cross 891
receiving 890
ph@@ 890
yo 890
iPad 890
forms 889
focused 889
vital 889
NY 887
War 887
and@@ 887
gap 887
guests 886
snacks 886
largest 885
snowing 885
dislike 885
invest 885
sugar 885
tu@@ 884
techniques 884
channel 884
15@@ 883
translated 882
Y 879
fu@@ 879
networks 879
oo@@ 879
operating 879
Su@@ 879
advertised 878
ID 878
marks 878
Sweden 878
explanation 877
obtain 877
roommate 877
ye@@ 876
Ah 876
cricket 876
Life 875
base 874
plates 874
Spring 874
politicians 873
mad 873
grandparents 873
widely 873
2002 873
iPod 872
29 871
soul 870
competitions 870
They 870
fl@@ 870
200 870
conditioner 870
Good 870
injured 869
shi 868
gate 867
nations 867
v 867
army 867
reported 867
urban 866
signed 866
explore 865
troubles 865
ters 865
sex 865
les 864
billion 864
Taipei 864
cash 863
pro@@ 863
ra@@ 863
du@@ 863
Jack 863
mis@@ 862
marry 862
un 862
fill 862
pi@@ 862
4th 862
promote 862
17@@ 860
campus 860
determined 860
Education 860
purposes 860
Please 859
poverty 859
matches 857
conference 857
shrine 857
Se@@ 856
Car@@ 855
pen 854
under@@ 854
strategy 854
exhibition 853
imagination 853
happily 853
reaction 853
clients 853
judge 853
Party 853
Brook 852
organize 852
sending 852
trips 852
Q 852
ho@@ 851
ry 851
capacity 851
Mon@@ 851
relevant 851
Thirdly 849
latter 849
Chi@@ 849
tsunami 849
copy 848
larger 848
der@@ 847
ud@@ 847
muscles 847
Thank 847
Canadian 847
tasted 847
Fukushima 847
motivated 847
separated 846
fishing 846
unusual 845
causing 845
Big 845
originally 844
participants 844
comics 844
frustrated 843
laws 843
sweat 843
smoothly 843
discounts 842
turning 842
psychological 842
election 842
And 841
ot 841
Green 841
2001 841
500 841
Hawaii 841
participated 840
performed 840
cope 840
breath 839
traveled 839
tent 838
display 838
efficiently 838
gh@@ 838
homeless 837
ama 837
korea 836
2014 836
singers 835
architecture 835
CV 835
n.d 835
fault 834
arm 834
beaches 834
concerts 833
seats 833
we@@ 833
paintings 833
Valentine 833
ke@@ 832
organised 832
treated 832
When 832
useless 831
plus 831
west 831
hu@@ 830
gold 830
session 829
touched 829
forecast 829
.pdf 829
pupils 828
bottle 828
ner 827
juice 827
chemistry 827
programming 826
sensitive 826
link 826
David 826
Health 826
nbsp 826
classical 825
ri 825
cure 825
shortage 825
farm 824
imagined 824
arguments 824
sand 824
zed 824
noisy 823
handsome 823
landscape 823
concepts 823
IELTS 822
Butler 822
cu@@ 821
ear 821
additional 820
east 820
om 819
mode 819
brilliant 818
House 818
organise 817
Ryan 816
possibly 816
cre@@ 816
massive 816
recommendations 816
polite 815
Gu@@ 814
En@@ 814
ling 814
downtown 814
pu@@ 812
anytime 812
.org/@@ 812
domestic 811
channels 811
lover 811
ny 811
increases 811
finger 811
addicted 811
generate 811
PM 810
min 810
happier 810
survey 810
crowd 809
sudden 809
et 809
manner 809
af@@ 808
surprising 808
celebrities 808
button 807
tourism 807
tv 806
tower 806
petrol 805
shock 805
stations 804
talks 803
freely 803
secondary 803
tradition 803
informed 802
raw 802
renewable 802
ma 801
emissions 801
,@@ 800
ant@@ 800
N 799
ang@@ 799
aunt 799
expecting 798
tic 798
falls 798
East 798
trade 798
begun 797
elements 797
debate 797
ther 796
ously 796
mathematics 796
clubs 795
lying 795
perspective 795
IN@@ 794
zoo 794
reports 794
seconds 794
embarrassed 794
fuels 794
afterwards 793
fame 793
wood 793
rode 793
popularity 793
ok@@ 793
sexual 793
gases 792
colder 792
Santa 792
consumers 791
Philippines 791
stadium 790
H 790
mature 790
BBC 790
boiled 789
na@@ 788
Red 788
generated 786
ig@@ 786
bet 786
ens 785
ard 785
daughters 785
drugs 784
gather 784
beginner 783
wasting 783
Le@@ 783
pork 783
ed@@ 782
profit 781
tutor 781
Egypt 781
involves 780
identity 780
creates 780
circle 779
requirements 779
bar@@ 779
ay@@ 778
attracted 777
fascinating 777
tion@@ 777
fourth 777
oc@@ 776
roll 776
jokes 775
sts 775
That 775
ents 774
greenhouse 774
existence 774
discrimination 774
alarm 773
wallet 773
smiling 773
SNS 773
unexpected 772
ology 772
Island 772
economical 772
toys 772
item 772
suggestion 771
neck 771
up@@ 771
relations 771
Friends 771
healthier 771
De@@ 770
?@@ 770
ver 769
carrier 768
14@@ 768
Li@@ 768
chi 768
writting 767
ants 767
gs 767
aside 767
approximately 766
robot 766
applications 765
Time 765
exact 765
wise 765
70 765
teaches 765
combination 764
ber@@ 764
internship 764
5th 763
Why 763
ee@@ 762
orange 762
supporting 762
context 762
Hmm 762
can@@ 761
customs 761
agency 761
risks 761
actual 760
heavily 759
mid 759
transfer 759
Of 759
Ministry 759
fed 757
reveal 757
PS 757
ping 756
salon 756
jazz 755
destroy 755
toy 755
fiction 755
seek 755
demands 755
disorder 755
eco 755
gar@@ 754
dioxide 754
begins 754
sion 754
bars 753
dormitory 753
keys 752
designing 752
Har@@ 752
distances 751
summary 751
worldwide 751
Turkey 751
neighborhood 750
seasons 750
technique 750
ut@@ 749
divided 749
feature 749
Happy 748
mysterious 748
farewell 748
characteristics 748
remains 748
OF 747
dessert 747
stands 746
ies 745
patience 745
arrange 745
stable 745
gorgeous 745
consequence 745
ink 745
opponents 745
worries 744
fifty 744
tournament 744
DVDs 744
civil 744
YouTube 743
Di@@ 741
ms 741
walls 741
replaced 740
possibilities 740
analysis 740
su 740
wealth 740
intend 739
cutting 739
Language 739
chatted 739
vision 738
electrical 737
safely 737
washed 737
politics 737
goodbye 736
expectations 736
clever 736
objective 736
College 736
brave 736
broadcast 736
authorities 736
resource 736
environmentally 736
strategies 736
shadow 735
described 735
collection 735
kers 734
citizen 734
metro 734
bins 733
sunshine 733
hiking 733
square 733
ignore 732
capable 732
hanging 731
ster@@ 731
stops 731
coach 731
rained 731
30@@ 731
hehe 731
fitness 731
ne 730
hire 730
officer 730
searched 730
deserve 729
gl@@ 729
worrying 729
diving 728
An@@ 728
ll 728
Hiroshima 728
regardless 728
ves 727
toilet 727
cooperation 727
.htm 727
satisfaction 726
tic@@ 726
height 726
encouraging 726
mails 725
dependent 724
selected 724
rang 724
moral 724
Western 724
disappeared 723
evil 723
spicy 723
candidate 723
ture 722
map 722
YOU 721
la@@ 721
onto 721
oral 720
Trivago 720
equal 719
intended 719
killing 719
relation 719
narrow 719
china 719
trash 719
blame 717
nights 717
hotels 717
Shi@@ 717
dramatically 717
anyways 716
cuisine 716
Sydney 716
Technology 714
TO@@ 713
ours 713
ana 713
producing 712
uncle 712
chan 712
delighted 711
Alice 711
repeat 711
ia 711
row 711
00@@ 711
pronounce 711
object 710
code 710
appears 710
affordable 710
Doctor 710
campaign 710
employers 710
babies 710
league 709
kindness 709
supported 709
grades 709
hardworking 709
dressed 708
ars 708
cram 708
flexible 708
outdoor 708
Diary 708
31 708
%20@@ 708
% 707
loudly 706
celebrated 706
burn 706
Power 706
workforce 706
fore@@ 705
remind 705
silly 705
humor 705
runs 705
all@@ 704
chef 704
Street 704
acquire 704
proposal 703
struggling 703
vs 703
san 703
ved 702
pen@@ 702
AR@@ 702
stairs 702
taxes 702
OMG 702
exposed 702
assignment 702
percentage 701
sunday 701
ban 701
colorful 700
opera 700
… 700
recorded 699
clinic 699
fa@@ 698
salad 698
jeans 697
ari@@ 697
ru@@ 697
household 697
reminded 696
satisfy 695
ba 695
institutions 695
shirts 694
ON 694
Times 694
W 694
tor@@ 694
mix 693
disadvantage 693
extreme 693
il 693
lion 693
SCWR 693
significantly 692
Com@@ 692
pink 692
har@@ 691
comparison 691
reminds 691
meetings 690
doors 690
II 690
zing 690
soy 690
resort 690
apple 690
burning 690
millions 689
ure 689
rose 689
gasoline 689
Who 688
entering 688
instructor 688
Center 688
artwork 688
ering 687
aw@@ 687
agent 687
ion 686
Great 686
Jane 685
!@@ 685
cant 685
ING 684
D. 684
carrying 684
industrial 684
stock 683
physically 683
rude 683
que 683
Mary 682
Vietnamese 682
tooth 682
raising 681
dollar 681
existing 681
da@@ 681
thick 681
introducing 681
annoyed 680
behave 680
disappointing 679
volunteers 679
don 679
id@@ 679
advertisements 678
ster 678
au 678
realise 677
asks 677
nearest 677
ght 677
camping 676
styles 676
bridge 676
trial 676
conducted 676
expenditure 676
balls 676
sti@@ 675
yed 675
war@@ 675
Lee 675
id 675
pregnant 675
90 675
Test 675
coal 675
ow 674
Sea 674
Love 674
everytime 674
Bi@@ 674
you@@ 674
Indonesia 674
joining 673
Un@@ 673
16@@ 673
bowl 673
northern 673
ken 673
thriller 673
writers 672
windy 672
massage 672
Ma@@ 672
flies 672
Ms 671
seldom 671
error 671
300 671
evidence 671
decreasing 671
fashionable 670
instrument 669
luxury 669
flavor 669
emotion 668
dying 668
bother 667
solving 667
mate 667
mechanical 667
grandma 667
rainbow 666
AN@@ 666
dreamed 666
ga@@ 666
fond 666
attractions 666
district 666
printing 666
app@@ 665
battle 665
miso 665
hoped 664
Ri@@ 664
talented 664
counter 664
continues 664
CPF 664
shame 663
battery 663
bands 662
needless 662
muscle 662
BBQ 662
35 662
threat 661
claimed 661
unbelievable 661
leaders 661
surface 661
13@@ 660
ga 660
silver 659
saves 659
mer@@ 659
ff@@ 658
frozen 658
tor 658
snowboarding 658
Halloween 658
constant 658
spots 657
kindly 657
prime 657
wars 656
legal 656
hospitals 656
pure 656
designer 655
warmer 655
bri@@ 655
eng@@ 655
ments 654
sur@@ 654
golden 654
dly 654
banned 654
remove 653
Switzerland 653
St@@ 653
pocket 652
bringing 652
entertaining 652
illegal 652
oldest 652
resume 652
che@@ 651
jumped 651
ess 651
rural 651
Malaysia 651
polluted 650
intelligent 650
designs 650
becouse 649
ber 649
silence 649
revolution 649
News 649
painted 647
deny 647
awake 647
ung 647
cousins 647
&amp;@@ 647
identify 646
ng 646
bas@@ 645
shed 645
65 645
stolen 644
trained 644
notebook 644
kin@@ 644
ably 644
minister 644
visa 644
AL@@ 643
threw 643
contract 643
sub@@ 643
la 643
pan 643
sooner 642
forth 642
register 642
AM@@ 641
stated 641
physics 641
ear@@ 641
chips 641
pointed 641
cabin 640
innovative 640
mates 639
dreaming 639
20th 639
hill 639
villages 639
my@@ 638
remarkable 638
kiss 637
Smith 637
fingers 637
gifts 636
bookstore 636
print 635
ali@@ 635
assistance 635
models 635
fees 635
ti 635
virus 635
arranged 634
relative 634
wheel 634
unnecessary 634
qualified 634
established 634
ah 633
temporary 632
package 632
surroundings 632
organising 631
struggle 631
quarter 631
convinced 630
Art 630
select 630
hundreds 630
hi 630
IC@@ 629
ER 629
commute 629
Obama 629
refused 628
unforgettable 627
ori 627
innocent 627
40@@ 627
vast 626
winner 626
coun@@ 626
classic 626
shift 626
Tohoku 625
studio 624
switch 624
suits 624
souvenirs 624
reduces 624
species 624
borrowed 624
cartoon 624
Kobe 624
RE@@ 623
Polish 623
deliver 623
proposed 623
laundry 623
Youtube 623
strangers 623
cookies 623
grand 622
Toronto 622
ite 622
fortune 622
oh 621
route 621
drew 621
breaking 620
ashamed 620
ears 620
creativity 620
pack 620
reception 620
of@@ 620
youngest 620
Kate 620
certificate 620
Min@@ 620
Fukuoka 620
11th 620
learner 620
feedback 620
measure 620
annual 619
bell 619
invitation 619
loving 619
absent 619
neighbor 619
cells 619
enable 618
ky 618
tone 618
finds 618
overtime 618
inspired 618
ics 617
ought 617
ser@@ 617
bill 617
promotion 617
belief 616
mor@@ 615
specially 615
=@@ 615
People 614
lovers 614
sm@@ 614
apparently 613
festivals 613
automatically 613
mothers 613
Olympic 613
gen@@ 613
associated 613
anxiety 613
blogs 613
silent 612
sun@@ 612
stranger 612
awkward 612
Soviet 612
tents 611
tables 611
ery 611
ano 611
ani@@ 611
Mo@@ 610
communicating 610
Mac 610
confirm 609
envy 609
tomato 609
earthquakes 609
Brazilian 609
Britain 608
Development 608
shorter 608
Sendai 608
Mr. 607
wor@@ 607
delivery 607
rains 607
hidden 607
daytime 607
contain 607
&quot;@@ 607
Sarah 606
wasted 606
ir 606
Gr@@ 606
ste@@ 604
gathered 604
ched 604
barely 604
recommendation 604
conventional 604
monitor 604
garlic 604
enthusiastic 603
lecturer 603
planes 602
client 602
sin@@ 602
ley 602
refuse 602
jacket 602
nurse 602
bride 602
waves 602
caring 602
Shakespeare 602
experts 602
hello 601
script 601
vegetable 601
impacts 600
studing 600
photography 600
relief 600
cou@@ 600
proved 600
air@@ 600
sk@@ 600
businesses 600
Sapporo 600
ghost 600
uni@@ 599
grammer 599
visual 599
Department 599
couples 599
supermarkets 598
men@@ 598
teenager 598
ach@@ 597
concentration 597
developments 597
sadness 597
owing 596
drug 596
Your 596
des 596
engine 595
shouted 595
actress 595
readers 595
centres 594
installed 594
lay 594
expand 594
50@@ 594
literally 594
ase 594
tight 593
reputation 593
somewhat 593
conscious 593
White 593
secure 593
Amazon 593
anniversary 593
regulations 593
Mandarin 593
religious 593
tom@@ 592
ese 592
ped 592
ache 592
cast 592
download 592
Oct 592
shaped 592
ami 591
Hollywood 591
Ukraine 591
description 590
dedicated 590
fallen 590
Black 590
crops 590
ecological 590
ying 589
meaningful 589
bur@@ 589
LA 589
Square 589
interact 589
magnificent 588
work@@ 587
achievement 587
treasure 587
textbooks 587
previously 586
minded 586
pros 586
mouse 586
crimes 586
fund 586
hole 585
chemical 585
increasingly 585
fin@@ 585
organizations 585
file 584
reduction 584
instant 584
meanings 584
:@@ 583
violence 583
delivered 583
ns 583
moves 583
experiments 583
ong@@ 583
MY 582
lift 582
James 581
hat 581
dawn 581
adjust 581
musicians 580
tie 580
passport 580
ple 580
To@@ 580
pants 579
AS@@ 579
cleaner 579
refrigerator 579
Information 579
ju@@ 579
logical 579
lets 578
roles 578
ur 578
bs 578
kimono 578
junk 578
sen@@ 577
dining 577
qualifications 577
amazed 577
savings 577
comparing 577
sounded 577
Helen 576
den 576
potato 576
refreshed 576
uc@@ 575
partners 575
ently 574
guest 574
communities 574
obesity 574
shut 573
mystery 573
Future 572
ines 572
are@@ 572
flow 572
No@@ 572
Can 572
shooting 571
indoor 571
examinations 571
ei@@ 571
end@@ 571
motorcycle 571
For 570
clouds 570
mirror 569
Ex@@ 569
sw@@ 569
determine 569
owners 568
signs 568
Yes 568
timetable 567
decade 567
President 566
monthly 566
IS@@ 565
colours 565
volume 565
mask 565
sunset 565
assessment 565
mission 564
Man@@ 564
maker 564
Th@@ 564
favor 564
enthusiasm 563
council 563
fifteen 563
50% 563
ality 563
upper 563
sofa 563
bloom 563
River 562
ned 562
cons 562
recovered 562
pull 562
coast 562
organic 561
bottles 561
industries 561
continuously 561
freshman 561
.com 561
az@@ 560
di 560
7th 560
plate 560
monuments 560
forgive 559
chocolates 559
curriculum 558
respond 558
rates 558
centers 557
prevented 557
travelled 557
inner 557
martial 557
\ 557
borrow 556
tur@@ 556
ple@@ 556
eve 556
soldiers 556
lottery 556
graduating 555
scheme 555
fer@@ 554
Yu@@ 554
genes 554
oven 553
Pe@@ 553
Rome 553
musician 553
arrival 553
ak 553
argued 553
passive 553
Night 553
State 553
hockey 552
youtube 552
200@@ 552
injury 552
Easter 551
hung 551
ridiculous 550
ise 550
ara 550
rhythm 550
ballet 550
beans 549
coworker 549
contribution 549
Joe 549
reflect 548
Koreans 548
rental 548
Louis 548
unpleasant 547
CDs 547
twelve 547
abandoned 547
controversial 547
mi 547
finance 547
organizing 546
performances 546
ce@@ 546
Hi@@ 546
inspection 546
update 546
quantity 545
bikes 545
click 545
AN 544
15th 544
25@@ 544
nickname 544
directed 544
ered 543
Maria 543
essays 543
resolution 543
temples 543
oo 542
prison 542
booked 542
ue 542
ces 542
sy@@ 542
jo@@ 542
encounter 542
ly@@ 541
Sara 541
History 541
nightmare 540
ins 540
charity 540
Institute 540
accounting 540
ori@@ 540
recipe 540
championship 539
gentle 539
scheduled 539
slight 539
outstanding 539
easiest 538
Eve 538
peoples 538
og@@ 538
rabbit 538
coolant 538
granted 537
ck 537
Are 537
controlled 537
drawbacks 537
specifically 537
texts 537
All 537
orders 536
hated 536
sacrifice 536
J. 536
contributed 535
21st 535
wished 535
operate 535
rented 535
reader 535
offering 534
cameras 534
Union 534
productivity 534
fundamental 533
sted 533
ore 533
100@@ 533
ian 533
rivers 533
Me 533
wisdom 533
wave 532
Si@@ 532
interaction 532
lectures 532
chapter 532
aggressive 532
Jackson 531
sadly 531
leadership 531
networking 531
Mother 531
cartoons 531
tension 531
Public 531
Singaporeans 531
Three 530
surf 530
heaven 530
ching 530
remaining 530
blind 530
Over 529
luggage 529
cal@@ 529
invent 529
St 529
represents 529
labor 529
acted 528
cat@@ 528
gay 528
verb 528
closely 527
cited 527
coworkers 527
q@@ 526
ashi 526
movements 526
accustomed 526
multiple 526
Max 525
resulted 525
smooth 525
sights 525
american 525
boost 525
critics 525
supper 524
youngsters 524
clerk 524
ine@@ 524
bor@@ 524
Laura 524
ups 524
ME 523
extraordinary 523
M. 523
anger 523
tied 523
fulfill 523
selfish 523
attacks 523
majoring 523
designers 522
Bo@@ 522
fied 522
col@@ 522
Christian 522
celebration 522
establish 522
mentally 521
Bu@@ 521
Par@@ 521
o&apos;clock 520
compete 520
conflict 520
sigh 520
brands 520
comfortably 519
oun@@ 519
port 519
forces 519
breaks 519
tendency 519
superior 519
14th 518
throwing 518
untill 518
produces 518
He@@ 517
insist 517
her@@ 517
roof 517
forty 516
ell@@ 516
mankind 516
protected 516
entertain 516
branch 516
touching 516
greeting 516
nursing 516
Very 516
Starbucks 516
Q@@ 516
inconvenient 515
miles 515
sustainable 515
importantly 515
gh 514
medium 514
monster 514
regarded 514
delay 513
&apos;@@ 513
firm 513
Business 513
thier 513
block 513
ative 513
picnic 513
suicide 513
mess 512
motivate 512
stages 512
shoot 512
passes 512
Jason 512
kg 512
evaluate 512
housework 511
representative 511
fri@@ 511
productive 511
snack 510
statistics 510
decline 510
episodes 510
fu 510
assume 509
bicycles 509
defined 509
tt@@ 508
shocking 508
Home 508
alright 508
shing 508
AT 507
limits 507
kinda 507
Ka@@ 507
opponent 507
accomplish 507
historic 507
guilty 506
dresses 506
mini 506
assist 506
acts 506
commuting 506
EN@@ 505
sophisticated 505
Bar@@ 505
intention 505
Ta@@ 505
Web 505
Te@@ 505
yummy 505
btw 505
Chiba 505
internal 505
diverted 505
maximum 504
ignored 504
rushed 504
surrounding 504
criminal 504
influences 504
workshop 504
vice 503
lasted 503
bone 503
upload 503
ler 502
boxes 502
ders 502
acceptable 502
pollute 502
cruel 501
attacked 501
requested 501
costume 501
criminals 501
horses 501
zone 501
exception 501
scores 501
Arabic 501
Engineering 501
bullying 501
realistic 500
sailing 500
pushed 500
investigation 500
lips 500
amusement 500
obstacles 500
recall 500
Cáceres 500
virtual 499
eleven 499
ats 499
pre 499
emission 499
UN@@ 498
000 498
ire 498
presence 498
ill@@ 498
lish 498
creatures 498
killer 498
Mark 498
some@@ 498
homestay 498
disposal 498
spa 498
Shinjuku 498
fascinated 497
Sun 497
motorbike 497
ugly 497
admission 497
Tower 497
mag@@ 496
undoubtedly 496
bitter 496
ater 496
explains 496
Feb 496
academy 496
traditions 496
ass 495
dri@@ 495
neighbors 495
robotics 495
Cambridge 494
french 494
positions 494
discussing 494
refresh 494
define 494
hurts 494
skirt 493
est@@ 493
necessity 493
pot@@ 493
interviews 493
sickness 493
calendar 493
viewing 493
restart 493
SFR 493
fought 492
philosophy 492
enables 492
standards 492
resolve 492
tons 492
rapid 492
quake 492
EL@@ 491
day@@ 491
cooler 491
ain@@ 491
therapy 491
mat@@ 490
Research 490
drawn 490
tracking 490
definition 490
accessible 490
composed 489
Rock 489
saturday 489
document 489
ep@@ 489
ton@@ 489
symbol 489
bean 489
advancement 489
ED 488
responsibilities 488
fancy 488
confusing 488
spelling 488
cigarette 488
abuse 487
minimum 487
back@@ 487
gaining 487
Cafe 487
globalization 487
UR@@ 486
flew 486
insects 486
committed 486
stroke 486
potatoes 486
output 486
OR@@ 485
casual 485
,000 485
ls 485
pursue 485
commonly 485
1.@@ 485
thankful 484
distant 484
bills 484
fake 484
lu@@ 484
sheep 484
CO2 484
sa 484
microwave 483
van 483
kilometers 483
Be@@ 483
Bangkok 483
canceled 483
boots 483
unfamiliar 483
dialy 483
rough 483
fifth 483
grilled 483
Sep 483
unhealthy 482
bunch 482
shining 482
chain 482
Have 482
headed 482
audio 482
consume 481
illnesses 481
els 481
justice 481
CNN 481
bite 481
attitudes 480
lively 480
enemy 480
As 480
Ac@@ 480
ku@@ 480
wan@@ 480
adequate 480
150 480
Dutch 480
iphone 480
diverse 480
deadline 480
advised 479
amounts 479
jumping 479
highway 479
U.S. 479
Na@@ 479
hy@@ 478
storm 477
steal 477
V 477
cul@@ 477
excitement 477
obligation 477
Dr 477
continuous 477
outcome 477
damn 477
100% 477
CH@@ 476
bo 476
by@@ 476
occasionally 476
protecting 476
forests 476
Autumn 476
SUMMER 476
miserable 475
winning 475
origin 475
spreading 475
pension 475
Wall 475
Francisco 475
hay 475
revealed 474
vacations 474
tical 474
spe@@ 474
occasion 474
deserves 474
ven@@ 474
belongs 474
tip 474
exists 474
scholarship 474
appetite 474
ji@@ 474
System 474
procedures 474
uk@@ 473
1999 473
Hu@@ 473
ators 473
humanity 473
charming 473
pulled 473
Umm 473
kick 473
ey 472
10th 472
ches 472
Let 472
beliefs 472
ther@@ 471
ham 471
Jan 471
dare 471
cur@@ 471
genius 471
Journal 471
cough 471
aims 470
Man 470
stones 470
assignments 470
Tr@@ 470
grocery 470
collected 469
tremendous 469
consuming 469
hamburger 469
weakness 469
calories 469
Tak@@ 468
sorts 468
tends 468
fairy 468
Me@@ 468
shes 468
unit 468
ata 468
den@@ 467
gun 467
Ne@@ 467
practising 467
Co@@ 467
balanced 467
MSN 467
chilly 467
actively 467
organisation 466
complaining 466
managing 466
succeeded 466
ely 466
lit@@ 466
improves 466
tran@@ 466
races 466
banana 466
input 466
implementation 466
photographs 465
property 465
retired 465
27@@ 465
Ro@@ 465
border 465
Nor@@ 465
Minister 465
maintaining 465
star@@ 464
vo@@ 464
West 464
fishes 464
ambulance 464
violent 464
reservation 464
kes 464
expectation 464
ku 464
OS 464
ho 464
ba@@ 464
decreased 464
Palace 464
machinists 464
ward 463
Karaoke 463
posting 463
distinguish 463
25th 462
za 462
represent 462
pride 462
discipline 462
miracle 462
modified 462
costly 462
Show 461
unfair 461
ladies 461
Leisure 460
ale 460
Fu@@ 460
deli@@ 460
gathering 460
distributed 460
pattern 460
springs 460
institute 459
viewers 459
13th 459
sta@@ 459
hardest 459
dorm 459
spaghetti 459
regions 459
principles 459
kitchens 459
railway 458
ll@@ 458
frankly 458
curiosity 458
equipped 458
proverb 458
sal@@ 457
manners 457
slim 457
sharp 457
For@@ 457
McDonald 457
colored 457
niece 457
baked 457
principal 456
por@@ 456
journalist 456
employed 456
ach 456
nonetheless 456
platform 456
Nara 456
engaged 456
45@@ 455
scientist 455
lock 455
Wikipedia 455
AL 454
acc@@ 454
apologize 454
friday 454
continuing 454
absence 454
ann@@ 454
slang 454
mas 454
Temperature 454
dent 453
attempt 453
biology 453
cri@@ 453
partially 453
colleges 453
malls 453
troublesome 453
islands 453
alism 453
basket 452
accurate 452
deeper 452
stic 452
Netherlands 452
cho@@ 451
interior 451
titled 451
constructed 451
edge 451
Association 451
our@@ 450
seeking 450
expert 450
cups 450
brief 450
decides 450
Mexican 450
steak 450
farmers 450
mixi 450
)@@ 450
weekdays 449
fre@@ 449
resulting 449
respected 449
sung 449
handed 449
6th 449
serves 449
don@@ 449
distribution 449
occurs 449
use@@ 448
gre@@ 448
spaces 448
res 448
Vi@@ 448
souvenir 448
google 448
routes 448
terrorist 448
2015 448
AT@@ 447
George 447
electronics 447
earned 447
selection 447
cm 447
bin 447
sit@@ 447
grave 447
Station 447
remained 447
spirits 447
achievements 446
breathing 446
powered 446
wears 445
urgent 445
grabbed 445
nephew 445
+@@ 445
Arts 444
procedure 444
observe 444
tation 444
talents 444
18th 444
breeze 444
hotter 444
aka 444
hum@@ 444
typing 444
Adam 444
proven 444
Castle 444
.html}&#91;HYPERLINK 444
payment 443
Dragon 443
soil 443
2013 443
translator 443
attraction 442
detailed 442
Music 442
desert 442
Ko@@ 442
preserve 442
translating 442
ER@@ 441
AK@@ 441
false 441
arrested 441
adding 441
Br@@ 441
convince 441
ging 440
darkness 440
ee 440
spanish 440
founded 440
eldest 440
defense 440
flour 440
vivid 440
é@@ 440
gardens 439
ately 439
reaching 439
refers 439
s.@@ 439
gadgets 438
Bali 438
stiff 438
inevitable 437
remote 437
agreement 437
gy 437
alot 437
pretend 437
ty@@ 437
Design 437
Ni@@ 437
universe 437
32 437
Olympics 437
graduates 437
Ad@@ 436
focusing 436
economically 436
Windows 436
fare 436
analyze 436
adopted 436
limitation 435
staffs 435
voices 435
stu@@ 435
ment@@ 435
vote 435
gloomy 435
every@@ 434
graph 434
ism 434
preferred 434
600 434
ceiling 434
load 434
FOR 433
nursery 433
San@@ 433
worn 433
minor 433
Ha@@ 433
oneself 433
poem 433
optimistic 433
12th 432
climbed 432
Los 432
fy 432
advances 432
independence 432
ger 432
positively 432
Inter@@ 432
suggests 432
posts 432
elevator 432
ware 432
fridge 431
ES 431
luxurious 431
ele@@ 431
gossip 431
aya 431
palace 431
seniors 431
cabins 430
starring 430
solid 430
qualities 430
arriving 430
ap 430
NZ 430
ni 430
markets 429
yu 429
tube 429
length 429
congratulations 429
shaking 429
thin@@ 429
plain 429
expressing 429
sees 429
fairies 429
EN 428
presentations 428
keyboard 428
professionals 428
warning 428
tune 428
insufficient 428
wooden 428
heritage 428
33 428
conflicts 428
dependency 428
Z 427
Wi@@ 427
bomb 427
strike 427
ade 427
tics 427
Col@@ 427
Pre@@ 427
ov@@ 427
documentary 427
cation 427
WAS 426
endless 426
din@@ 426
portion 426
reward 426
NBA 426
jog 426
ESL 426
conduct 426
US@@ 425
server 425
accounts 425
proof 425
dolls 425
frightened 425
Not 425
skip 425
Turkish 425
qualification 425
Kansai 425
ada 425
Water 425
floors 424
som@@ 424
thr@@ 424
temperatures 424
creation 424
entirely 424
DS 424
driven 424
Milan 424
implement 424
submit 424
zero 424
owned 424
differently 423
qui@@ 423
offices 423
illustrate 423
planted 423
advices 422
fellow 422
reserve 422
appeal 422
destruction 422
sets 422
24@@ 422
extensive 422
engines 422
Government 422
stability 422
Genetic 422
delayed 421
ON@@ 421
celebrity 421
fantasy 421
bless 421
hug 421
harsh 421
disabled 421
disorders 421
NOT 420
Because 420
cloth 420
23@@ 420
B. 420
head@@ 420
Im 420
Games 420
Tom@@ 420
roommates 420
programmer 420
hot@@ 419
grey 419
motion 419
dose 419
Murakami 419
GM 419
elders 419
sup@@ 418
any@@ 418
announcement 418
eri@@ 418
expressed 418
aki 418
pounds 417
cos@@ 417
propose 417
Dream 417
frequent 417
avoided 417
grammatical 417
Little 417
Sam@@ 417
struck 417
Steve 416
discussions 416
Dec 416
leaning 416
merely 416
barbecue 416
promising 416
Shin@@ 416
helium 416
encourages 415
artificial 415
fastest 415
decorated 415
involve 415
playground 415
cave 415
Hotel 415
11@@ 415
explosion 414
Jennifer 414
.... 414
1998 414
demanding 414
wanting 414
od@@ 414
limiting 414
install 413
S. 413
Chicago 413
consumer 413
hon@@ 413
sli@@ 413
Lake 413
anti 413
burger 413
nutrition 413
abortion 413
Fi@@ 412
mayor 412
knee 412
spectacular 412
ancestors 412
tan@@ 412
smiles 412
tested 411
Jo@@ 411
dust 411
duties 411
weapon 411
namely 411
Mal@@ 411
Qu@@ 411
makers 411
arise 411
tly 410
Martin 410
necessarily 410
snowy 410
19th 410
sting 410
Cor@@ 410
hunger 410
800 410
Moon 409
irritated 409
promoted 409
lifetime 409
magical 409
oshi 409
hearted 409
flood 409
unlucky 408
Argentina 408
manufacturing 408
monday 408
sectors 408
1995 408
grows 408
Ru@@ 408
contributing 408
ss 407
licence 407
cheapest 407
Sports 407
concrete 407
discoveries 407
tragedy 407
Robert 407
meets 407
supporters 407
accents 407
respectively 407
cloud 407
jealous 406
precise 406
uniform 406
candidates 406
African 406
Go 406
initially 406
34 406
launched 406
Bob 406
banks 406
IT@@ 405
waiter 405
princess 405
ences 405
9th 405
Roman 405
ft 405
faculty 405
dried 404
stared 404
hand@@ 404
waking 404
ess@@ 404
ita 404
doll 404
intermediate 404
assigned 404
proportion 404
honey 403
iron 403
unemployment 403
opens 403
profession 403
desperate 403
patterns 403
super@@ 403
ening 403
aquarium 403
Yoga 403
Sushi 403
Theatre 402
suprised 402
shouting 402
kidding 402
stuffs 402
fun@@ 402
considerable 402
Book 402
panic 402
tommorow 402
passionate 402
ain 402
gender 402
ships 401
doubts 401
mus@@ 401
evident 401
dramatic 401
hom@@ 401
blow 401
cheers 401
16th 400
dating 400
ace 400
combined 400
Portuguese 400
es/@@ 400
swam 399
shelter 399
terribly 399
complained 399
departure 399
picking 399
Sal@@ 399
Greece 399
act@@ 399
29@@ 399
butter 399
squ@@ 399
external 399
Now 398
edition 398
returning 398
ate@@ 398
peak 398
char@@ 398
400 398
pose 398
oops 398
Shibuya 398
Str@@ 398
researches 397
Mer@@ 397
fairly 397
Ba@@ 397
symptoms 397
manually 397
undergo 397
dic@@ 396
promises 396
commit 396
automobile 396
loo@@ 396
heading 396
8th 396
idioms 396
gallery 395
costumes 395
Merry 395
partly 395
memorable 395
friendships 395
plz 395
Fr@@ 395
oriented 395
Company 394
tricks 394
00pm 394
dull 394
allowing 394
stopping 394
province 394
weekly 394
atomic 394
Family 394
AD@@ 393
alized 393
instantly 393
serving 393
spell 393
conditioning 393
paragraph 393
Ver@@ 393
ots 393
subsidies 393
estimated 392
earning 392
hunt 392
southern 392
ino 392
broad 392
retire 392
Pi@@ 392
timing 392
approaching 392
owning 392
exhaust 392
Hall 391
communications 391
cruise 391
fired 391
pres@@ 391
new@@ 391
draft 391
Rogers 391
occupation 391
tags 391
tofu 391
intelligence 391
admitted 390
/0@@ 390
pop@@ 390
wr@@ 390
enjoys 390
Microsoft 390
practices 390
contacted 390
Ashby 390
bound 389
Birthday 389
Anne 389
laid 389
Mat@@ 389
dizzy 389
happend 388
Micheal 388
interval 388
home@@ 388
bu 388
recession 388
steam 388
broaden 388
TH@@ 387
victim 387
centuries 387
occasions 387
ash@@ 387
Gen@@ 387
motor 387
ome 387
On 387
tically 387
didnt 387
hopes 386
categories 386
fam@@ 386
55 386
backgrounds 386
overslept 386
Law 386
outline 386
emails 386
religions 386
drought 386
ere 385
Alex 385
guarantee 385
linked 385
wildlife 385
zation 385
burned 385
donate 385
Kindle 385
injuries 385
uranium 385
LE@@ 384
cancel 384
performing 384
explaining 384
thanked 384
compulsory 384
operas 384
Fast 384
funeral 384
Tomo 384
Shizuoka 384
THAT 383
tidy 383
refer 383
ck@@ 383
Mc@@ 383
shake 383
Social 383
sections 383
desserts 383
kan 383
multi 382
tem@@ 382
ht 382
travels 382
iness 382
ultimate 382
Game 382
joint 382
tomatoes 382
Dickens 382
GPS 382
sch@@ 381
differ@@ 381
welcomed 381
gg@@ 381
AC 381
Akihabara 381
chess 381
similarly 381
ethical 381
17th 380
figures 380
crew 380
Thomas 380
Star 380
catching 380
medi@@ 380
pubs 380
seafood 380
Extremadura 380
wri@@ 379
occupied 379
Huang 379
candy 379
honor 379
80@@ 379
&#124; 379
photograph 378
structures 378
charged 378
chairs 378
Ju@@ 378
incorrect 378
ances 378
chores 378
ane 378
Celine 378
hip 378
Seattle 378
chart 378
meter 378
adopt 378
MSR 378
guessed 377
cli@@ 377
ack 377
quote 377
Lo@@ 377
athletes 377
hostel 377
Jesus 377
AP@@ 376
survival 376
pat@@ 376
ures 376
highschool 376
recipes 376
cal 376
wastes 376
satisfying 376
revealing 376
victory 376
resistance 376
lowest 376
Prefecture 376
vulnerable 376
filial 376
refund 375
Circle 375
planed 375
command 375
ened 375
affairs 375
sample 375
Han@@ 375
cherish 375
longest 375
swine 375
barrier 375
Sakura 375
collapse 374
guard 374
dates 374
IM@@ 374
pie 374
profits 374
recovery 374
cable 374
equally 373
association 373
fabulous 373
contained 373
del 373
sings 373
acquired 373
Will 372
comm@@ 372
odd 372
Sen@@ 372
inhabitants 372
exercising 372
comprehension 372
avoiding 372
MO@@ 371
outdoors 371
tre@@ 371
punishment 371
ied 371
ound 371
tire 371
tors 371
outweigh 371
initial 371
messy 371
powder 371
thermal 371
AC@@ 370
loose 370
examine 370
sions 370
decent 370
careless 370
Last 370
Radio 370
faith 370
commitment 370
claims 370
fate 370
Boston 370
Haruki 370
congestion 370
consecutive 370
ao 369
Lu@@ 369
ming 369
Greek 369
rain@@ 369
happiest 369
predict 369
crossed 369
ive 369
Ireland 369
Kamakura 369
soba 369
participation 369
Kan@@ 369
terrorism 369
IR@@ 368
shout 368
ini@@ 368
ites 368
Texas 368
requirement 368
sincere 368
blooming 368
desu 368
Prime 368
treatments 368
supports 367
considerably 367
violin 367
sol@@ 367
danced 367
emphasis 367
develops 367
ato 367
onion 367
undergraduate 367
verbs 367
shoulders 367
Singaporean 367
containers 367
stri@@ 366
cent 366
packing 366
Ku@@ 366
age@@ 366
Food 366
Centre 366
recycled 365
endure 365
int@@ 365
tag 365
jet 365
Jap@@ 365
skate 365
closing 364
tele@@ 364
shima 364
medal 364
breathe 364
bothered 364
Writing 364
garage 364
1/@@ 364
react 364
Hir@@ 364
lacking 364
uneasy 364
pig 364
one@@ 364
demonstrated 364
Academy 363
ving 363
considerations 363
identification 363
hitting 363
&apos;cause 363
indicates 363
La 363
neighbourhood 363
Latin 363
with@@ 363
evaluation 363
tackle 363
NHK 363
operators 363
Fashion 362
element 362
Computer 362
excessive 362
exchanged 361
buried 361
coin 361
frequency 361
pepper 361
tank 360
whilst 360
informal 360
Land 360
strawberry 360
mobility 360
similarities 359
collecting 359
knocked 359
ges 359
Master 359
eel 359
Learning 359
broadcasting 359
cuz 359
charm 359
ST@@ 358
decoration 358
displayed 358
pitch 358
ban@@ 358
belonged 358
waiters 358
champion 358
inv@@ 358
hearts 358
oro 358
financially 358
Job 358
environments 358
flash 358
waitress 357
elling 357
ae 357
shore 357
formed 357
ff 357
giant 357
blowing 357
specialized 357
Pro@@ 357
files 357
beginners 356
instructions 356
SH@@ 356
After 356
freezing 356
accompanied 356
Ok@@ 356
kanji 356
snowed 356
Avatar 356
sodium 356
20:15 355
SU@@ 355
resi@@ 355
off@@ 355
rel@@ 355
El@@ 355
elegant 355
disgusting 355
24th 355
holds 355
Monica 355
Cha@@ 355
1986 355
foundation 355
son@@ 355
cares 355
Denmark 355
terrorists 355
oxygen 354
heating 354
Oxford 354
drums 354
varied 354
kin 354
trainer 354
neglected 354
division 354
op 354
Service 354
Ben 354
SP@@ 353
hel@@ 353
fool 353
covers 353
uni 353
addiction 353
09@@ 353
athletic 353
Washington 353
Human 353
ast 352
ct 352
teamwork 352
bli@@ 352
accidentally 352
launch 352
Fe@@ 352
exploring 352
transferred 352
container 352
ili@@ 351
ect 351
The@@ 351
About 351
airplanes 351
fiscal 351
ash 351
Bible 351
hangover 351
premium 351
dd@@ 351
karate 351
flexibility 351
yard 350
objects 350
greetings 350
em 350
bass 350
seaside 349
ket 349
socks 349
medicines 349
blocks 349
Age 349
nal 349
09 349
Rainbow 348
VERY 348
assure 348
tuition 348
Her@@ 348
employer 348
pic@@ 348
Emily 348
adi@@ 348
stud@@ 348
crash 348
inspiration 348
che 348
Kar@@ 348
fur@@ 348
ious 348
Che@@ 348
chest 348
sucks 348
deer 348
lakes 348
deaths 347
tale 347
letting 347
Im@@ 347
steady 347
loneliness 347
Lady 347
turtle 347
Miyazaki 347
bowling 347
strengths 347
thief 346
tail 346
Saudi 346
ner@@ 346
graphic 346
thoroughly 346
childish 346
Kingdom 346
scored 346
dental 346
sixteen 345
ID@@ 345
NO 345
ame 345
handy 345
favour 345
expense 345
researching 345
Friend 345
civilization 345
ringing 345
ura 345
allergy 345
Cal@@ 345
quarrel 345
sexy 345
bench 345
strengthen 345
exposure 345
cafes 345
implementing 345
disc@@ 344
permission 344
fir@@ 344
boiling 344
enrich 344
gray 344
700 344
Manga 344
stylish 344
Holiday 344
proficiency 344
praying 344
Ji 344
60@@ 344
mornings 344
www.@@ 344
incredibly 343
knife 343
bre@@ 343
def@@ 343
chief 343
weekday 343
olo@@ 343
bay 343
manual 343
genre 343
Church 343
cha 343
TR@@ 342
EC@@ 342
landscapes 342
removed 342
thi@@ 342
ose 342
screamed 342
stepped 342
Society 342
Pri@@ 342
pan@@ 342
Ste@@ 342
roller 342
aku 342
visible 342
obligated 342
farmland 342
ole 341
ily 341
ore@@ 341
22@@ 341
enjoyment 341
chorus 341
pt 341
hur@@ 341
bat 341
30am 341
inf@@ 341
Okonomiyaki 341
watashi 341
Angels 341
ingly 340
5000 340
eighteen 340
Everyone 340
rescue 340
ize 340
vol@@ 340
bachelor 340
ani 340
bonus 340
Celsius 340
organizational 340
inconvenience 339
iting 339
authority 339
pressed 339
tes 339
destroying 339
play@@ 339
trick 339
devote 339
see@@ 339
coincidence 339
bake 339
professors 339
refreshing 339
generating 339
pat 338
placement 338
ray 338
personnel 338
balcony 338
connections 338
Edo 338
limitations 338
lasts 337
Mor@@ 337
crashed 337
lands 337
angel 337
agriculture 337
sociable 337
participating 337
Work 337
chase 337
mal@@ 337
Indonesian 337
jin 337
7% 337
blah 337
principle 337
wat@@ 336
00am 336
hired 336
misunderstanding 336
ory 336
thrown 336
approached 336
confuse 336
dge 336
48 336
contemporary 336
capability 336
Mu@@ 336
NYC 336
taxis 335
complaints 335
pos@@ 335
ol 335
authors 335
stor@@ 335
puts 335
Du@@ 335
Gi@@ 335
demonstrate 335
facility 335
tokyo 335
cigarettes 335
oy@@ 335
Nagano 335
damages 335
isolated 334
p.m. 334
Miss 334
ited 334
smells 334
destiny 334
residential 334
ONE 333
AB@@ 333
ari 333
thunder 333
Fund 333
Ham@@ 333
grasp 333
BE 332
confusion 332
seller 332
dive 332
obtained 332
bones 332
Saint 332
combine 332
Er@@ 332
Class 332
ek 332
praised 332
differ 332
survived 332
Middle 332
invisible 332
extend 332
OM@@ 331
complaint 331
ell 331
aff@@ 331
fears 331
neighbour 331
tional 331
Sa@@ 331
pairs 331
tal@@ 331
fatigue 331
Shinkansen 331
ka@@ 331
grab 331
Rachel 331
cial 330
30th 330
radi@@ 330
ist 330
att@@ 330
atsu 330
upcoming 330
feasible 330
societies 330
Vegas 330
va 330
I&apos;m 330
OR 329
app 329
diversity 329
New@@ 329
kisses 329
hun@@ 329
eats 329
wing 329
seeds 329
tap 329
frist 329
christmas 329
whoever 329
plutonium 329
quiz 328
K. 328
trans@@ 328
lawyer 328
liquid 328
whi@@ 328
Town 328
escaped 328
Ti@@ 328
Mom 328
availability 328
Melbourne 328
General 328
lane 328
Busan 328
boil 328
occured 327
5% 327
med 327
joyful 327
award 327
appealing 327
bamboo 327
socially 327
oka 327
Emma 326
So@@ 326
beautifully 326
dangers 326
crossing 326
Lord 326
expectancy 326
root 326
harassment 326
respondents 326
LO@@ 325
appliances 325
incidents 325
reserved 325
Pl@@ 325
evenings 325
puzzle 325
With 325
nam@@ 325
automatic 325
makeup 325
Agency 325
yo@@ 325
xD 325
overnight 325
DC 325
Temple 325
apples 325
.pdf}&#91;HYPERLINK 325
ES@@ 324
stays 324
alternatives 324
accordingly 324
guns 324
scream 324
grandpa 324
wider 324
challenged 324
believes 324
powers 324
stomachache 324
ghosts 324
criteria 324
recording 323
lly 323
mutual 323
sel@@ 323
Air 323
format 323
goverment 323
slower 323
fication 323
Group 323
sunlight 323
drum 323
runny 323
fluency 323
Story 323
leaf 323
churches 323
dialect 323
preventing 323
persuade 322
captain 322
AG@@ 322
astonished 322
gratitude 322
cas@@ 322
strictly 322
soaked 322
sixth 322
lang8 322
meaningless 322
ler@@ 322
75 321
reactions 321
res@@ 321
accessories 321
Sky 321
artistic 321
tively 321
harvest 321
beloved 321
drives 321
Scotland 321
effectiveness 321
aimed 321
baking 321
dumplings 321
R&amp;D 321
Sk@@ 320
Old 320
priced 320
requests 320
mer 320
handling 320
cooperate 320
screaming 320
delicate 320
Literature 320
Kanji 320
tra@@ 320
siblings 320
committee 320
estate 320
pollen 320
inspected 320
Winter 320
rage 319
waist 319
ruined 319
contributes 319
embarrassing 319
musics 319
unfortunate 319
alist 319
Buddhist 319
Queen 319
Miyagi 319
paste 319
30% 319
2.@@ 319
R. 319
talkative 318
murder 318
begining 318
answering 318
walks 318
cafeteria 318
hol@@ 318
Agatha 318
purchasing 318
gene 318
managers 318
Ji@@ 318
Wang 318
recentry 318
broadcasted 318
genetically 318
gas@@ 318
Ramen 318
sustain 318
Cooled 318
concentrated 317
Network 317
confirmed 317
Grand 317
Petersburg 317
pushing 317
shine 317
bus@@ 317
paparazzi 317
tter 317
Ten@@ 317
enhanced 317
Pacific 317
Forum 317
slave 317
belive 316
marvelous 316
humidity 316
emphasize 316
ams 316
writes 316
ble@@ 316
random 316
Israel 316
favorites 316
Nov 316
sooo 316
Granada 316
orchestra 315
petroleum 315
Las 315
chil@@ 315
heater 315
itchy 315
exhausting 314
relaxation 314
drops 314
p.@@ 314
nerves 314
My@@ 314
goo@@ 314
Hospital 314
shit 314
Sp@@ 314
coins 314
tropical 314
reads 314
Ki@@ 314
eliminate 314
Beatles 314
spr@@ 314
toxic 314
portable 313
angle 313
les@@ 313
Speaking 313
resist 313
pol@@ 313
generous 313
records 313
unexpectedly 313
ye 313
opposition 313
Part 313
ipod 313
bilingual 313
uh 313
Sha@@ 313
supervisor 313
minimize 313
ining 312
li 312
analyse 312
wins 312
understandable 312
interviewer 312
sk 312
sumo 312
ust 312
maintained 312
hara 312
web@@ 312
traits 312
proceed 312
endangered 312
ama@@ 311
confortable 311
foolish 311
observed 311
summarize 311
quietly 311
Post 311
beers 311
filling 311
restricted 311
poetry 311
uri@@ 311
Lang8 311
Roppongi 311
alert 311
statue 311
defend 311
smartphones 311
Au@@ 310
queue 310
describing 310
pour 310
relieve 310
36 310
depth 310
stuffed 310
80% 310
characteristic 310
yu@@ 310
yelled 310
competing 310
crowds 309
Tim 309
enclosed 309
Economics 309
marine 309
ads 309
tech 309
Eiken 309
Be 309
belly 309
diligent 309
Press 309
samurai 309
pal@@ 309
schemes 309
win@@ 308
dances 308
evolution 308
cher 308
Daniel 308
democracy 308
Juan 308
od 308
wireless 308
yama 308
encountered 308
careers 308
volunteering 308
educating 308
aring 307
ouse 307
Ann 307
administration 307
G. 307
Nature 307
shots 307
ici@@ 307
ency 307
Reading 307
storage 307
70@@ 307
invested 307
Jenny 307
perfume 307
investing 307
42 307
boxing 307
heads 307
part@@ 307
Culture 307
uploaded 307
staring 306
han@@ 306
sells 306
consist 306
mid@@ 306
bled 306
stem 306
mm 306
oto 306
pp@@ 306
mm@@ 306
Kanagawa 306
oon 306
regulation 306
FM 306
achieving 306
researcher 305
sandwiches 305
thirteen 305
chemicals 305
aps 305
Per@@ 305
buffet 305
Mile 305
desperately 305
indispensable 305
Mar 305
han 305
Communication 305
largely 305
Office 305
destinations 305
chaos 305
deforestation 305
Peterson 305
eness 304
ared 304
repaired 304
revise 304
split 304
interviewed 304
ona 304
cans 304
burst 304
St. 304
non@@ 304
bi 304
10000 304
mmm 304
literacy 304
seasonal 304
oko 304
hasn&apos;t 303
Restaurant 303
44 303
tar@@ 303
appreciation 303
breast 303
legend 303
03 303
phase 303
cap@@ 303
eg@@ 303
enc@@ 303
yaki 303
natto 303
tuna 303
perception 303
Aging 303
serendipitous 303
beca@@ 302
zz@@ 302
universal 302
forgetting 302
tely 302
nationality 302
involving 302
ope 302
relating 302
purple 302
rolled 302
240 302
Long 302
Aug 302
immigrants 302
devastating 302
layer 301
La@@ 301
anc@@ 301
extended 301
browser 301
figured 301
corn 301
Manager 300
pe 300
existed 300
after@@ 300
compromise 300
indirectly 300
banking 300
Second 300
deciding 300
bro@@ 300
aliens 300
sha 300
vocabularies 300
officers 300
proliferation 300
penalty 300
biological 299
IC 299
Best 299
libraries 299
Saturdays 299
politician 299
ake 299
trading 299
Wii 299
Girl 299
IK@@ 299
doc@@ 299
easing 299
ger@@ 299
net@@ 298
abandon 298
ra 298
controlling 298
pencil 298
polish 298
nom@@ 298
cozy 298
snake 298
Mas@@ 298
corporate 298
utility 298
doorbell 298
infected 298
facilitate 298
filmed 297
ners 297
aries 297
sters 297
Angeles 297
floating 297
upstairs 297
editor 297
periods 297
exchanging 297
tru@@ 297
del@@ 297
welcoming 297
lighting 297
key@@ 297
gener@@ 297
slide 297
engage 297
personalities 297
molten 297
parked 296
adventures 296
stove 296
sty 296
poster 296
Sun@@ 296
Dis@@ 296
housewife 296
sm 296
laziness 296
melody 296
3000 296
dies 296
passenger 296
porcelain 296
33@@ 296
happ@@ 295
Ocean 295
unity 295
owns 295
trends 295
worthy 295
likewise 295
enemies 295
Mike 295
hiding 295
Japan@@ 295
experiencing 295
approaches 295
Children 295
outlet 295
NO@@ 294
newest 294
NE@@ 294
ets 294
bond 294
amusing 294
ined 294
thrilling 294
Lisa 294
hiring 294
locked 294
fli@@ 294
Ken 294
roses 294
07 294
idiom 294
bosses 294
polluting 294
Colombia 294
graphics 294
promoting 294
GO 293
iced 293
Sch@@ 293
lend 293
soooo 293
subtitle 293
sensation 293
zu 293
ram@@ 293
Eng@@ 293
exc@@ 292
L. 292
runner 292
strain 292
category 292
mixture 292
unpredictable 292
Charles 292
tim@@ 292
woods 292
bal@@ 292
questionnaire 292
frame 292
Res@@ 292
Cu@@ 292
tram 292
Committee 292
A. 292
queues 291
ologist 291
arrangement 291
idol 291
theoretical 291
XXX 291
blamed 291
predicted 291
ude 291
alize 291
E. 291
imported 291
ultimately 291
Well 291
Real 291
laughter 291
Claus 291
worm 291
28@@ 291
soundtrack 291
cen@@ 290
run@@ 290
tun@@ 290
flats 290
lasting 290
fo@@ 290
wings 290
intellectual 290
gy@@ 290
dai@@ 290
accompany 290
manufacturers 290
19:30 289
Natural 289
Sam 289
posi@@ 289
purse 289
receptionist 289
celebrating 289
rac@@ 289
Bur@@ 289
Project 289
salaries 289
possess 289
Catholic 289
BC 289
weeping 289
p. 289
kissed 288
LE 288
audiences 288
shop@@ 288
thy 288
butterfly 288
frustrating 288
defeat 288
eing 288
poems 288
worthwhile 288
stream 288
collage 288
ts@@ 288
gue 288
agricultural 288
500@@ 288
mandatory 288
zoos 288
boards 287
explanations 287
sour 287
repeated 287
observation 287
ows 287
langu@@ 287
heated 287
circumstance 287
Saitama 287
airline 287
Co 287
Android 287
defeated 287
associate 287
asset 287
craft 287
corruption 287
overweight 287
illustration 287
combustion 287
Ser@@ 286
zes 286
bing 286
strongest 286
neighbours 286
oll@@ 286
aloud 286
forbidden 286
Ky@@ 286
Rec@@ 286
adapted 286
Norway 286
reluctant 286
uki 286
j 286
unstable 286
26@@ 286
bears 286
muscular 286
inexpensive 286
updated 286
Venice 286
constructing 286
IL@@ 285
speci@@ 285
quicker 285
boom 285
sive 285
host@@ 285
ature 285
20% 285
deals 285
criticism 285
shipping 285
foo@@ 285
coz 285
mat 285
clinical 285
memorizing 285
Khandani 285
naughty 284
aver 284
watches 284
ry@@ 284
utilize 284
ene@@ 284
remembering 284
ami@@ 284
pile 284
farmer 284
Nagasaki 284
Mac@@ 284
ste 284
Jewish 284
Kam@@ 284
branches 284
intense 284
substantial 284
Istanbul 284
Systems 284
TED 283
publish 283
pale 283
rewarding 283
Vienna 283
down@@ 283
stole 283
high@@ 283
affection 283
Val@@ 283
AI 283
stunning 283
mild 283
However 283
campaigns 283
tures 282
supplies 282
earliest 282
was@@ 282
assess 282
investigate 282
ie 282
roughly 282
cooling 282
Kat@@ 282
truck 282
2009@@ 282
ically 282
Pu@@ 282
incentives 282
weaknesses 282
construct 282
Budapest 282
informations 281
obey 281
mas@@ 281
describes 281
thirsty 281
owed 281
electr@@ 281
hamburgers 281
Danish 281
ethnic 281
hor@@ 281
Edison 281
organs 281
mos@@ 280
dictionaries 280
usu@@ 280
elled 280
vary 280
sence 280
producer 280
thes 280
Belgium 280
Des@@ 280
ination 280
read@@ 280
Ke@@ 280
Chile 280
arrives 280
racing 280
primarily 280
agi 280
wheels 280
time@@ 280
29th 279
vocal 279
steel 279
disturb 279
fist 279
beating 279
Study 279
concluded 279
snowboard 279
revenue 279
residence 279
teens 279
guides 279
GDP 279
Nag@@ 279
toads 279
practically 278
gri@@ 278
38 278
Jones 278
enrolled 278
Richard 278
post@@ 278
swing 278
ached 278
brains 278
diabetes 278
finals 278
Nintendo 278
smartphone 278
Egyptian 278
.edu/@@ 278
realy 277
AR 277
recom@@ 277
fits 277
Arabia 277
ction 277
witness 277
settle 277
ica 277
ng@@ 277
grammatically 277
Ginza 277
Dai@@ 277
Where 277
radioactivity 277
Ge@@ 277
Toyota 277
pin@@ 277
Sophie 277
nail 277
fire@@ 277
Karate 277
securely 277
AS 276
briefly 276
revenge 276
Student 276
ut 276
conquer 276
atory 276
Cantonese 276
addressed 276
Tu@@ 276
simultaneously 276
immense 276
429 276
ruin 275
Jon 275
org@@ 275
Or@@ 275
folk 275
ote 275
diff@@ 275
permanent 275
abstract 275
cosmetics 275
parade 275
sn@@ 275
Training 275
union 275
reunion 275
mindset 275
prevention 275
skates 275
rocks 274
renew 274
ady 274
unemployed 274
booking 274
Gar@@ 274
comp@@ 274
lat@@ 274
convey 274
Back 274
trivial 274
deposit 274
cane 274
Vacation 274
roots 274
pond 274
dealt 274
ju 274
Berlin 274
chip 274
rejected 274
Cathedral 274
formation 273
hoo@@ 273
shu@@ 273
An 273
asu 273
Asakusa 273
ath 273
uma 273
vacancy 273
engagement 273
TS 272
tender 272
denied 272
dressing 272
soci@@ 272
precisely 272
FCE 272
Teacher 272
Cl@@ 272
Victoria 272
sou@@ 272
substances 272
retail 272
divide 272
splendid 272
homepage 272
locations 272
Act 272
abundant 272
ws 271
OO@@ 271
punished 271
ald 271
End 271
installation 271
printer 271
hesitated 271
Kin@@ 271
ota 271
udon 271
snow@@ 271
Medical 271
37 271
238 271
signal 270
cheating 270
cared 270
nowhere 270
resistant 270
downstairs 270
sum@@ 270
consciousness 270
teenage 270
cooks 270
lesser 270
orientation 270
harmony 270
gum 270
podcast 270
salmon 270
belt 270
implies 270
implications 270
attracts 269
SO 269
SE@@ 269
closest 269
immediate 269
not@@ 269
fashioned 269
Road 269
house@@ 269
expanding 269
impressions 269
ass@@ 269
eyesight 269
romance 269
Foreign 269
Up 269
08 269
glory 269
stew 269
prone 269
sessions 269
Population 269
forum 269
modes 269
Provident 269
jail 268
swear 268
Father 268
ution 268
prior 268
ren@@ 268
We@@ 268
planets 268
fic@@ 268
permit 268
stimulate 268
themes 268
institution 268
afterward 268
sub 268
Sy@@ 268
repeatedly 268
natives 268
watermelon 268
noun 268
Blue 268
landed 268
fumes 268
DO 267
smokers 267
rop@@ 267
currency 267
puppy 267
newly 267
litter 267
haircut 267
tin@@ 267
outgoing 267
Finland 267
Airport 267
municipal 267
bullet 267
psychologist 267
ro 267
influenza 267
processing 267
Trip 266
techn@@ 266
Sur@@ 266
sy 266
regretted 266
cosy 266
hesitation 266
Space 266
inherited 266
pc 266
Sony 266
fucking 266
groom 266
Testing 266
viable 266
UN 265
bling 265
fle@@ 265
maid 265
tro@@ 265
lighter 265
ind 265
misunderstood 265
soldier 265
directions 265
hop 265
prince 265
blank 265
lens 265
Florida 265
obstacle 265
donation 265
sorrow 265
tolerance 265
joking 265
societal 265
statues 265
cop@@ 265
considerate 265
kings 264
impatient 264
preferences 264
CO@@ 264
masters 264
properties 264
ima 264
blackout 264
Tai@@ 264
39 264
Republic 264
determination 264
lunar 264
hamper 264
listed 263
counting 263
Ry@@ 263
calculate 263
ables 263
hers 263
Just 263
nd 263
Narita 263
colle@@ 263
dialogue 263
folks 263
employ 263
ort 263
shelf 263
ichi 263
hilarious 263
Guangzhou 263
Fer@@ 263
boats 263
sized 263
investments 263
voluntary 263
hybrid 263
scarcity 263
fac@@ 262
cit@@ 262
dness 262
ambitious 262
ged 262
mins 262
Julia 262
sandwich 262
tives 262
slip 262
Management 262
IG@@ 262
interpreter 262
seed 262
individually 262
www 262
01 262
Youth 262
Nan@@ 262
firework 262
Niigata 262
Dr@@ 262
theories 262
Mia 262
Mag@@ 262
Czech 262
researched 262
amateur 261
decorate 261
absolute 261
secretary 261
cancelled 261
Bon@@ 261
loads 261
Young 261
worlds 261
intensive 261
hugged 261
bow 261
exhibitions 260
halls 260
operations 260
lo 260
moun@@ 260
gentleman 260
batteries 260
winds 260
suitcase 260
drastically 260
bun@@ 260
praise 260
duration 260
acquaintance 260
dilemma 260
inspire 260
globe 260
19.30 259
cooker 259
presenting 259
sor@@ 259
Yahoo 259
acid 259
Ben@@ 259
ser 259
boarding 259
fying 259
pas@@ 259
kan@@ 259
Professor 259
.gov.sg/@@ 259
Tur@@ 258
une 258
beds 258
monkey 258
knees 258
enti@@ 258
heal 258
ume 258
vers 258
allergic 258
Twilight 258
dering 258
kk@@ 258
clip 258
scolded 258
aku@@ 258
Dr. 258
disappointment 257
que@@ 257
sweating 257
blanket 257
Some 257
eling 257
sle@@ 257
scare 257
sleeps 257
trendy 257
Gre@@ 257
excursion 257
Our 257
Don@@ 257
wishing 257
eria 257
Sho@@ 257
probability 257
nabe 257
ratio 257
carries 257
robotic 257
Robertson 256
OU@@ 256
aded 256
agu@@ 256
onal 256
noises 256
vacuum 256
groceries 256
projected 256
lear@@ 256
vet 256
Bri@@ 256
kilometres 256
nails 256
ranked 256
xi@@ 256
senses 256
cheered 256
55@@ 256
USD 256
ack@@ 256
immune 256
attach 256
troubled 256
Medicine 256
Community 256
s_@@ 256
ALL 255
e.g. 255
neglect 255
opposed 255
discovering 255
sixty 255
berry 255
ological 255
val@@ 255
prevents 255
memorial 255
Sumo 255
conversational 255
land@@ 255
royal 255
certification 255
athlete 255
lounge 255
disabilities 255
Wonderland 255
allocated 255
supercritical 255
Sundays 254
equipments 254
metres 254
tha 254
pilot 254
assumed 254
informative 254
architect 254
pli@@ 254
Ter@@ 254
commerce 254
yogurt 254
ako 254
temporarily 254
Economic 254
Henry 254
scenario 254
lifts 254
attempts 254
YOUR 253
PR@@ 253
Tennis 253
contacts 253
tations 253
temper 253
1996 253
cle@@ 253
Michel 253
ums 253
responses 253
affair 253
shoe 253
Sum@@ 253
QQ 253
russian 253
terminal 253
tered 253
kai 253
As@@ 253
Board 253
bee 253
ranking 253
Fukui 253
hits 253
rank 253
issued 253
opposing 253
Tina 252
DAY 252
eni@@ 252
hairstyle 252
rings 252
arr@@ 252
ov 252
castles 252
Jazz 252
ld 252
pon@@ 252
ini 252
settled 252
ues 252
DA 252
Market 252
IA 252
exotic 252
prejudice 252
multi@@ 252
Yu 252
portrait 252
peers 252
sunrise 252
angels 252
expertise 252
tivity 252
Bul@@ 252
sustainability 252
.htm}&#91;HYPERLINK 252
SC@@ 251
policeman 251
dec@@ 251
vegetarian 251
ced 251
Cre@@ 251
ind@@ 251
sion@@ 251
insisted 251
ella 251
formula 251
ambition 251
rom@@ 251
loyal 251
illa 251
declining 251
CEO 251
moderate 251
misunderstand 251
ation@@ 251
ya@@ 251
hu 251
adds 251
referring 250
Mari@@ 250
profound 250
1997 250
prop@@ 250
ati@@ 250
ised 250
Film 250
ran@@ 250
tan 250
treating 250
immigration 250
tragic 250
bug 250
fulness 250
mac@@ 250
wrapped 250
rumor 250
writings 250
automobiles 250
planting 250
banning 250
esteem 250
Takoyaki 250
Brazilians 250
cater 250
article@@ 250
nationalities 249
plan@@ 249
eas@@ 249
hates 249
school@@ 249
ries 249
lessly 249
loc@@ 249
hal@@ 249
yay 249
adorable 249
Gaga 249
ginger 249
unk 249
10% 249
stance 249
meltdown 249
focuses 249
Am@@ 249
HDB 249
Sincerely 248
bly 248
Ber@@ 248
rope 248
trapped 248
slipped 248
Ukrainian 248
unlikely 248
findings 248
rubber 248
purchased 248
heroes 248
firmly 248
paths 248
ko@@ 248
cabbage 248
viewpoint 248
Al 248
prohibited 248
asi@@ 248
weddings 248
monetary 248
PL@@ 247
comple@@ 247
ena 247
departments 247
dom@@ 247
Pr@@ 247
Many 247
accuracy 247
lenses 247
intern 247
Global 247
facial 247
Rose 247
pronounciation 247
sashimi 247
suburbs 247
jo 247
TE@@ 246
photographer 246
HO@@ 246
clue 246
favor@@ 246
meantime 246
delight 246
28th 246
countless 246
threatening 246
Snow 246
grad 246
absorbed 246
Grammar 246
fence 246
Izakaya 246
recyclable 246
thou@@ 245
pillow 245
goodness 245
keeper 245
servant 245
blew 245
peacefully 245
suspicious 245
documentaries 245
BO@@ 245
C. 245
reflects 245
awa 245
Chin@@ 245
Michigan 245
comedies 245
melting 245
ecosystem 245
incentive 245
wheelchair 245
LFR 245
HAVE 244
depressing 244
impolite 244
fights 244
pit@@ 244
acy 244
ball@@ 244
ney 244
250 244
poli@@ 244
Sil@@ 244
Anime 244
eclipse 244
ast@@ 244
applicants 244
cho 244
perspectives 244
bargain 243
tought 243
aqu@@ 243
Formula 243
practised 243
prefers 243
trav@@ 243
nest 243
ever@@ 243
gadget 243
nu@@ 243
coaches 243
unnatural 243
Tsu@@ 243
alization 243
distinct 243
submitted 243
reprocessing 243
ARE 242
wealthy 242
bothering 242
person@@ 242
eu@@ 242
Fre@@ 242
ths 242
Metro 242
chan@@ 242
Elena 242
sam@@ 242
Tri@@ 242
peer 242
list@@ 242
Fl@@ 242
believing 242
alcoholic 242
reasoning 242
divorced 242
serial 242
admittedly 242
rail 242
engaging 242
priest 242
tech@@ 241
ool 241
Ros@@ 241
Vol@@ 241
exp@@ 241
pays 241
punctual 241
pur@@ 241
cam@@ 241
functional 241
torture 241
Prince 241
captured 241
acceptance 241
Fin@@ 241
beacuse 241
lag 241
On@@ 241
sophomore 241
flag 241
dle 241
travelers 241
Yamagata 241
surgical 241
fertility 241
RO@@ 240
respon@@ 240
Mad@@ 240
planing 240
sir 240
indicate 240
suspect 240
ult 240
expansion 240
fi 240
70% 240
humble 240
visits 240
ja 240
energies 240
Kanto 240
tenses 240
konw 240
Christ 240
EU 240
desires 240
Aikido 240
armed 240
Justin 240
intervention 240
Seville 240
titania 240
£ 239
painter 239
Dance 239
syn@@ 239
Jim 239
120 239
transports 239
Cold 239
Elizabeth 239
switched 239
assured 239
bers 239
eastern 239
90% 239
becuase 239
paragraphs 239
guidance 239
nuts 239
tiger 239
YO@@ 239
anti@@ 239
zu@@ 239
Ueno 239
Susan 239
thereby 239
latent 239
s-@@ 239
reas@@ 238
OK@@ 238
organizer 238
Most 238
poison 238
bakery 238
mou@@ 238
urge 238
apologized 238
rational 238
League 238
backed 238
relate 238
titles 238
fails 238
ental 238
gu 238
interpret 238
Earthquake 238
animations 238
scope 238
seas 238
uncertain 238
http://en.wikipedia.org/wiki/@@ 238
UM@@ 237
1980 237
divorce 237
Thanks 237
ANA 237
enroll 237
mur@@ 237
cows 237
real@@ 237
Rel@@ 237
ual 237
charges 237
cow 237
selecting 237
than@@ 237
backpack 237
yuan 237
bathtub 237
strive 237
absorb 237
thrillers 237
gambling 237
yield 237
institutes 236
now@@ 236
Jun 236
hills 236
Brown 236
tear 236
shortly 236
failures 236
shelves 236
hectic 236
feeding 236
checkup 236
thats 236
nie 236
animated 236
intimate 236
chefs 236
Pepper 236
AD 235
PO@@ 235
EX@@ 235
connecting 235
trusted 235
spinning 235
bulb 235
stored 235
may@@ 235
Garden 235
Hen@@ 235
dissatisfaction 235
Director 235
thesedays 235
wal@@ 235
devoted 235
Hon@@ 235
Plan 235
chin 235
chill 235
plum 235
gymnastics 235
import 235
speeches 235
labour 235
edit 235
Arab 235
bacteria 235
ier 234
At@@ 234
care@@ 234
containing 234
prob@@ 234
starving 234
restrictions 234
ze@@ 234
melt 234
foremost 234
upgrading 234
Pa@@ 234
admired 234
mochi 234
declined 234
Harvard 234
spiritual 234
Am 234
queen 234
monitoring 234
wetland 234
shee@@ 233
colourful 233
reaches 233
jun@@ 233
His 233
lean 233
meats 233
downloaded 233
orr@@ 233
unconsciously 233
oshi@@ 233
octopus 233
JAPAN 233
DNA 233
witnessed 233
mil@@ 233
Movie 233
dar@@ 233
bubble 233
phoned 232
Ur@@ 232
delightful 232
Jose 232
timetables 232
interactive 232
beforehand 232
consult 232
cured 232
marked 232
aro 232
fatal 232
Guam 232
Super 232
Udon 232
carrot 232
olive 232
convincing 232
sin 232
bble 232
auction 232
hmmm 232
Pat@@ 232
proves 232
Lucy 232
4/@@ 232
clo@@ 231
ement 231
cap 231
ange 231
1990 231
At 231
amed 231
Hot 231
port@@ 231
AI@@ 231
them@@ 231
Death 231
Song 231
hurricane 231
risky 231
publishing 231
trail 231
gam@@ 231
recognition 231
ingredient 231
resolved 231
ensuring 231
Jake 231
fares 231
HA@@ 230
AY 230
reasonably 230
eng 230
inviting 230
regrets 230
preference 230
lifestyles 230
grant 230
lap 230
Engineer 230
sim@@ 230
0000 230
prayed 230
Morning 230
dispute 230
tweet 230
Zac 230
ski@@ 230
power@@ 230
logic 230
room@@ 230
convert 230
Disneyland 230
inch 230
farming 230
unwritten 230
Walter 230
a/@@ 230
represented 229
wan 229
bul@@ 229
aches 229
From 229
Tor@@ 229
desired 229
si 229
bathing 229
pls 229
contamination 229
becasue 229
salty 229
dispatched 229
drawback 229
berg 229
compose 229
kon@@ 229
Could 229
Taylor 229
highlight 229
comedian 229
minimal 229
reverse 229
appropriately 229
Exam 229
plots 229
GIF 229
secretly 228
affecting 228
water@@ 228
alike 228
ero 228
Po@@ 228
fulfilled 228
pal 228
acquiring 228
ethics 228
Aichi 228
erd 228
Irish 228
floods 228
Holland 228
Obon 228
gosh 228
tablet 228
Arizona 228
needy 228
story@@ 228
world@@ 228
Iran 228
IV@@ 227
terrified 227
H. 227
ful@@ 227
Cap@@ 227
covering 227
theirs 227
oe 227
lar@@ 227
greet 227
lin@@ 227
lim@@ 227
plural 227
march 227
modify 227
05 227
pudding 227
Filipino 227
repeating 227
Program 227
wrap 227
foot@@ 227
Ichiro 227
04 227
debt 227
56 227
loyalty 227
Laboratory 227
GO@@ 226
mal 226
trousers 226
hooked 226
oli@@ 226
By 226
naked 226
withstand 226
nat@@ 226
eagerly 226
Inception 226
disposed 226
Bay 226
Bl@@ 226
grand@@ 226
heroine 226
workout 226
devil 226
Ul@@ 226
kit@@ 226
originated 226
bon@@ 226
39@@ 226
pro 226
flowing 226
inj@@ 226
dreamt 225
shoud 225
mon 225
nasty 225
detective 225
pills 225
judging 225
geography 225
minority 225
Ab@@ 225
apartments 225
Java 225
amongst 225
rating 225
kitten 225
majored 225
Honda 225
Do@@ 225
browsing 225
extension 225
inspiring 225
ora 224
exited 224
pping 224
sec@@ 224
optimi@@ 224
regional 224
pressing 224
fe 224
pains 224
ood 224
tiredness 224
Kur@@ 224
gear 224
overwhelmed 224
Jobs 224
updating 224
Colombian 224
liquor 224
Note 224
Ho@@ 224
Tan@@ 224
consumed 224
embrace 224
GW 224
PhD 224
monsters 224
architectural 224
populations 224
ence@@ 224
TIME 223
ays 223
cer@@ 223
painters 223
avi@@ 223
pul@@ 223
ading 223
statements 223
hood 223
Certificate 223
Next 223
baggage 223
schedules 223
king@@ 223
accomplished 223
anim@@ 223
ocarina 223
shares 223
administrative 223
Parkour 223
2030 223
oes 222
vel 222
jungle 222
tricky 222
dered 222
tum@@ 222
stat@@ 222
Two 222
Daniela 222
flu@@ 222
enterprises 222
merits 222
semi 222
Yakiniku 222
Marathon 222
poses 222
memorized 222
ential 222
pod 222
backs 222
rat 222
Lost 222
sia 222
equality 222
officials 222
panels 222
accessibility 222
49@@ 222
Toshiba 222
kn@@ 221
.00 221
lemon 221
atten@@ 221
ock 221
ew 221
Mir@@ 221
tain@@ 221
butterflies 221
breathtaking 221
Je@@ 221
suspense 221
May@@ 221
Math 221
exam@@ 221
referred 221
Sol@@ 221
2050 221
hottest 221
database 221
mechanism 221
hiro 221
interpersonal 221
twi@@ 221
widespread 221
smelled 221
Bud@@ 221
visitor 221
news@@ 221
pools 221
Plaza 221
ENGLISH 220
chasing 220
curtains 220
couse 220
guided 220
Mars 220
lied 220
theatres 220
belonging 220
mo 220
oppose 220
classified 220
basics 220
sth 220
directors 220
bloody 220
warmth 220
Kou@@ 220
23rd 220
cious 220
lan@@ 220
Football 220
ops 220
lab@@ 220
liver 220
Kagoshima 220
Cri@@ 220
PR 220
realizing 220
responded 220
approval 220
sole 220
highways 220
prospects 220
news/@@ 220
-year 220
ón 220
í@@ 220
Duque 220
Tsz 220
obliged 219
substance 219
fashions 219
county 219
far@@ 219
reckon 219
wether 219
ough 219
suffers 219
enabled 219
curse 219
book@@ 219
Sorry 219
Dan@@ 219
nig 219
console 219
Examination 219
learns 219
bio 219
Reactors 219
wage 218
SE 218
zy 218
27th 218
specialist 218
struggled 218
III 218
boo@@ 218
free@@ 218
coo@@ 218
hear@@ 218
ish 218
hm 218
PSP 218
wrestling 218
Miy@@ 218
behaviors 218
theaters 218
shrines 218
Help 218
grapes 218
Pen@@ 218
Sri 218
Co. 218
41 217
greedy 217
wo@@ 217
lon@@ 217
lists 217
witch 217
professionally 217
frog 217
swee@@ 217
spoil 217
arrogant 217
beaten 217
devi@@ 217
burnt 217
roast 217
calorie 217
cultivate 217
separation 217
900 217
maps 217
Ikebukuro 217
resident 217
twins 217
chin@@ 217
handmade 217
Then 217
Sport 217
scarf 217
Theory 217
conveniently 217
02 217
Cambodia 217
Electric 217
preparations 217
evolved 217
announce 216
ola 216
camp@@ 216
nec@@ 216
wandering 216
estimate 216
ick 216
richer 216
officially 216
ham@@ 216
Mario 216
tales 216
Final 216
wisely 216
sword 216
Report 216
Wolf 216
assets 216
AIESEC 216
ET 215
expen@@ 215
cing 215
tours 215
noted 215
alien 215
oni 215
tasting 215
assi@@ 215
unwilling 215
ecology 215
lec@@ 215
satellite 215
snakes 215
toast 215
fries 215
wont 215
emitted 215
ous@@ 215
raises 215
criticize 215
fold 215
gloves 215
95 215
symptom 215
investors 215
constitution 215
requesting 215
ensures 215
adverti@@ 214
classrooms 214
Royal 214
ented 214
balloon 214
thrilled 214
postponed 214
arguing 214
Fri@@ 214
prosperity 214
teen 214
businessman 214
Junior 214
itable 214
attracting 214
Physical 214
entrepreneur 214
Hy@@ 214
ABC 214
males 214
snows 214
Cy@@ 214
accumulate 214
TU 214
tw@@ 214
break@@ 213
defin@@ 213
simpler 213
sticks 213
adv@@ 213
Costa 213
consisted 213
Peru 213
suc@@ 213
exi@@ 213
War@@ 213
agencies 213
vending 213
gor@@ 213
Listening 213
Out@@ 213
alphabet 213
prot@@ 213
26th 213
poured 213
pancake 213
SF 213
chamber 213
Yellow 213
Diego 213
Administration 213
47 213
ome@@ 213
trams 213
mile 212
ink@@ 212
awarded 212
len@@ 212
modest 212
deci@@ 212
frustration 212
06 212
nurses 212
imaginary 212
chased 212
corporation 212
Phone 212
kawa 212
mock 212
Mao 212
steadily 212
resigned 212
Nations 212
kei 212
huh 212
returns 212
Pokemon 212
archery 212
trustworthy 212
XYZ 212
Ms. 211
recieved 211
T. 211
Nick 211
shell 211
HE 211
accommodate 211
imitate 211
Wil@@ 211
grounds 211
incidentally 211
upgrade 211
lacks 211
unclear 211
gawa 211
couch 211
smoker 211
pouring 211
ord 211
Hanami 211
packaging 211
backstage 210
assistants 210
honesty 210
onions 210
Free 210
ired 210
technically 210
ide@@ 210
fiance 210
nutshell 210
suburb 210
Ye@@ 210
pursuing 210
DJ 210
abnormal 210
elected 210
pregnancy 210
mud 210
amp@@ 210
unsafe 210
Bal@@ 210
cuts 210
racket 210
migration 210
Danderyd 210
maths 209
recovering 209
wardrobe 209
souls 209
Daily 209
circulation 209
Ay@@ 209
hurting 209
fathers 209
imposed 209
mosquito 209
ank@@ 209
samples 209
ute 209
membership 209
Onsen 209
Relations 209
independently 209
decreases 209
graffiti 209
territory 208
substitute 208
chy 208
Ir@@ 208
inevitably 208
ben@@ 208
Ice 208
flooded 208
sympathy 208
taller 208
Ang@@ 208
pizzas 208
faults 208
Jessica 208
NASA 208
Eastern 208
glance 208
towel 208
oid 208
bacon 208
seaweed 208
utilized 208
Joey 208
exquisite 208
cha@@ 208
Prague 208
closet 208
tici@@ 208
establishment 208
Lucas 208
detrimental 208
nuclear@@ 208
Bon 207
suspended 207
confess 207
foward 207
sen 207
66 207
spends 207
ferry 207
Alexander 207
apped 207
cheering 207
ab 207
Fall 207
Kitty 207
prestigious 207
magnitude 207
teammates 207
Amy 207
flute 207
Live 207
converted 207
rolling 207
fountain 207
bitten 207
myth 207
barriers 207
perfection 207
conversely 207
W. 207
Medisave 207
ME@@ 206
wich 206
Hel@@ 206
bombs 206
Cam@@ 206
shin@@ 206
ener@@ 206
sty@@ 206
profitable 206
aci@@ 206
capture 206
reliability 206
bun 206
pad 206
H1N1 206
aired 206
TA 206
reflected 206
aching 206
Use 206
barber 206
targets 206
Take 206
brutal 206
deadly 206
Days 206
Maybe 206
ew@@ 206
illustrates 206
significance 206
Nam 206
wines 206
ym@@ 206
Stephanie 206
dementia 206
7/@@ 206
WILL 205
Exhibition 205
shapes 205
tens 205
marvellous 205
fav@@ 205
Den@@ 205
satisfactory 205
usion 205
envelope 205
amazingly 205
seventeen 205
Pic@@ 205
pped 205
bio@@ 205
Coffee 205
pumpkin 205
Code 205
sphere 205
span 205
sticky 205
conservative 205
sation 205
skunkworks 205
GFR 205
ATION 204
Jan@@ 204
prom@@ 204
tain 204
vac@@ 204
fan@@ 204
neat 204
aw 204
cellular 204
Xmas 204
advertise 204
gardening 204
let@@ 204
Far@@ 204
Dar@@ 204
Speech 204
bat@@ 204
Ger@@ 204
fixing 204
hos@@ 204
infinite 204
Yen 204
ond 204
acquaintances 204
Da@@ 204
78@@ 204
hurried 204
dynamic 204
pics 204
actresses 204
highlighted 204
imp@@ 204
mia 204
Accounting 204
san@@ 204
females 204
Wa@@ 204
blown 204
dragon 204
notion 204
Marina 204
eased 204
WE 203
NEW 203
regul@@ 203
replacement 203
how@@ 203
cy@@ 203
omi@@ 203
enclose 203
int 203
bab@@ 203
guitarist 203
Gen 203
tommorrow 203
consultant 203
med@@ 203
Gothic 203
definite 203
infection 203
pound 203
PS3 203
complications 203
beverages 203
horizons 203
homesick 203
severely 203
Australians 203
bon 203
rugby 203
willpower 203
Ari@@ 203
seventh 203
impose 203
38@@ 203
debates 203
Scout 203
Mrs. 202
43 202
beli@@ 202
alway 202
granny 202
postgraduate 202
recognise 202
ide 202
outlook 202
pretended 202
tot@@ 202
sink 202
tape 202
accepting 202
smarter 202
woken 202
humour 202
coverage 202
du 202
runners 202
merit 202
Tok@@ 202
Ban@@ 202
000@@ 202
Like 202
Marianne 202
Tree 202
masks 202
chopsticks 202
kar@@ 202
MRT 202
mainland 202
hai 202
invasion 202
1991 202
Ross 202
Chandler 202
structured 202
Katowice 202
Stephan 202
JO@@ 201
finishes 201
smoked 201
pain@@ 201
BU@@ 201
Would 201
annoy 201
leak 201
beatiful 201
heared 201
ses@@ 201
mel@@ 201
but@@ 201
conclusions 201
necessities 201
operated 201
fortunate 201
Library 201
complexity 201
jumps 201
coughing 201
Country 201
nodded 201
blink 201
tires 201
expose 201
uro 201
confront 201
seminars 201
ENT 200
nowdays 200
hairstyles 200
IB@@ 200
swi@@ 200
loses 200
helicopter 200
Dou@@ 200
Opera 200
DI@@ 200
cks 200
Pas@@ 200
HR 200
delays 200
fighter 200
melted 200
crack 200
Financial 200
asa 200
drop@@ 200
Ball 200
Wor@@ 200
Dog 200
freinds 200
combat 200
anyhow 200
neighboring 200
advantageous 200
Can@@ 200
Shir@@ 200
GPA 200
euros 200
Leonardo 200
contributions 200
Ageing 200
pronounced 199
DO@@ 199
congratulate 199
LOVE 199
enter@@ 199
poeple 199
wee@@ 199
Princess 199
aids 199
cotton 199
tedious 199
antique 199
achi 199
suck 199
tai@@ 199
ruins 199
analyzing 199
corporations 199
stamina 199
Break 199
interpretation 199
KFC 199
Meiji 199
cardboard 199
Lima 199
).@@ 199
energy@@ 199
hats 198
oversea 198
authentic 198
lip 198
Regards 198
trucks 198
dence 198
nar@@ 198
distracted 198
medieval 198
astic 198
owe 198
1000@@ 198
supportive 198
packs 198
secondhand 198
300@@ 198
thai 198
motivating 198
mol@@ 198
reg@@ 198
comma 198
halfway 198
attributed 198
49 198
Wilpert 198
RI@@ 197
tted 197
CR@@ 197
cel@@ 197
furious 197
oma 197
Shar@@ 197
subsequently 197
controls 197
import@@ 197
safest 197
pancakes 197
Jun@@ 197
mere 197
crab 197
dor@@ 197
oi 197
rolls 197
drag 197
195@@ 197
Mus@@ 197
tattoo 197
willingness 197
paradise 196
Han 196
Did 196
auto@@ 196
ava 196
Ca@@ 196
politely 196
pub@@ 196
pa 196
sky@@ 196
trainee 196
chronic 196
ign 196
wheat 196
slides 196
interface 196
attendant 196
knit 196
cents 196
integrate 196
Da 196
cellphones 196
steep 196
manufacture 196
introduces 196
threats 196
behalf 195
Drama 195
22nd 195
UP 195
dat@@ 195
nonsense 195
journeys 195
commercials 195
cted 195
unlimited 195
ains 195
oni@@ 195
allocation 195
demonstration 195
PIECE 195
tit@@ 195
1994 195
36@@ 195
majors 195
Friedland 195
VE 194
expresses 194
skirts 194
:00 194
sci@@ 194
indicated 194
atly 194
impress 194
exiting 194
swimmer 194
hop@@ 194
bel 194
hey 194
ey@@ 194
dou 194
export 194
sentense 194
Naruto 194
strangely 194
dictation 194
Colosseum 194
sliced 194
Miami 194
Bank 194
dings 194
famine 194
Special 194
turkey 194
varieties 194
2/@@ 194
LI@@ 193
comming 193
rob@@ 193
kicked 193
skipped 193
Way 193
tightly 193
holy 193
Ali 193
routines 193
apology 193
ense 193
Introduction 193
narrator 193
Safety 193
msn 193
Beautiful 193
tissue 193
1970 193
Sat@@ 193
Yama@@ 193
proc@@ 193
set@@ 193
lid 193
prayer 193
identified 193
homemade 193
Ash@@ 193
dai 193
Vinci 193
catastrophic 193
habitats 193
bricks 192
poet 192
recognised 192
aiming 192
cloths 192
posters 192
Boy 192
é 192
warn 192
famili@@ 192
cinemas 192
wives 192
partial 192
ary@@ 192
component 192
vel@@ 192
excess 192
monument 192
reviews 192
oooo@@ 192
waked 192
pp 192
reject 192
Einstein 192
q 192
lions 192
voc@@ 192
freak 192
healing 192
Charlie 192
stretching 192
influential 192
Stockholm 192
ene 191
accurately 191
Gold 191
Cracow 191
S.@@ 191
allowance 191
respective 191
ttle 191
form@@ 191
og 191
versions 191
Manchester 191
vampire 191
feared 191
Dor@@ 191
bleeding 191
muggy 191
lined 191
Nak@@ 191
attain 191
phot@@ 191
translations 191
rafting 191
Ferrari 191
uka 191
tracks 191
misunderstandings 191
listener 191
juggling 191
carriers 191
somethings 190
obsessed 190
fox 190
P. 190
gang 190
Get 190
Brussels 190
bang 190
VIP 190
beauti@@ 190
valid 190
isa 190
accountant 190
diagnosed 190
dancer 190
stocks 190
equivalent 190
Buddhism 190
speedy 190
aj@@ 190
UK@@ 190
content@@ 190
cabinet 190
paperbacks 190
fierce 190
cookie 190
hang@@ 190
Again 190
omi 190
Copenhagen 190
Silver 190
vain 190
violation 190
KO@@ 190
hike 190
EE@@ 189
reci@@ 189
transformation 189
AV@@ 189
lamp 189
defence 189
approve 189
spectators 189
&apos;&apos; 189
masterpiece 189
busier 189
intentions 189
bugs 189
ave 189
peri@@ 189
itting 189
audi@@ 189
hid 189
Parents 189
tory 189
corrects 189
Four 189
popul@@ 189
forehead 189
endurance 189
Gundam 189
touches 189
futon 189
Hor@@ 189
bananas 189
homeland 189
Ok 189
panel 189
loser 189
genuine 189
imasu 189
cs 188
SO@@ 188
competitors 188
gust 188
albums 188
cheat 188
burg 188
patiently 188
longing 188
confi@@ 188
handicap 188
zer 188
fil@@ 188
sho@@ 188
zzz 188
bussiness 188
idiot 188
restored 188
hit@@ 188
donated 188
ony 188
scattered 188
Uni@@ 188
slump 188
shrimp 188
UNIQLO 188
trekking 188
bol@@ 188
correc@@ 188
bac@@ 188
Iraq 188
Freddy 188
economies 188
reuse 188
WITH 187
THIS 187
disco 187
spoon 187
calmly 187
disappoint 187
creature 187
cliff 187
links 187
declared 187
Sally 187
cially 187
ould 187
ail@@ 187
babysitter 187
io 187
rays 187
sent@@ 187
buttons 187
Ap@@ 187
lessen 187
sizes 187
venue 187
PE 187
dy@@ 187
num@@ 187
Swedish 187
body@@ 187
Oc@@ 187
enterprise 187
workshops 187
ander 187
kim@@ 187
oring 187
lightning 187
aa@@ 187
linguistics 187
Tiffany 187
40% 187
MBA 187
scuba 187
hin@@ 187
37@@ 187
Super@@ 187
initiative 187
specialty 187
Wind 187
teri@@ 187
rumors 187
globally 187
ranging 187
PP@@ 186
lic 186
dici@@ 186
Cuba 186
lin 186
appointed 186
weaker 186
protein 186
TEST 186
tel 186
ys@@ 186
gen 186
ower 186
life@@ 186
asing 186
intr@@ 186
opp@@ 186
flaws 186
preserved 186
Cas@@ 186
xi 186
Toeic 186
calligraphy 186
BA 186
wound 186
Think 186
Dark 186
rises 186
stre@@ 186
dropping 186
00yen 186
pandas 186
tobacco 186
Fun@@ 186
dynasty 186
mp@@ 186
cking 186
Valencia 186
shir@@ 186
cathedral 186
exit 186
budgets 186
finances 186
kung 186
Patrick 186
stealing 185
ried 185
SK@@ 185
Shopping 185
dre@@ 185
nes 185
antly 185
21@@ 185
interrupted 185
operator 185
handicapped 185
Pol@@ 185
cru@@ 185
browse 185
31st 185
commuter 185
Kit@@ 185
short@@ 185
heart@@ 185
apping 185
mp3 185
Piece 185
verbal 185
pic 185
Women 185
Thanksgiving 185
sher 185
More 185
bad@@ 185
adverse 185
elephant 185
gi 185
Cherry 185
Alzheimer 185
spider 185
alleviate 185
uchi 185
organ 185
disciplined 185
disclosure 185
Housing 185
entertains 185
,2009 185
counts 184
sul@@ 184
servants 184
homeworks 184
pupil 184
resting 184
exploded 184
je@@ 184
67 184
warned 184
subways 184
una 184
interfere 184
kicking 184
treats 184
ala 184
loan 184
degraded 184
density 184
deserved 184
occurring 184
decisive 184
ION 183
AF@@ 183
cashier 183
sciences 183
Star@@ 183
compositions 183
hair@@ 183
waterfall 183
vari@@ 183
Accident 183
will@@ 183
UC@@ 183
hou@@ 183
Ty@@ 183
Open 183
liar 183
Kimono 183
Hallo 183
Studies 183
knitting 183
Bridge 183
arian 183
MA 183
Ak@@ 183
Gl@@ 183
ags 183
analytical 183
fission 183
fourteen 182
Theater 182
program@@ 182
relying 182
canteen 182
Peace 182
sweater 182
65@@ 182
Finance 182
navy 182
top@@ 182
Go@@ 182
insomnia 182
logged 182
detect 182
chu 182
landlord 182
transit 182
messenger 182
human@@ 182
brushing 182
iled 182
Actually 182
Mountain 182
Jay 182
cockroach 182
Shu@@ 182
wrist 182
waffle 182
Mid 182
detection 182
Yeltsin 182
Supercritical 182
SWCR 182
mini@@ 181
apologise 181
lifes 181
Antonio 181
Pop 181
lifting 181
tremendously 181
slopes 181
components 181
lig@@ 181
onic 181
Ci@@ 181
very@@ 181
Kyushu 181
AMA 181
Lucky 181
imi 181
Hit@@ 181
Nice 181
sentimental 181
memo 181
measured 181
stir 181
67@@ 181
stalls 181
sooooo 181
encouragement 181
oning 181
disclose 181
2% 181
07@@ 181
potentially 181
Tar@@ 181
approved 181
menus 181
CE@@ 180
examined 180
appliance 180
fact@@ 180
Out 180
cin@@ 180
ela 180
kills 180
slaves 180
uniforms 180
fer 180
integrated 180
ption 180
Although 180
freind 180
gifted 180
checks 180
sil@@ 180
fry 180
bashi 180
lung 180
followers 180
exercised 180
eless 180
overview 180
vaccine 180
34@@ 180
conversion 180
FIFA 180
rehabilitation 180
ils 180
Advanced 180
Mitty 180
CAN 179
HE@@ 179
Dome 179
united 179
conci@@ 179
clu@@ 179
spoiled 179
iner 179
ured 179
Team 179
32@@ 179
rewrite 179
bit@@ 179
Democratic 179
err@@ 179
Mel@@ 179
TT 179
emphasized 179
direc@@ 179
Psychology 179
desktop 179
hosted 179
credits 179
democratic 179
Hakodate 179
rides 179
Lanka 179
BECAUSE 178
genres 178
sporting 178
Mur@@ 178
instruction 178
nerve 178
leather 178
compact 178
cottage 178
aying 178
Chang@@ 178
understands 178
bury 178
coke 178
Fi 178
socialize 178
tant 178
Years 178
scar@@ 178
acti@@ 178
dam@@ 178
threatened 178
Ming 178
blessed 178
Hat@@ 178
sweaty 178
Sus@@ 178
SS 178
99@@ 178
trigger 178
Foundation 178
Girls 178
tones 178
tak@@ 178
IKEA 178
Season 178
unrealistic 178
radical 178
pharmacy 178
continually 178
continuation 178
apps 178
trailer 178
trauma 178
processed 178
Iwate 178
aftershocks 178
finger@@ 178
annually 178
Car 178
Jean 177
relay 177
coff@@ 177
duc@@ 177
See 177
swe@@ 177
skin@@ 177
pper 177
coll@@ 177
protagonist 177
Sar@@ 177
toilets 177
health@@ 177
packages 177
realism 177
emotionally 177
rival 177
Expo 177
Shrine 177
asia 177
Unit 177
essence 177
Care 177
clearer 177
yp@@ 177
AY@@ 176
BE@@ 176
ICE 176
flooding 176
Dad 176
resign 176
shorts 176
ular 176
microphone 176
tier 176
questioned 176
Por@@ 176
ep 176
bility 176
carpet 176
shook 176
naive 176
hardware 176
borders 176
arrangements 176
crush 176
mistaken 176
Kaz@@ 176
preposition 176
sand@@ 176
twin 176
Lesson 176
Tsunami 176
law@@ 176
pressures 176
kitty 176
gin 176
aircraft 176
scripts 176
mist 176
shool 176
prominent 176
designated 176
bravery 176
64 176
aki@@ 176
Transport 176
offence 176
Scheme 176
graphite 176
theft 175
5.@@ 175
ud 175
hopeless 175
Austria 175
narr@@ 175
edi@@ 175
bully 175
tment 175
referee 175
Sei@@ 175
eli@@ 175
collapsed 175
tow 175
itch 175
seemingly 175
interacting 175
blessing 175
broader 175
Cr@@ 175
Federal 175
consent 175
Heaven 175
Favorite 175
dependence 175
solves 175
sharply 175
revolutionary 175
Pal@@ 175
Gas 175
Bottom 175
subsidi@@ 175
s.com/@@ 175
belongings 174
thinner 174
Gal@@ 174
ands 174
robbed 174
asp@@ 174
lent 174
bru@@ 174
disturbing 174
corresponding 174
Net 174
listens 174
guards 174
column 174
88 174
reviewed 174
fires 174
continu@@ 174
Physics 174
sends 174
resolutions 174
Ghibli 174
fies 174
counted 174
circuit 174
twisted 174
asthma 174
Mediterranean 174
bil@@ 174
Yuki 174
skateboarding 174
Leo 174
stresses 174
tunnel 174
vinegar 174
inspect 174
piety 174
geographical 174
77@@ 174
Sin@@ 173
Band 173
wednesday 173
Mom@@ 173
oned 173
transformed 173
transform 173
girlfriends 173
progressive 173
passions 173
pottery 173
plastics 173
Know 173
reporter 173
restroom 173
accumulated 173
scor@@ 173
grief 173
cucumber 173
Men 173
recruit 173
incomes 173
CG 173
Valley 173
Tomorrow 173
criticized 173
Animal 173
fulfilling 173
specialists 173
inflation 173
Chris 173
whereby 173
revised 173
sublime 173
capabilities 173
itted 172
wakes 172
beverage 172
actu@@ 172
payed 172
wire 172
failing 172
cess@@ 172
consulting 172
peach 172
Chi 172
suggesting 172
arly 172
heavier 172
train@@ 172
wonders 172
Alex@@ 172
cked 172
interrupt 172
awards 172
Even 172
Phil@@ 172
fruitful 172
funniest 172
Excel 172
kk 172
ette 172
zo 172
concentrating 172
py 172
tering 172
diagrams 172
shrinking 172
mani@@ 172
tunes 172
Li 172
Academic 172
Atomic 172
invaluable 172
implanted 172
infrastructures 172
3.@@ 172
terrific 171
SA@@ 171
comunicate 171
ref@@ 171
copied 171
locals 171
shiny 171
BEST 171
C.@@ 171
deck 171
ofcourse 171
obsession 171
delivering 171
soc@@ 171
Which 171
mass@@ 171
spee@@ 171
ros@@ 171
coping 171
sausage 171
string 171
stretch 171
ono 171
moms 171
courts 171
flights 171
Pan@@ 171
Ha 171
Hunger 171
custom@@ 171
brushed 171
daddy 171
ens@@ 171
maturity 171
eller 170
zi@@ 170
fs 170
entitled 170
-- 170
Matt 170
cts 170
renting 170
mastering 170
unavoidable 170
Review 170
bin@@ 170
anda 170
Soba 170
threaten 170
000yen 170
culturally 170
solely 170
dyed 170
leaned 170
You@@ 170
tting 170
hatred 170
ac 170
developer 170
eeee@@ 170
vitamins 170
mining 170
translators 170
98@@ 170
Channel 170
Northern 170
astonishing 170
Heritage 170
unwanted 170
fulfil 170
earnings 170
derived 170
inal 170
FBI 170
Isabel 170
Norrgard 170
commuters 169
Secret 169
ising 169
Ram@@ 169
ESS 169
scri@@ 169
noticing 169
elec@@ 169
3% 169
pass@@ 169
Win@@ 169
ambiguous 169
ironically 169
prey 169
aker 169
valued 169
downs 169
overwhelming 169
ick@@ 169
Universal 169
Line 169
William 169
monkeys 169
Dan 169
1500 169
Was 169
organisations 169
mushrooms 169
Place 169
strawberries 169
spices 169
e/@@ 169
i.e. 169
faithful 168
activ@@ 168
aster 168
5/@@ 168
surprises 168
Brighton 168
interestingly 168
rep@@ 168
audition 168
exclusive 168
clay 168
econom@@ 168
regi@@ 168
supervision 168
other@@ 168
delete 168
Muslims 168
biography 168
goldfish 168
kingdom 168
Proficiency 168
crown 168
codes 168
Idaho 168
tapas 168
.net/@@ 168
@@@ 168
jackets 167
leg@@ 167
thoughtful 167
fore 167
flesh 167
tiv@@ 167
46 167
tal 167
conductor 167
Metal 167
puzzled 167
pointing 167
inci@@ 167
inde@@ 167
valley 167
tended 167
angu@@ 167
Yo@@ 167
Entry 167
Off@@ 167
66@@ 167
negotiate 167
sis 167
regrettable 167
cheep 167
reserves 167
trap 167
shu 167
exceptional 167
divert 167
adoption 167
Norwegian 167
Clark 166
UT@@ 166
helpless 166
frank 166
timer 166
Lula 166
respecting 166
Paula 166
coloured 166
sensible 166
cosmetic 166
iro 166
wer 166
disk 166
abe 166
vable 166
objectives 166
heal@@ 166
sneakers 166
Bre@@ 166
Bruce 166
gods 166
prepares 166
wind@@ 166
symbols 166
trace 166
reform 166
gently 166
experimental 166
tionary 166
Huan 166
jer@@ 166
atsu@@ 166
abbreviation 166
foster 166
priceless 166
Viet 166
univ 166
Tea 166
Aurora 166
restriction 166
reliance 166
90@@ 166
basement 166
rou@@ 166
2008@@ 166
DE@@ 165
stare 165
U.S.A. 165
brake 165
fainted 165
finaly 165
ah@@ 165
ozone 165
candle 165
conscience 165
Fir@@ 165
preferable 165
transmit 165
pong 165
bathrooms 165
oss 165
gig 165
Edward 165
Tre@@ 165
dual 165
Amsterdam 165
sweated 165
Write 165
Ummm 165
Question 165
Juliet 165
pharmaceutical 165
mic 165
sav@@ 165
duce 165
heels 165
lang@@ 165
vague 165
Mie 165
simplicity 165
deleted 165
accidental 165
airway 165
versa 164
Cat@@ 164
reveals 164
Ed@@ 164
univercity 164
terrace 164
ards 164
show@@ 164
fat@@ 164
acks 164
racial 164
agents 164
dig@@ 164
posture 164
Sciences 164
literary 164
62 164
toll 164
adaptation 164
scratch 164
fuck 164
Course 164
illustrated 164
Nik@@ 164
meditation 164
1% 164
dedicate 164
sakura 164
intonation 164
registration 164
cleaners 164
Fernanda 164
emit 164
Glee 164
cocaine 164
LIFE 163
arri@@ 163
excuses 163
;@@ 163
Does 163
diffrent 163
ces@@ 163
maximize 163
self@@ 163
Bye 163
bedrooms 163
vin 163
murderer 163
pessimistic 163
vest 163
Buddha 163
Take@@ 163
sketch 163
distress 163
sey 163
Online 163
Englsih 163
collections 163
ppl 163
communicative 163
steamed 163
chat@@ 163
44@@ 163
Chu@@ 163
holder 163
harbor 163
remedy 163
rocket 163
sensor 163
20s 163
weigh 163
advancing 163
bibliography 163
pellet 163
\l 163
Truelove 162
ourself 162
ather 162
informing 162
televisions 162
SS@@ 162
graceful 162
newcomer 162
competent 162
nineteen 162
tos 162
ender 162
fur 162
inte@@ 162
hairdresser 162
spacious 162
predictable 162
expanded 162
Mis@@ 162
september 162
disp@@ 162
clues 162
PCs 162
nan@@ 162
EC 162
drill 162
louder 162
typhoons 162
iTunes 162
ankle 162
aerobic 162
Fridays 162
Marketing 162
gran@@ 162
Coke 162
palm 162
loans 162
fru@@ 162
distribu@@ 162
fog 162
stimulus 162
rust 162
respects 162
demanded 162
Allison 162
Franco 162
á@@ 162
liking 161
nation@@ 161
big@@ 161
ST 161
contr@@ 161
High@@ 161
medication 161
ousness 161
companion 161
ases 161
italian 161
gates 161
proficient 161
ayed 161
cab 161
distribute 161
readily 161
crystal 161
grandchildren 161
hesitating 161
entertainments 161
apparent 161
Johnny 161
layout 161
ox@@ 161
worship 161
igh@@ 161
Op@@ 161
Books 161
prepositions 161
180 161
baths 161
Baby 161
Panda 161
Historical 161
conditioners 161
coud 161
Blog 161
airy 161
habitat 161
featured 161
dolphins 161
ght@@ 161
Ho 161
tian 161
sauna 161
Pro 161
dissolution 161
extinction 161
Council 161
prizes 160
gal@@ 160
cele@@ 160
shment 160
exper@@ 160
envious 160
respectful 160
bare 160
executive 160
poorly 160
iners 160
sequence 160
obligations 160
evi@@ 160
compensate 160
creepy 160
Rio 160
gging 160
wom@@ 160
Resort 160
basil 160
cath@@ 160
radish 160
Words 160
consistent 160
fragile 160
Coming 160
oki 160
It@@ 160
renowned 160
units 160
temptation 160
ually 160
Ken@@ 160
vit@@ 160
VS 160
reflection 160
Nepal 160
spouse 160
competitiveness 160
guilt 160
vanilla 160
batting 160
live@@ 160
hardships 160
Discovery 160
inefficient 160
Active 160
Siracusa 160
Qtr 160
Caceres 160
Oberon 160
Maleficent 160
slalom 160
Feurer 160
IP 159
uts 159
dest@@ 159
funded 159
lit 159
nick 159
sedentary 159
enced 159
whispered 159
habit@@ 159
gie 159
bour@@ 159
ert 159
curtain 159
Hun@@ 159
particul@@ 159
ids 159
horizon 159
Ob@@ 159
360 159
vig@@ 159
shaved 159
35@@ 159
favourable 159
ASAP 159
restarted 159
argues 159
Zoo 159
mit@@ 159
ape 159
Store 159
alities 159
insi@@ 159
cated 159
stimulating 159
ben 159
Mit@@ 159
Word 159
coup 159
execute 159
preservation 159
smallest 159
Pakistan 159
strategic 159
identifying 159
addictive 159
whales 159
1,@@ 159
mes 158
cra@@ 158
arti@@ 158
veri@@ 158
galleries 158
hazard 158
dur@@ 158
Modern 158
Andy 158
summ@@ 158
Chemistry 158
night@@ 158
minim@@ 158
liber@@ 158
resignation 158
long@@ 158
flo@@ 158
ames 158
coaster 158
pals 158
asses 158
anese 158
recite 158
CA 158
toes 158
strings 158
Boat 158
Momoko 158
Imperial 158
} 158
seri@@ 158
Every 158
insect 158
dialog 158
icon 158
Lionel 158
Luck 158
inadequate 158
unsuccessful 158
diesel 158
PER@@ 157
Portugal 157
add@@ 157
begg@@ 157
Ivan 157
crawl 157
depicts 157
sales@@ 157
encies 157
adore 157
expe@@ 157
tiful 157
fas@@ 157
permitted 157
3/@@ 157
judged 157
MP3 157
musicals 157
technician 157
franchise 157
backyard 157
psych@@ 157
soo 157
icy 157
suited 157
histor@@ 157
piled 157
ign@@ 157
myths 157
stry 157
Vol 157
ational 157
Cat 157
cleanliness 157
gn@@ 157
Stone 157
thx 157
Taro 157
cognitive 157
surveys 157
strikes 157
Hol@@ 157
Messi 157
Tam@@ 157
sponge 157
aru 157
caution 157
inclined 157
pretending 156
a.m. 156
oppotunity 156
concer@@ 156
choir 156
vation 156
kissing 156
spiders 156
micro@@ 156
spotted 156
ania 156
season@@ 156
sus@@ 156
unreasonable 156
ean 156
Sor@@ 156
main@@ 156
obese 156
tu 156
abi 156
mun@@ 156
breads 156
Soccer 156
stray 156
lightly 156
tual 156
greeted 156
Doraemon 156
developers 156
nightlife 156
withdraw 156
canada 156
Conversation 156
zawa 156
distract 156
midterm 156
con 156
uncommon 156
freshmen 156
envi@@ 156
LIKE 155
FRIENDS 155
peculiar 155
20.15 155
accomodation 155
Tony 155
Shin 155
postpone 155
cour@@ 155
ligh@@ 155
nia 155
usi@@ 155
shou@@ 155
study@@ 155
ira 155
roo@@ 155
Ag@@ 155
aces 155
oud 155
solo 155
Ama@@ 155
Organization 155
comprehensive 155
thank@@ 155
54 155
spice 155
cock 155
Kumamoto 155
termin@@ 155
connects 155
arranging 155
ank 155
nor@@ 155
recalled 155
diagram 155
catches 155
Practice 155
kotatsu 155
Prof 155
characterized 155
sporty 155
aining 155
separately 155
Kon@@ 155
Shenzhen 155
1979 155
Media 155
empathy 155
operates 155
laptops 155
undeniable 155
bra 154
Fur@@ 154
needing 154
Ol@@ 154
Civil 154
weights 154
sat@@ 154
summit 154
Bel@@ 154
ice@@ 154
grape 154
Fun 154
blo@@ 154
ove 154
yelling 154
addresses 154
mony 154
ss@@ 154
Men@@ 154
perceive 154
rap 154
downturn 154
flavors 154
podcasts 154
mes@@ 154
modernization 154
wiped 154
indirect 154
inappropriate 154
bento 154
ored 154
eliminated 154
Avril 154
generates 154
flows 154
receives 154
comparatively 154
Sou@@ 154
motto 154
cuisines 154
Light 154
District 154
outfits 154
Air@@ 154
Holy 154
twists 154
benches 154
drain 154
gripping 154
penicillin 154
y/@@ 154
espe@@ 153
friend@@ 153
stimulates 153
punch 153
ales 153
Heart 153
renewed 153
Ori@@ 153
bel@@ 153
dignity 153
conducting 153
ail 153
turtles 153
FC 153
Chicken 153
glimpse 153
respiratory 153
slavery 153
calculated 153
Hakone 153
hama 153
centimeters 153
populated 153
fragrance 153
despair 153
adjective 153
LOL 153
52 153
wards 153
trials 153
Sub@@ 153
pun@@ 153
relates 153
mom@@ 153
wizard 153
Victorian 153
Afghanistan 153
Privacy 153
GOOD 152
TU@@ 152
Basketball 152
ath@@ 152
ept 152
tually 152
fortun@@ 152
Also 152
occupy 152
practic@@ 152
dences 152
wed 152
motorcycles 152
reli@@ 152
osing 152
Eli@@ 152
Sebastian 152
Students 152
bou@@ 152
fast@@ 152
Hope 152
ost 152
watch@@ 152
illustrations 152
gli@@ 152
Native 152
Tanabata 152
Samurai 152
Wal@@ 152
BS 152
commented 152
pickled 152
Mil@@ 152
Seven 152
ital 152
99 152
hiragana 152
exhibit 152
auto 152
Beach 152
Shinto 152
helmet 152
founder 152
governmental 152
bor 152
yell 152
Full 152
messed 152
contradiction 152
Linux 152
conception 152
squash 152
zones 152
Environment 152
Jeju 152
explored 152
evaluated 152
Ronaldo 152
Bronte 152
index@@ 152
idols 151
fish@@ 151
suspected 151
dated 151
balloons 151
afternoons 151
wonder@@ 151
Juli@@ 151
plo@@ 151
cage 151
48@@ 151
claiming 151
softly 151
laying 151
unaware 151
addi@@ 151
rigid 151
sni@@ 151
Otaku 151
rest@@ 151
occupying 151
AKB48 151
dump 151
amenities 151
german 151
cheek 151
gazed 151
CET 151
Water@@ 151
bookshelf 151
jing 151
shuttle 151
Florence 151
osis 151
Is@@ 151
depletion 151
Gala 151
summertime 151
reliant 151
stly 150
difer@@ 150
develop@@ 150
tec@@ 150
opin@@ 150
prefer@@ 150
inventor 150
cont@@ 150
erg@@ 150
mentioning 150
sci 150
blond 150
firms 150
addict 150
bullied 150
mixing 150
signals 150
weak@@ 150
exceptions 150
duction 150
gaming 150
venture 150
cource 150
Improve 150
america 150
AVATAR 150
Yos@@ 150
futsal 150
101 150
elaborate 150
demographic 150
hospitalized 150
controversy 150
offspring 150
nouns 150
forcing 150
missions 150
Malaysian 150
bei 150
readings 150
suspicion 150
occurrence 150
laughs 150
pipe 150
Simpsons 150
scarce 150
Communist 150
Statistics 150
1990s 150
Policy 150
utilization 150
Toulouse 150
diploma 149
irritating 149
dan@@ 149
Arabian 149
especialy 149
Sing@@ 149
counties 149
Orlando 149
Bill 149
postcard 149
that@@ 149
fing 149
judgement 149
lity 149
ements 149
tile 149
cautious 149
poll@@ 149
stunned 149
forbid 149
unsure 149
label 149
pleasing 149
behaving 149
sentenses 149
EIKEN 149
renovated 149
has@@ 149
releasing 149
75@@ 149
oooo 149
pay@@ 149
reinforce 149
quotation 149
panda 149
spea@@ 149
level@@ 149
ax@@ 149
upside 149
Romeo 149
internships 149
mess@@ 149
chickens 149
nit@@ 149
preliminary 149
consensus 149
skateboard 149
PS@@ 149
Christianity 149
Giants 149
oceans 149
viewed 149
USB 149
WW@@ 149
webpage 149
conver@@ 149
origami 149
sofas 149
Straits 149
ully 148
boo 148
10.00 148
AZ@@ 148
tho@@ 148
English@@ 148
yer 148
ained 148
dreadful 148
These 148
champions 148
Vit@@ 148
ial 148
entr@@ 148
jewelry 148
boredom 148
observing 148
ancy 148
tice 148
kidnapped 148
enge 148
outer 148
calmed 148
negatively 148
Jordan 148
embar@@ 148
aks 148
mentions 148
3days 148
2years 148
moring 148
yan 148
injection 148
gravity 148
neur@@ 148
chen 148
Typhoon 148
kkk 148
Auckland 148
wander 148
Senior 148
za@@ 148
Philadelphia 148
discouraged 148
Faculty 148
Bang 148
tac@@ 148
Eye 148
bic@@ 148
2017 148
wax 148
Brad 148
Nic@@ 148
Wi 148
Salt 148
trumpet 148
Sergio 148
footprint 148
turbine 148
mutation 148
initiatives 148
.(@@ 148
COM@@ 147
GR@@ 147
PAR@@ 147
atom@@ 147
pleas@@ 147
persuaded 147
backache 147
shameful 147
MS 147
too@@ 147
folding 147
inventors 147
Rob@@ 147
pill 147
Swiss 147
Medi@@ 147
mineral 147
20000 147
Pizza 147
excer@@ 147
tains 147
ile 147
Bad 147
multicultural 147
Only 147
ung@@ 147
dest 147
appe@@ 147
oph@@ 147
vampires 147
humorous 147
aerobics 147
dominant 147
okonomiyaki 147
jogged 147
juicy 147
declare 147
necklace 147
lining 147
usa 147
mushroom 147
loaded 147
Shop 147
tutoring 147
onsen 147
resorts 147
Security 147
.gov/@@ 147
.The 147
Sodium 147
compensation 146
oin@@ 146
shampoo 146
tured 146
sad@@ 146
mem@@ 146
tz 146
vitamin 146
ig 146
diamond 146
honeymoon 146
inst@@ 146
competence 146
dding 146
wages 146
clips 146
Video 146
Dublin 146
Sim@@ 146
Boris 146
pigs 146
evol@@ 146
tip@@ 146
erie 146
lun@@ 146
cust@@ 146
bumped 146
machinery 146
viol@@ 146
ump 146
diarrhea 146
reviewing 146
Meeting 146
completing 146
gle 146
py@@ 146
Nemo 146
entertained 146
cicadas 146
frogs 146
texting 146
Studio 146
harmonious 146
Self 146
Hiro 146
iPhone4 146
phenomena 146
inn 146
sought 146
Betty 146
screening 146
storyline 146
sewing 146
fireflies 146
Side 146
Mach@@ 146
plac@@ 146
Simon 146
Islam 146
enhancing 146
promotes 146
regre@@ 146
Caribbean 146
confidentiality 146
multinational 146
diverting 146
TEN@@ 145
betrayed 145
DR@@ 145
becase 145
esi@@ 145
ville 145
concl@@ 145
canc@@ 145
enviroment 145
Here 145
How@@ 145
ellow 145
last@@ 145
Kevin 145
ritual 145
footsteps 145
eccentric 145
Programme 145
Dong 145
bet@@ 145
ized 145
Haneda 145
sai 145
Coast 145
Christians 145
versus 145
boyfriends 145
squid 145
TVs 145
gross 145
arena 145
Yukata 145
combining 145
Hum@@ 145
orz 145
Come 145
anonymous 145
syrup 145
paced 145
Ren@@ 145
hygiene 145
crafts 145
Architecture 145
sighted 145
tensions 145
slice 145
viruses 145
Coo@@ 145
Bra@@ 145
intriguing 145
consistently 145
babysitting 145
Mosque 145
disastrous 144
PE@@ 144
OUT 144
lier 144
leaflets 144
attendance 144
Ei@@ 144
bothers 144
xes 144
candles 144
busiest 144
thursday 144
mobiles 144
By@@ 144
there@@ 144
representation 144
leav@@ 144
rewarded 144
seated 144
Exchange 144
mot@@ 144
Assi@@ 144
tle 144
ug@@ 144
nan 144
Pennsylvania 144
layers 144
patent 144
lyric 144
rin@@ 144
dumpling 144
tat@@ 144
emon 144
scent 144
districts 144
oxide 144
sne@@ 144
surgeon 144
Bab@@ 144
spells 144
monk 144
Mohamed 144
soak 144
Marcus 144
supplementation 144
rewards 144
Muslim 144
Zaragoza 144
Sharma 144
Malaga 144
News/@@ 144
SI@@ 143
lamps 143
hab@@ 143
stubborn 143
complains 143
catastrophe 143
kie 143
scout 143
lau@@ 143
8.@@ 143
rested 143
cops 143
defining 143
Fu 143
Tele@@ 143
freeze 143
Revolution 143
spy 143
rehearsal 143
Grey 143
kilograms 143
green@@ 143
buckwheat 143
cries 143
silently 143
removing 143
deemed 143
servers 143
PM@@ 143
Wh@@ 143
Philippine 143
apologies 143
nostalgic 143
acknowledge 143
leap 143
4000 143
conservation 143
fills 143
bucket 143
mechanisms 143
itis 143
insur@@ 143
catchy 143
shifts 143
stmas 143
controller 143
71 143
Madonna 142
ef 142
IF@@ 142
15% 142
closes 142
decor 142
inventing 142
ples 142
transported 142
leakage 142
carrots 142
catering 142
ston 142
full@@ 142
ghts 142
distraction 142
nic@@ 142
crow 142
Want 142
scold 142
Matsu@@ 142
Bor@@ 142
sausages 142
completion 142
dian 142
oku 142
hard@@ 142
filter 142
casting 142
vanished 142
norm 142
Peninsula 142
skinny 142
horn 142
Lion 142
bes 142
68@@ 142
uck 142
coordination 142
backup 142
outing 142
ukulele 142
boundaries 142
mansion 142
Samsung 142
ural 142
Nanjing 142
Kag@@ 142
packaged 142
cart 142
flavored 142
porter 142
diamonds 142
hinder 142
discourage 142
Alhambra 142
pensions 142
Riyadh 142
-&quot;@@ 142
indoors 141
atr@@ 141
Santiago 141
Albert 141
skillful 141
acquainted 141
riverside 141
Part@@ 141
leagues 141
discounted 141
Chan 141
performers 141
frien@@ 141
tis@@ 141
ctions 141
quar@@ 141
Assistant 141
oversleep 141
emerging 141
toeic 141
serv@@ 141
ghtly 141
Tiger 141
vic@@ 141
offended 141
internationally 141
alia 141
pin 141
Bath 141
merry 141
couldnt 141
hahahaha 141
ero@@ 141
emerged 141
slogan 141
transi@@ 141
supplement 141
Cham@@ 141
voca@@ 141
lawn 141
Fiji 141
comedians 141
psychologists 141
Lunch 141
jelly 141
Hongkong 141
Rice 141
Naples 141
volcano 141
mistook 141
restore 141
prin@@ 141
Maintenance 141
framework 141
interactions 141
undergoing 141
incurred 141
adopting 141
removal 141
singapore@@ 141
refrigerators 141
genetic@@ 141
6.@@ 140
decorations 140
Mathematics 140
uary 140
mul@@ 140
Marie 140
towers 140
chats 140
contam@@ 140
owl 140
holes 140
campsite 140
comparable 140
ook 140
stop@@ 140
tos@@ 140
sar@@ 140
ova 140
squeeze 140
sculptures 140
locate 140
televi@@ 140
newer 140
nos@@ 140
avocado 140
casually 140
blues 140
1980s 140
recorder 140
umi 140
dig 140
duck 140
WBC 140
tten 140
aroma 140
ycle 140
ere@@ 140
indi@@ 140
postcards 140
collaboration 140
unite 140
ignorance 140
dissertation 140
HA 140
retain 140
2016 140
draws 140
para 140
Grade 140
centr@@ 140
Hans 140
Puerto 140
organisms 140
Cádiz 140
:) 140
I&apos;ll 140
ç@@ 140
&apos;(2:2:@@ 140
CLIL 140
€ 140
Montés 140
Lucila 140
tagline 140
nitrate 140
NOW 139
posed 139
Nobel 139
tioned 139
Bou@@ 139
Cross 139
actic 139
brick 139
zen 139
Sandra 139
ongoing 139
Make 139
slope 139
specified 139
nervously 139
e.@@ 139
accused 139
fal@@ 139
lers 139
Cinderella 139
Photoshop 139
chewing 139
Standard 139
texture 139
awhile 139
takoyaki 139
unprecedented 139
pee 139
Emperor 139
max 139
ades 139
sleepiness 139
pronunciations 139
Should 139
acute 139
DD 139
bb@@ 139
Harajuku 139
wolf 139
Sem@@ 139
soda 139
retrieved 139
aim@@ 139
Az@@ 139
placing 139
executed 139
sew 139
analyzed 139
dialects 139
tative 139
dedication 139
probable 139
pollutes 139
week@@ 138
atic 138
beg 138
V. 138
unfortun@@ 138
handled 138
sympathize 138
morality 138
alter@@ 138
Tim@@ 138
laun@@ 138
tori@@ 138
password 138
conce@@ 138
equ@@ 138
Engli@@ 138
exclude 138
leaking 138
TH 138
remarks 138
Kal@@ 138
info 138
Series 138
shade 138
Ai@@ 138
advancements 138
dless 138
CM 138
cerebr@@ 138
miners 138
tric 138
bath@@ 138
Rs 138
kun 138
ken@@ 138
convention 138
vocation 138
soybeans 138
ui 138
pression 138
poles 138
Sex 138
Cairo 138
Blo@@ 138
gyms 138
LCD 138
shortcomings 138
Tijuana 138
Hangzhou 138
9/@@ 138
prompt 137
guaranteed 137
bert 137
toe 137
Fa@@ 137
fabric 137
ny@@ 137
compelled 137
Ancient 137
begin@@ 137
peaple 137
tings 137
cate 137
fron@@ 137
stepping 137
cheated 137
HT@@ 137
althought 137
eled 137
brighter 137
Mango 137
judges 137
uncountable 137
arrow 137
mentality 137
mastered 137
Hu 137
enforce 137
eda 137
skyscrapers 137
197@@ 137
debris 137
Jul 137
pus 137
aking 137
metropolitan 137
geek 137
medals 137
interpreted 137
gro@@ 137
booth 137
suit@@ 137
Jakarta 137
dispose 137
losses 137
alling 137
recruitment 137
Change 137
pes@@ 137
Run 137
Hos@@ 137
1987 137
Italians 137
51 137
vibration 137
friendliness 137
arises 137
expenditures 137
discusses 137
motorway 137
segregation 137
pp.@@ 137
gossi@@ 136
matic 136
therefor 136
stead 136
ety 136
nicer 136
husbands 136
pac@@ 136
tolerant 136
summers 136
hugs 136
impres@@ 136
tee 136
alas 136
PRO@@ 136
backwards 136
paints 136
disliked 136
wit@@ 136
ker@@ 136
unacceptable 136
drummer 136
pens 136
clumsy 136
commodities 136
hardship 136
band@@ 136
Pan 136
Empire 136
repeats 136
beard 136
ves@@ 136
refer@@ 136
kai@@ 136
Gifu 136
Okayama 136
Yesterday 136
Apr 136
editing 136
stically 136
warranty 136
98 136
remenber 136
privilege 136
storing 136
crane 136
tism 136
watering 136
Train 136
Muay 136
casino 136
allergies 136
shades 136
biased 136
Kiev 136
anaesthesia 136
Kiyomizu 136
-0@@ 136
KS 135
Gallery 135
J.@@ 135
imply 135
experi@@ 135
pra@@ 135
surfed 135
bles 135
60% 135
ores 135
apt 135
disability 135
EF 135
GB 135
constraints 135
bookstores 135
settings 135
striking 135
stricken 135
blocked 135
orph@@ 135
conquered 135
legi@@ 135
sequel 135
aved 135
punk 135
asts 135
zhou 135
dye 135
wipe 135
verse 135
explode 135
Wars 135
Jin@@ 135
xing 135
earrings 135
pel@@ 135
Therefore 135
surround 135
shin 135
Holden 135
prefectures 135
inferior 135
damaging 135
pushes 135
aving 135
warnings 135
Ahh 135
perceived 135
Sherlock 135
downside 135
doubted 135
endeavor 135
projector 135
speeds 135
TER@@ 134
alcho@@ 134
photographers 134
laboratories 134
dep@@ 134
eries 134
logically 134
lic@@ 134
Wood 134
inate 134
Steven 134
excercise 134
conc@@ 134
alter 134
Uruguay 134
prof@@ 134
bies 134
mailed 134
East@@ 134
Sak@@ 134
asian 134
Jerry 134
amp 134
mint 134
Dictionary 134
Trav@@ 134
Right 134
icecream 134
suppress 134
YA 134
manuscript 134
Angel 134
ciao 134
zi 134
colloquial 134
Luther 134
segment 134
faulty 134
bouquet 134
ret@@ 134
roasted 134
providers 134
sing@@ 134
distinctive 134
Ryoma 134
espresso 134
scan 134
subsidy 134
grace 134
Delhi 134
Chelsea 134
justified 134
separating 134
Process 134
wiser 134
MAR@@ 133
&apos;S 133
CL@@ 133
desks 133
autograph 133
open@@ 133
mathematical 133
eternal 133
Spe@@ 133
eful 133
exaggerated 133
tch 133
apar@@ 133
ame@@ 133
favourites 133
trainers 133
condi@@ 133
lem 133
outskirts 133
tissues 133
Liverpool 133
Trade 133
ph 133
tab@@ 133
Roma 133
conf@@ 133
MA@@ 133
itation 133
ich 133
ont 133
TOKYO 133
tro 133
representatives 133
bold 133
Tube 133
deprived 133
geniuses 133
adap@@ 133
maki 133
Son 133
Mont@@ 133
anticipated 133
rink 133
critici@@ 133
domin@@ 133
carelessness 133
melon 133
kimchi 133
gon@@ 133
400@@ 133
ceremonies 133
twilight 133
acupuncture 133
van@@ 133
whale 133
assert 133
ownership 133
hehehe 133
scre@@ 133
katsu 133
variables 133
manpower 133
towels 132
july 132
know@@ 132
investigating 132
85 132
Boys 132
rey 132
conditioned 132
Bruno 132
Hana 132
somthing 132
Europ@@ 132
rum@@ 132
infr@@ 132
stro@@ 132
repairing 132
displays 132
aur@@ 132
Bolivia 132
appro@@ 132
extract 132
tious 132
cir@@ 132
remark 132
Yangyang 132
JI 132
oooooooo@@ 132
novelist 132
pulling 132
bonds 132
Hard 132
misuse 132
yukata 132
attachment 132
usive 132
ane@@ 132
ashi@@ 132
stamps 132
exploited 132
Swift 132
Gy@@ 132
nets 132
DD@@ 132
functionality 132
Website 132
typically 132
Toyama 132
Nar@@ 132
invaded 132
immature 132
Dun@@ 132
Long@@ 132
Sept 132
refined 132
breed 132
wrestlers 132
origins 132
ento 132
buddy 132
Jonas 132
roofs 132
pirate 132
idi@@ 132
dow@@ 132
1975 132
insulted 132
conventionally 132
p/@@ 132
CH 131
izing 131
copies 131
WHO 131
ABOUT 131
WE@@ 131
tolerate 131
pleasures 131
eat@@ 131
charging 131
motive 131
relaxes 131
Gor@@ 131
xxx 131
willingly 131
maple 131
someting 131
dou@@ 131
booklet 131
essentially 131
destroys 131
tournaments 131
gt 131
Bam@@ 131
je 131
wir@@ 131
nings 131
UI 131
exic@@ 131
transparent 131
ade@@ 131
Hatoyama 131
univer@@ 131
graphy 131
shave 131
wandered 131
Tou@@ 131
index 131
supervised 131
breakthrough 131
dolphin 131
nag@@ 131
earnest 131
CPU 131
enly 131
sity 131
desirable 131
thorough 131
fa 131
Arsenal 131
MacBook 131
performs 131
mum@@ 131
roe 131
ensured 131
Glo@@ 131
guidelines 131
four@@ 130
Express 130
BUT 130
ico 130
wil@@ 130
BL@@ 130
lanes 130
bag@@ 130
convini@@ 130
Eg@@ 130
Jacob 130
HK 130
rebuild 130
less@@ 130
ition 130
met@@ 130
CE 130
Play 130
housewives 130
Mondays 130
1988 130
123 130
drin@@ 130
Hide@@ 130
installing 130
fade 130
murdered 130
pulse 130
gur@@ 130
rainning 130
revive 130
quotes 130
Nat@@ 130
login 130
6% 130
forums 130
iton 130
boarded 130
Holmes 130
deter@@ 130
Terminator 130
immigr@@ 130
dealer 130
Ohana 130
waved 130
scratches 130
Shim@@ 130
subtle 130
Fire 130
Its 130
Aussie 130
defects 130
aspire 130
eh 130
aser 130
refrain 130
charcoal 130
nano 130
borne 130
insane 130
emo@@ 130
intake 130
Present 130
progressing 130
Ton 130
Thi@@ 130
Stefan 130
LY 129
wheather 129
buff@@ 129
elly 129
EL 129
sellers 129
question@@ 129
clas@@ 129
vir@@ 129
dozens 129
admiration 129
cer 129
anne 129
discomfort 129
terri@@ 129
instinct 129
mouths 129
ffy 129
poorer 129
clerks 129
Ph@@ 129
thieves 129
dity 129
sible 129
wifi 129
entrepreneurship 129
outdated 129
upgraded 129
shor@@ 129
nuance 129
cover@@ 129
nut 129
coldness 129
rabbits 129
ordering 129
coaching 129
eggplant 129
76 129
communicated 129
similarity 129
sively 129
stroll 129
tempura 129
quoted 129
emp@@ 129
sut@@ 129
continent 129
hon 129
bid 129
from@@ 129
sighed 129
Kei 129
AYA 129
Corporation 129
cocktail 129
obtaining 129
intervene 129
Cultural 129
pump 129
railroad 129
publications 129
olan 129
benefited 129
sug@@ 128
ATE 128
pots 128
clim@@ 128
..... 128
Faithfully 128
tist 128
visit@@ 128
6/@@ 128
til@@ 128
Lin@@ 128
osed 128
precautions 128
Molly 128
tow@@ 128
starter 128
walk@@ 128
af 128
Ali@@ 128
intersting 128
deaf 128
aled 128
intro@@ 128
origin@@ 128
reforms 128
wow 128
Rikako 128
Charlotte 128
exploit 128
Aid 128
acquisition 128
Tran@@ 128
tutors 128
inter 128
Gogyohka 128
grammars 128
alley 128
Chang 128
insight 128
seasoned 128
hili@@ 128
enriched 128
eye@@ 128
art@@ 128
CP@@ 128
perseverance 128
Venus 128
supplements 128
circles 128
ao@@ 128
KE@@ 128
Mixi 128
undertaken 128
Dubai 128
starters 128
Pirates 128
Crimea 128
prototype 128
holl@@ 127
selves 127
mod@@ 127
corridor 127
Yoshi@@ 127
bits 127
escaping 127
Know@@ 127
acoustic 127
ologists 127
confessed 127
bili@@ 127
fes@@ 127
bankrupt 127
marri@@ 127
cleared 127
thing@@ 127
lia 127
vide@@ 127
call@@ 127
Money 127
weighed 127
flow@@ 127
kot@@ 127
Edu@@ 127
shaping 127
Ton@@ 127
exchanges 127
ironic 127
slices 127
fatty 127
policemen 127
she@@ 127
Commission 127
tou@@ 127
ie@@ 127
Talk 127
ite@@ 127
contacting 127
protest 127
Nana 127
Chap@@ 127
athletics 127
az 127
anna 127
frying 127
Anatomy 127
southeast 127
Fili@@ 127
priorities 127
pavement 127
unconscious 127
burgers 127
grants 127
sportsmen 127
indescribable 127
Identification 127
dong 126
AME 126
QU@@ 126
achi@@ 126
recomm@@ 126
Kan 126
herbal 126
frightening 126
Carlos 126
farther 126
ells 126
heav@@ 126
thread 126
quarreled 126
bec@@ 126
underwear 126
evey@@ 126
guage 126
windsurfing 126
compli@@ 126
ISS 126
nur@@ 126
fis@@ 126
beats 126
success@@ 126
augh@@ 126
sho 126
cy 126
distinction 126
divi@@ 126
ayama 126
darker 126
850 126
Ibaraki 126
aesthetic 126
Smart 126
cursed 126
typo@@ 126
Andrea 126
comprehend 126
prescription 126
tsu@@ 126
enforced 126
him@@ 126
indulge 126
Nikko 126
brass 126
guts 126
Geographic 126
USSR 126
hides 126
aster@@ 126
shogi 126
intensity 126
lantern 126
doughnuts 126
drastic 126
assault 126
motorbikes 126
Scott 126
jerk 126
DOE 126
?id=@@ 126
6:@@ 126
stamp 125
organiser 125
crashes 125
help@@ 125
mic@@ 125
ul 125
matching 125
got@@ 125
Paulo 125
unpopular 125
pianist 125
Eri@@ 125
legally 125
bie 125
kon 125
Yak@@ 125
reser@@ 125
hint 125
agawa 125
fini@@ 125
esses 125
incapable 125
avenue 125
doub@@ 125
civilizations 125
Hayao 125
posing 125
hen 125
Sul@@ 125
Wedding 125
ound@@ 125
restrict 125
Kr@@ 125
tallest 125
detected 125
Naz@@ 125
spinach 125
tango 125
logo 125
Engish 125
skyscraper 125
hosting 125
Metropolitan 125
Ryo 125
emerge 125
expec@@ 125
kat@@ 125
View@@ 125
emperor 125
transpor@@ 125
Margarita 125
Mem@@ 125
beam 125
bypass 125
2007@@ 125
ounded 124
disap@@ 124
:30 124
individu@@ 124
alled 124
imagining 124
coats 124
deceived 124
ris@@ 124
confidential 124
demo 124
Mak@@ 124
offensive 124
navigation 124
wash@@ 124
Nadeshiko 124
rail@@ 124
IY@@ 124
incomplete 124
parcel 124
glow 124
bungee 124
eline 124
neighborhoods 124
idle 124
stoped 124
Trans@@ 124
92 124
grotesque 124
pedestrian 124
Brisbane 124
Hiragana 124
RMB 124
woo@@ 124
Presentation 124
oster 124
gesture 124
cations 124
knowledgeable 124
problematic 124
CO 124
Lam@@ 124
worsen 124
prediction 124
happenings 124
hugging 124
spi@@ 124
allocate 124
prev@@ 124
discharged 124
Bulgarian 124
dyslexia 124
tutorial 124
anci@@ 124
boiler 124
relies 124
literate 124
0.@@ 124
&#91;@@ 124
References 124
nam 123
ignoring 123
tening 123
Kim@@ 123
drawings 123
dancers 123
Hamlet 123
justify 123
stepmother 123
diffic@@ 123
elite 123
Magazine 123
rot@@ 123
inqu@@ 123
Oscar 123
fic 123
renewal 123
tery 123
exer@@ 123
kno@@ 123
helper 123
improvi@@ 123
appeals 123
hiko 123
dim 123
converse 123
who@@ 123
side@@ 123
plaza 123
olds 123
mu 123
debut 123
aa 123
preserving 123
counselor 123
oop 123
intersection 123
involvement 123
foun@@ 123
clicked 123
rap@@ 123
vocational 123
scenic 123
eBay 123
headset 123
thumb 123
comforted 123
tactics 123
publication 123
mir@@ 123
HD 123
ample 123
bum 123
BB@@ 123
throws 123
consul@@ 123
Reg@@ 123
supplier 123
Yuan 123
Fleming 123
obsolete 123
Vin 123
inert 123
a.@@ 123
EST@@ 122
HAD 122
STAR@@ 122
clean@@ 122
norm@@ 122
HAPPY 122
cam 122
countable 122
THER 122
great@@ 122
depar@@ 122
Dec@@ 122
cham@@ 122
LD 122
salesman 122
computing 122
yl 122
café 122
determin@@ 122
350 122
Head 122
pipes 122
HI 122
sleep@@ 122
Biology 122
assembly 122
acqu@@ 122
zaki 122
Coun@@ 122
benef@@ 122
insul@@ 122
Euro 122
punish 122
ky@@ 122
Sai@@ 122
dent@@ 122
Kai@@ 122
vicious 122
Enlish 122
ceramic 122
Arthur 122
eable 122
140 122
footprints 122
spine 122
4% 122
unintentionally 122
exposing 122
collaborate 122
soooooooo@@ 122
Swan 122
usions 122
Beg@@ 122
sunburn 122
Dri@@ 122
vividly 122
fuckin 122
sel 122
synagogue 122
outcomes 122
Fac@@ 122
noble 122
Himeji 122
und 122
Janeiro 122
Mall 122
1960s 122
metaphor 122
Lawrence 122
puck 122
Elderly 122
genetics 122
Tarragona 122
Agrigento 122
WhatsApp 122
reporters 121
regretful 121
experim@@ 121
Phili@@ 121
tradi@@ 121
clarify 121
pause 121
ions 121
aked 121
thir@@ 121
favorable 121
Char@@ 121
oper@@ 121
appar@@ 121
irs 121
businessmen 121
counseling 121
illuminated 121
scoring 121
Magic 121
1985 121
hum 121
maternity 121
socializing 121
syndrome 121
genuinely 121
variations 121
vis@@ 121
MacDonald 121
accomplishment 121
youths 121
aria 121
Beer 121
ock@@ 121
Sunny 121
Nabe 121
HP 121
Mic@@ 121
twenties 121
tai 121
path@@ 121
cola 121
provision 121
Got 121
terrifying 121
creator 121
Hyogo 121
Bhutan 121
dominated 121
indifferent 121
fet@@ 121
seni@@ 121
Sicily 121
fertile 121
assembled 121
industrialization 121
cardiovascular 121
odor 121
infections 121
billions 121
possession 121
Five 121
evolve 121
investigations 121
generators 121
.com@@ 121
al-@@ 121
DON 120
gth 120
LL 120
biscuits 120
mean@@ 120
treasures 120
agre@@ 120
boun@@ 120
appriciate 120
protects 120
releases 120
auth@@ 120
worms 120
outfit 120
suff@@ 120
teached 120
bal 120
eres 120
vocalist 120
rite 120
faded 120
Hal@@ 120
nutri@@ 120
Ill@@ 120
strained 120
reconsider 120
ninety 120
viewpoints 120
holders 120
Hanshin 120
restrant 120
billiards 120
applies 120
tempo 120
transfered 120
Rabbit 120
provoking 120
dieting 120
preschool 120
pu 120
zushi 120
Fuji@@ 120
unusually 120
hassle 120
regain 120
examining 120
ity@@ 120
stra@@ 120
calender 120
refuge 120
snorkeling 120
pineapple 120
crushed 120
nicely 120
gaze 120
2020 120
kite 120
olic 120
Manhattan 120
Comedy 120
shipped 120
qualify 120
1Q84 120
Birmingham 120
kins 120
illiterate 120
thirst 120
450 120
Frequency 120
al_@@ 120
Symba 120
Niall 120
Flamengo 120
Kortrijk 120
Sandrine 120
Jack&amp;Jones 120
Gambia 120
Jirga 120
Billy 119
signature 119
disappearing 119
Intro@@ 119
vitae 119
befor 119
Att@@ 119
odds 119
cum@@ 119
surpri@@ 119
stan@@ 119
gues 119
MAN 119
Bar 119
vy 119
mysteries 119
sculpture 119
inary 119
Asahi 119
wil 119
bf 119
bacause 119
Living 119
Miku 119
Weekend 119
ev 119
deadlines 119
xed 119
amo 119
joun@@ 119
kara 119
seoul 119
dragged 119
Third 119
pastime 119
Sc@@ 119
carbohydrates 119
spray 119
debated 119
livelihood 119
cow@@ 119
Ohh 119
dubbed 119
entation 119
child@@ 119
chopped 119
30pm 119
Gossip 119
versity 119
Translation 119
meow 119
Fantasy 119
alternate 119
descen@@ 119
bell@@ 119
nn@@ 119
compliment 119
Bieber 119
aca@@ 119
Titanic 119
tiveness 119
randomly 119
clos@@ 119
Level 119
Matsuri 119
capacities 119
scooters 119
t/@@ 119
ING@@ 118
swallow 118
Gri@@ 118
proposition 118
quarters 118
pockets 118
Jin 118
lou@@ 118
fraud 118
stom@@ 118
Conference 118
peop@@ 118
Joh@@ 118
changeable 118
boar@@ 118
chal@@ 118
redundant 118
salsa 118
spac@@ 118
hypo@@ 118
monitored 118
appearing 118
folded 118
00AM 118
brain@@ 118
uncertainty 118
drunken 118
Cop@@ 118
vitality 118
occasional 118
hir@@ 118
Mot@@ 118
vers@@ 118
ego@@ 118
2weeks 118
utmost 118
cus 118
uploading 118
airports 118
thri@@ 118
porn 118
cast@@ 118
impor@@ 118
passages 118
hhh 118
counter@@ 118
Bai@@ 118
rods 118
soli@@ 118
TEPCO 118
certificates 118
Xi@@ 118
hypothesis 118
bull@@ 118
privileged 118
traveler 118
aters 118
transportations 118
accessed 118
deeds 118
Columbia 118
executives 118
Japanease 118
Ninja 118
1981 118
aming 118
surge 118
transactions 118
Andre@@ 118
Wednesdays 118
Freeman 118
ing-@@ 118
%@@ 118
3- 118
PU@@ 117
cardi@@ 117
BIG 117
bridges 117
comunic@@ 117
dev@@ 117
temper@@ 117
ordin@@ 117
departed 117
pissed 117
Lor@@ 117
phrasal 117
unbearable 117
mechanics 117
secured 117
nas@@ 117
Eric 117
sits 117
confronted 117
bord 117
seventy 117
tre 117
journal@@ 117
boy@@ 117
simplified 117
rescued 117
hanged 117
sitcom 117
charts 117
jac@@ 117
york 117
awfully 117
reproduce 117
tiles 117
pursuit 117
Curry 117
lam@@ 117
deed 117
bed@@ 117
pled 117
Toy 117
Southeast 117
pitcher 117
aer@@ 117
GOD 117
Minh 117
120@@ 117
Tan 117
Kung 117
prisoners 117
scholars 117
Cra@@ 117
Mimi 117
plun@@ 117
preview 117
bells 117
inserted 117
gains 117
stal@@ 117
tomb 117
Phoebe 117
soybean 117
ase@@ 117
astronaut 117
Badminton 117
excluded 117
elbow 117
tris 117
alise 117
Eco 117
surgeons 117
planners 117
birdwatching 117
MCYS 117
cement 116
Bro@@ 116
var@@ 116
stam@@ 116
arity 116
Lau@@ 116
notebooks 116
enjo@@ 116
Oasis 116
odi@@ 116
championships 116
dearest 116
surrender 116
nes@@ 116
compos@@ 116
gel 116
ece 116
cheaply 116
need@@ 116
bookshop 116
XX 116
bulbs 116
attentive 116
matched 116
Kanazawa 116
lettuce 116
sounding 116
contaminated 116
paperback 116
blast 116
yea 116
ancestor 116
confidently 116
aga 116
chew 116
Working 116
abused 116
Hanoi 116
conditional 116
unities 116
aviation 116
Prison 116
immersed 116
Saf@@ 116
mashita 116
grader 116
Award 116
conferences 116
simul@@ 116
Grace 116
10km 116
nephews 116
Need 116
feminine 116
gal 116
inity 116
estates 116
sof@@ 116
drowsy 116
Bond 116
interro@@ 116
bian 116
toothache 116
love@@ 116
diagnos@@ 116
Hungarian 116
Plant 116
astronauts 116
Malcolm 116
/n@@ 116
WANT 115
MIN@@ 115
arrest 115
Stadium 115
pleasantly 115
erous 115
I. 115
asaki 115
writen 115
crowed 115
begging 115
blows 115
74 115
depart 115
cic@@ 115
crawling 115
Television 115
ox 115
Card 115
uda 115
common@@ 115
sudd@@ 115
rear 115
diagnosis 115
sneezing 115
adulthood 115
chon 115
crabs 115
snowman 115
spectrum 115
Weather 115
lag@@ 115
autom@@ 115
Siberia 115
hhhh 115
boot 115
inds 115
Hak@@ 115
Kee@@ 115
Montreal 115
extinct 115
Bachelor 115
yak@@ 115
birthdays 115
hospitality 115
umbrellas 115
Cla@@ 115
Haiti 115
donating 115
ae@@ 115
ret 115
virtue 115
lean@@ 115
villagers 115
IX 115
lowering 115
Austr@@ 115
lamb 115
owers 115
establishing 115
confronting 115
disappearance 115
Diffusion 115
visually 115
bargains 115
8/@@ 115
autographs 114
ques 114
Musical 114
Perfect 114
telephones 114
vacancies 114
adm@@ 114
brochure 114
oneday 114
disgusted 114
lon 114
adjusted 114
vaccination 114
Ly@@ 114
Fran@@ 114
vering 114
1900 114
purely 114
maj@@ 114
knowledges 114
dation 114
electri@@ 114
ection 114
absurd 114
til 114
rushing 114
Stephen 114
lad@@ 114
Helena 114
FF@@ 114
harmless 114
correspondence 114
aboard 114
softball 114
Champion 114
SAT 114
anian 114
shorten 114
utter 114
fra@@ 114
potter 114
earth@@ 114
McDonalds 114
rem@@ 114
part2 114
Languages 114
yahoo 114
seasoning 114
ople 114
Touch 114
sesame 114
overlook 114
GRE 114
hips 114
winding 114
Wakayama 114
Kawasaki 114
Entrance 114
Tanzania 114
Cooper 114
synthesizer 114
VOA 114
7pm 114
paella 114
planner 114
Waseda 114
evacuation 114
AP 114
ench 114
DIY 114
Every@@ 114
Roger 114
revision 114
starbucks 114
soooooo 114
peppers 114
koto 114
Calgary 114
eyebrows 114
Syria 114
Issues 114
Islands 114
Iphone 114
curiously 114
contexts 114
biting 114
Digital 114
anic 114
tability 114
strokes 114
Nikita 114
Kremlin 114
palaces 114
adress 113
brook 113
appoin@@ 113
filming 113
URE 113
deepest 113
iling 113
incre@@ 113
optional 113
have@@ 113
speciality 113
sank 113
singles 113
bir@@ 113
outs 113
reporting 113
Cli@@ 113
forgave 113
jewellery 113
thanking 113
ager 113
punishments 113
Beat@@ 113
privately 113
awaiting 113
ight 113
fon@@ 113
lar 113
excellence 113
dia 113
advocate 113
LED 113
scooter 113
digest 113
overly 113
sign@@ 113
Gates 113
Blood 113
craf@@ 113
programing 113
colony 113
crows 113
sarcastic 113
bitch 113
Inter 113
specialize 113
berries 113
offline 113
ana@@ 113
sta 113
prosperous 113
tertiary 113
Aomori 113
voted 113
politeness 113
Federation 113
mangas 113
kong 113
page@@ 113
fo 113
ket@@ 113
coldest 113
Victor 113
peel 113
Affairs 113
brewery 113
starvation 113
Web@@ 113
wel@@ 113
Scarlett 113
sustaining 113
Advisory 113
&#93;@@ 113
TAK@@ 112
INTER@@ 112
EV@@ 112
tuesday 112
contries 112
SPORT 112
studi@@ 112
Pedro 112
did@@ 112
guiding 112
Her 112
what@@ 112
lifeguard 112
Brian 112
dirt 112
bot@@ 112
incl@@ 112
illing 112
stru@@ 112
1993 112
eventhough 112
fall@@ 112
schoo@@ 112
Var@@ 112
viewer 112
tempor@@ 112
solidarity 112
XP 112
BI@@ 112
iry 112
moderately 112
isin@@ 112
Things 112
Economy 112
slammed 112
Yok@@ 112
masterpieces 112
grams 112
mice 112
stall 112
umin@@ 112
neg@@ 112
marriages 112
popcorn 112
yearly 112
differs 112
curve 112
superstition 112
ske@@ 112
F1 112
Cruise 112
Jer@@ 112
builds 112
civic 112
Lev@@ 112
food@@ 112
demolition 112
yi@@ 112
buys 112
atmospheric 112
impe@@ 112
paper@@ 112
sms 112
Planet 112
Noa 112
sustained 112
Trapani 112
PlayBook 112
Nuclear@@ 112
y_@@ 112
SOME 111
WA@@ 111
etly 111
vi 111
P.@@ 111
precision 111
Fish 111
recieve 111
disagreement 111
rats 111
devastated 111
refu@@ 111
Site 111
eyed 111
pole 111
booming 111
your@@ 111
cau@@ 111
Any@@ 111
attempted 111
jima 111
associations 111
Egyptians 111
Tech@@ 111
ska 111
addressing 111
gentlemen 111
ased 111
dish@@ 111
pick@@ 111
performer 111
ese@@ 111
TOR@@ 111
chili 111
compatible 111
hotmail 111
guessing 111
Myself 111
atu@@ 111
dged 111
Sichuan 111
mommy 111
haha@@ 111
sheer 111
pine 111
crap 111
sufficiently 111
bushes 111
ligent 111
grated 111
List 111
Number 111
pud@@ 111
Cebu 111
Contest 111
AMI 111
topping 111
bees 111
dant 111
pap@@ 111
angles 111
skaters 111
determining 111
assing 111
Lunar 111
Ages 111
refugees 111
hamster 111
composing 111
wood@@ 111
fiber 111
mayonnaise 111
She@@ 111
precipitation 111
Hungary 111
Taichung 111
Pop@@ 111
blog@@ 111
kw 111
CITATION 111
simplest 110
Greenwich 110
moderni@@ 110
traveller 110
extre@@ 110
producers 110
ario 110
Prize 110
Brontë 110
behaved 110
pref@@ 110
preci@@ 110
virtually 110
soul@@ 110
crow@@ 110
luckly 110
grow@@ 110
oured 110
chemist 110
F. 110
Lat@@ 110
Morocco 110
libr@@ 110
kets 110
amused 110
Since 110
aning 110
people@@ 110
kilometer 110
57 110
amuse 110
aus 110
eff@@ 110
knowle@@ 110
dir@@ 110
simulation 110
acking 110
otaku 110
Englsh 110
Ther@@ 110
capsule 110
atur@@ 110
ority 110
noticeable 110
shells 110
Sake 110
misery 110
typed 110
prevalent 110
inherit 110
discriminated 110
healed 110
Kir@@ 110
cattle 110
Natto 110
Chocolate 110
Shiga 110
homeroom 110
Nam@@ 110
avatar 110
aggrav@@ 110
chr@@ 110
coupon 110
bucks 110
investigated 110
Down 110
ATM 110
unch 110
shield 110
swollen 110
Hur@@ 110
onary 110
coordinator 110
Allah 110
constructions 110
oranges 110
pastry 110
selections 110
Claudia 110
gaps 110
anism 110
Mohammed 110
• 110
shark 109
IE@@ 109
DA@@ 109
tex@@ 109
Anyway 109
Larry 109
imag@@ 109
illy 109
Nico 109
agenda 109
Child 109
Ot@@ 109
wool 109
requ@@ 109
class@@ 109
aroud 109
Mid@@ 109
uta 109
grav@@ 109
IP@@ 109
mmer 109
initi@@ 109
Ev@@ 109
21th 109
creams 109
Industrial 109
ough@@ 109
E.@@ 109
excursions 109
gish 109
herbs 109
Camera 109
pros@@ 109
Linkin 109
clocks 109
mosquitoes 109
ignorant 109
Falls 109
Inc 109
Nihon 109
YU 109
hip@@ 109
diligently 109
cheerfully 109
handwriting 109
Tet@@ 109
JR 109
Kabuki 109
negotiation 109
slender 109
hook 109
acu@@ 109
participant 109
formul@@ 109
nervousness 109
Totoro 109
particles 109
disc 109
landing 109
puzzles 109
implied 109
haunted 109
salts 109
ggy 109
Pay@@ 109
zombie 109
cycles 109
Teaching 109
spreads 109
headquarters 109
Qing 109
bazaar 109
portions 109
kidnapping 109
denti@@ 109
leftover 109
Higher 109
innov@@ 109
pertinent 109
Graying 109
Molten 109
WAT@@ 108
lik@@ 108
stered 108
Clim@@ 108
disturbed 108
1- 108
diffcult 108
feast 108
sper@@ 108
teenth 108
Detective 108
astronomy 108
supri@@ 108
eagle 108
convic@@ 108
mach@@ 108
bele@@ 108
manages 108
M.@@ 108
tablets 108
rotation 108
schoolmates 108
footballer 108
ior 108
archi@@ 108
Sophia 108
ron 108
sely 108
MM@@ 108
sensitivity 108
ToT 108
utes 108
cro@@ 108
bud@@ 108
erry 108
straw 108
valu@@ 108
dude 108
overcoming 108
daunting 108
filed 108
pointless 108
1992 108
Environmental 108
GT@@ 108
prescribed 108
suki 108
quitting 108
virtues 108
vegit@@ 108
ounds 108
Niagara 108
yuki 108
XO 108
cube 108
eu 108
61 108
Happ@@ 108
Cruz 108
composer 108
blend 108
Sochi 108
certi@@ 108
Green@@ 108
DPJ 108
inherent 108
listeners 108
aud@@ 108
Care@@ 108
sticking 108
Economist 108
cheer@@ 108
skies 108
tougher 108
liter@@ 108
eland 108
cann@@ 108
Catalonia 108
MS@@ 108
consultation 108
iru 108
collective 108
companionship 108
Masters 108
worsening 108
critically 108
hazardous 108
gyoza 108
advising 108
complementary 108
Motor 108
hacker 108
elder@@ 108
maxim@@ 108
NFL 108
skunk 108
ID=@@ 108
http://www.world-nuclear.org/info/inf@@ 108
dissapointed 107
tease 107
WHEN 107
purchases 107
itly 107
vie 107
bush 107
scen@@ 107
succ@@ 107
originality 107
Name 107
udes 107
exem@@ 107
authori@@ 107
pirates 107
ultra 107
attacking 107
parallel 107
dition 107
sleeves 107
tin 107
OB@@ 107
neatly 107
lot@@ 107
dificult 107
underst@@ 107
thougt 107
touristic 107
would@@ 107
UFO 107
dist@@ 107
ees 107
bos@@ 107
Yang 107
Omi@@ 107
Tigers 107
miniature 107
trac@@ 107
vacant 107
ruled 107
teller 107
cite 107
Em@@ 107
good@@ 107
10pm 107
trem@@ 107
mango 107
2hours 107
sandals 107
altogether 107
Nap@@ 107
tis 107
preventive 107
Goya 107
Experience 107
olos 107
cell@@ 107
Jimmy 107
Rosetta 107
squirrels 107
Top@@ 107
Kot@@ 107
Building 107
slippers 107
rack 107
doubled 107
ange@@ 107
eighty 107
triple 107
Athens 107
commands 107
Canon 107
vanity 107
Spi@@ 107
Yuka 107
irrational 107
patch 107
Shirin 107
navi@@ 107
graves 107
stereotypes 107
Burton 107
gram 107
governor 107
liter 107
rated 107
excessively 107
quest 107
pedestrians 107
productions 107
ogue 107
taste@@ 107
greed 107
chip@@ 107
Comm@@ 107
contests 107
ance@@ 107
depleted 107
lifelong 107
structural 107
topic@@ 107
alisation 107
ITY 106
repairs 106
yday 106
aday 106
grap@@ 106
pir@@ 106
busses 106
considers 106
mation 106
Golf 106
exclusively 106
ugh 106
pers 106
whe@@ 106
Championship 106
memor@@ 106
8:00 106
lest 106
gladly 106
Britney 106
handball 106
economists 106
All@@ 106
spec@@ 106
lling 106
fellows 106
Mul@@ 106
hav 106
headaches 106
reminding 106
scool 106
sym@@ 106
sins 106
Mai 106
Tai 106
irregular 106
vessel 106
ooo 106
Doc@@ 106
goodnight 106
cular 106
transmitted 106
gestures 106
subscribe 106
anga 106
Beethoven 106
Over@@ 106
tom 106
wac@@ 106
AA@@ 106
tless 106
Causeway 106
Keep 106
systematic 106
Strategy 106
Wat@@ 106
biking 106
tattoos 106
RPG 106
susceptible 106
associates 106
fillet 106
hyper@@ 106
ml 106
bark 106
handing 106
blogger 106
darts 106
Forest 106
burary 106
Mai@@ 106
slippery 106
evacuated 106
candies 106
bull 106
gui@@ 106
exceed 106
Hyde 106
25% 106
kov 106
sacrificed 106
Van 106
believer 106
Bazaar 106
mutton 106
Cornwall 106
flir@@ 106
relocate 106
Alejandro 106
Romantic 106
cathedrals 106
publications/@@ 106
recommending 105
technologically 105
tide 105
plug 105
definitions 105
dos 105
contin@@ 105
FR@@ 105
softwares 105
gar 105
violet 105
racism 105
Donald 105
mill@@ 105
battles 105
assisted 105
Guy 105
extravagant 105
faint 105
sop@@ 105
intresting 105
Andrew 105
ting@@ 105
EM@@ 105
unthinkable 105
switching 105
transforming 105
intersted 105
cray@@ 105
progresses 105
recep@@ 105
ege 105
shcool 105
yy 105
celebrations 105
coasters 105
katakana 105
tweets 105
forming 105
snowfall 105
dam 105
bookkeeping 105
thankfully 105
mornig 105
coding 105
austr@@ 105
Animation 105
30000 105
Other 105
Anpanman 105
Hei@@ 105
MLB 105
make@@ 105
Fool 105
Scienti@@ 105
oi@@ 105
rowing 105
sequ@@ 105
Nothing 105
oysters 105
Hawaiian 105
denying 105
picks 105
Prot@@ 105
serendipity 105
clapping 105
tiresome 105
anchor 105
immoral 105
potion 105
buil@@ 105
proteins 105
crum@@ 105
casualties 105
Meg@@ 105
ggle 105
mee@@ 105
Institu@@ 105
Michelle 105
architects 105
parody 105
atively 105
pyramids 105
Ten 105
transition 105
logi@@ 105
Miyajima 105
traditionally 105
lifespan 105
eternity 105
governed 105
Amber 105
HDD 105
ally@@ 105
sportsman 105
.shtml 105
N. 105
THING 104
prohibit 104
shar@@ 104
elle 104
todays 104
stab@@ 104
richest 104
1960 104
raid 104
Bas@@ 104
step@@ 104
bracelet 104
comply 104
Marc 104
competed 104
los@@ 104
mercy 104
Anthony 104
Mobile 104
effec@@ 104
pou@@ 104
kit 104
adrenaline 104
Cou@@ 104
Mun@@ 104
Hom@@ 104
gramm@@ 104
hopeful 104
stating 104
justi@@ 104
cought 104
panese 104
Room 104
alumni 104
circul@@ 104
fearful 104
hh 104
omiya 104
Kyusyu 104
assumption 104
realization 104
pad@@ 104
differentiate 104
knock 104
descriptions 104
Matthew 104
needles 104
Univ 104
canoeing 104
ric 104
Highway 104
fading 104
start@@ 104
veg@@ 104
shr@@ 104
impede 104
OC 104
vibr@@ 104
fresh@@ 104
Baseball 104
shadowing 104
recruiting 104
oku@@ 104
light@@ 104
microscopes 104
Sche@@ 104
Criminal 104
compassion 104
condominium 104
Cameron 104
promotional 104
Finnish 104
Prob@@ 104
saxophone 104
Khosrau 104
suppliers 104
reap 104
advisor 104
alty 104
Setsubun 104
Cairns 104
CCTV 104
1984 104
humankind 104
triangle 104
embedded 104
aping 104
autonomy 104
Correct 104
Thing 104
Cameroon 104
logistics 104
follower 104
smash 104
subscri@@ 104
identities 104
Lennon 104
pagan 104
IQ 104
appearances 104
Shuttle 104
Intel@@ 104
badge 104
Mendez 104
Blink 104
en/@@ 104
#@@ 104
y-@@ 104
s.org/@@ 104
11.@@ 104
diner 103
grat@@ 103
projec@@ 103
decorating 103
aby 103
Travel 103
smog 103
gle@@ 103
kee@@ 103
capit@@ 103
SW@@ 103
wright 103
telecommunication 103
cab@@ 103
negatives 103
guit@@ 103
nel 103
Whit@@ 103
vent 103
ices 103
Monster 103
suke 103
Mickey 103
fighters 103
usages 103
comer 103
Nippon 103
hears 103
prolonged 103
ii 103
bered 103
aaaa@@ 103
nerv@@ 103
didn 103
illusion 103
year@@ 103
Symphony 103
flav@@ 103
clause 103
Mail 103
envied 103
inquiry 103
poss@@ 103
japan@@ 103
Dre@@ 103
educa@@ 103
deficit 103
prospect 103
chim@@ 103
South@@ 103
triggered 103
Dead 103
ickness 103
mama 103
view@@ 103
judo 103
partnership 103
Crazy 103
aling 103
maze 103
Work@@ 103
goalkeeper 103
waving 103
affluent 103
sovereignty 103
eeeeeeee@@ 103
pei 103
oily 103
iPad2 103
about@@ 103
Shikoku 103
applicable 103
whisky 103
mandarin 103
dialogues 103
Field 103
inge 103
oodle 103
defective 103
hammer 103
landmark 103
govern@@ 103
bouldering 103
Poli@@ 103
organizes 103
greener 103
nausea 103
35% 103
financing 103
insignificant 103
urbanization 103
breakthroughs 103
nuclear_@@ 103
WOR@@ 102
fitted 102
wicked 102
shoo@@ 102
ween 102
gation 102
ford 102
Clo@@ 102
scissors 102
Alps 102
costed 102
travellers 102
postman 102
2:@@ 102
Pretty 102
onia 102
iles 102
ography 102
admiring 102
fty 102
dun@@ 102
vanish 102
quot@@ 102
Williams 102
1200 102
Lorena 102
stuffy 102
acr@@ 102
gul@@ 102
langage 102
sor 102
Mos@@ 102
Viet@@ 102
ests 102
cos 102
singapore 102
cease 102
stain 102
parlor 102
Japanse 102
Haiku 102
kou@@ 102
bud 102
sei 102
disappears 102
Transformers 102
8% 102
baby@@ 102
emen 102
unrelated 102
gger 102
tigers 102
Simple 102
affirmation 102
Fernando 102
Saga 102
sei@@ 102
stern 102
commemor@@ 102
corners 102
OOOO@@ 102
obligatory 102
mines 102
curly 102
thor@@ 102
eld 102
Mumbai 102
30s 102
sleeve 102
Pixar 102
Linda 102
frames 102
daily@@ 102
perc@@ 102
builder 102
paramount 102
foundations 102
MC@@ 102
ideology 102
Hina 102
eld@@ 102
equations 102
autism 102
article/@@ 102
view/@@ 102
« 102
incandescent 102
FAMILY 101
FOR@@ 101
3-@@ 101
YEAR 101
ente 101
sson 101
NT 101
foll@@ 101
Before 101
fort@@ 101
Village 101
prepar@@ 101
yers 101
shoping 101
Journ@@ 101
possi@@ 101
atable 101
4.@@ 101
millionaire 101
best@@ 101
MON@@ 101
dges 101
jack 101
Cur@@ 101
Chef 101
Woo 101
insights 101
oz@@ 101
aftershock 101
MP@@ 101
eption 101
bridegroom 101
prostitu@@ 101
Bir@@ 101
monotonous 101
pierced 101
dumped 101
alizing 101
Awards 101
po 101
enthusiastically 101
extracted 101
Oregon 101
tax@@ 101
vendor 101
Programming 101
loop 101
exceptionally 101
canned 101
Rain 101
sweep 101
elt 101
attempting 101
fluffy 101
consulted 101
scars 101
flip 101
way@@ 101
bible 101
Labor 101
subsi@@ 101
hah 101
reconstruction 101
ession 101
Allen 101
WWII 101
Diet 101
upward 101
shire 101
Mich@@ 101
shita 101
fle 101
Hag@@ 101
controversies 101
Phoenix 101
branded 101
serials 101
JAL 101
Hugh 101
calculation 101
Net@@ 101
activate 101
petals 101
expressway 101
Industry 101
kindergarden 101
Open@@ 101
timely 101
deterioration 101
KA 101
adapting 101
drinker 101
Giant 101
Yaman@@ 101
judgment 101
saga 101
dough 101
Isa@@ 101
91 101
ley@@ 101
governing 101
86@@ 101
objections 101
compromised 101
bonding 101
enas 101
Dawn 101
storey 101
potions 101
2009/0@@ 101
7.@@ 101
9.@@ 101
reactor@@ 101
WOULD 100
ERS 100
overcrowded 100
teach@@ 100
themself 100
deserted 100
congratulation 100
caps 100
photo@@ 100
tte 100
ano@@ 100
receipt 100
Top 100
Andr@@ 100
Charity 100
Never 100
inning 100
Hoo@@ 100
invade 100
bend 100
1989 100
accepts 100
Him 100
appl@@ 100
dents 100
obscure 100
curi@@ 100
singular 100
assed 100
merchandise 100
edly 100
ground@@ 100
PAS@@ 100
oso 100
coherent 100
Gra@@ 100
dots 100
Sta@@ 100
latte 100
sincerity 100
migrants 100
Asians 100
stimulated 100
warmed 100
listen@@ 100
50000 100
learing 100
jan@@ 100
beau@@ 100
contracts 100
weed 100
presidential 100
consisting 100
Iroha 100
Judo 100
storms 100
pes 100
jin@@ 100
kyoto 100
Vatican 100
carriage 100
ulation 100
fermented 100
topped 100
alo@@ 100
eases 100
Figure 100
replacing 100
cooperative 100
notify 100
196@@ 100
mole@@ 100
1950 100
chick 100
zo@@ 100
Nelson 100
LAN 100
Neapolitan 100
incorporated 100
hoo 100
hunter 100
chaotic 100
commission 100
wire@@ 100
Tha@@ 100
05@@ 100
brightly 100
Bone 100
unt 100
voyage 100
gated 100
Ron@@ 100
imperative 100
uck@@ 100
purify 100
hackers 100
recreational 100
dubbing 100
opt 100
dust@@ 100
graying 100
copyright 100
Frank 100
atoms 100
locally 100
props 100
http://news.bbc.co.uk/2/hi/@@ 100
al/@@ 100
1033 100
content/@@ 100
H.@@ 100
Monsteration 100
ó@@ 100
2- 100
Ninh 100
Marcuangolo 100
ín 100
Pontevedra 100
Machachi 100
dhaka 100
@gmail.com 100
Lagos 100
Częstochowa 100
Leonberg 100
Basil 100
» 100
Hasselt 100
Demetrius 100
&apos;(2:1:@@ 100
END 99
hime 99
BR@@ 99
TE 99
buyer 99
REALLY 99
science@@ 99
await 99
adventurous 99
congratulated 99
replies 99
GE@@ 99
compu@@ 99
West@@ 99
enormously 99
insecure 99
Bach 99
terror 99
Guide 99
spheres 99
raincoat 99
Kor@@ 99
eeds 99
icial 99
58 99
Of@@ 99
donkey 99
blu@@ 99
reluctantly 99
ener 99
mond 99
Look 99
authorized 99
Questions 99
scape 99
sight@@ 99
fix@@ 99
median 99
titude 99
juniors 99
chee@@ 99
5km 99
assessed 99
Osechi 99
rhyth@@ 99
7am 99
phone@@ 99
inten@@ 99
arch 99
charismatic 99
matics 99
fran@@ 99
Ghost 99
Bus 99
manufacturer 99
classics 99
quited 99
locker 99
hyper 99
voting 99
overlooked 99
grill 99
ii@@ 99
centi@@ 99
Holidays 99
Cloud 99
compelling 99
Method 99
unwind 99
Case 99
spokesperson 99
mai 99
1800 99
mart 99
Jac@@ 99
Authority 99
deprive 99
diligence 99
coward 99
Iceland 99
bleed 99
pyramid 99
Macbook 99
committing 99
bei@@ 99
familiy 99
Sonic 99
rie 99
inspec@@ 99
conduc@@ 99
dan 99
conquest 99
ledge 99
va@@ 99
ship@@ 99
sympathetic 99
yields 99
glob@@ 99
communal 99
flavours 99
ENT@@ 98
Police 98
altered 98
sement 98
adver@@ 98
gigantic 98
paci@@ 98
chers 98
MIS@@ 98
ali 98
wrongly 98
mam 98
lacked 98
Lily 98
Mart@@ 98
thers 98
bloomed 98
restless 98
burns 98
fingerprints 98
Buenos 98
Bin@@ 98
Kuwait 98
Stre@@ 98
supplied 98
Say@@ 98
beneath 98
199@@ 98
Koshien 98
Xi 98
capitalism 98
Shinagawa 98
Depp 98
Hanasaku 98
Ep 98
Len@@ 98
paved 98
GP 98
nese 98
Sto@@ 98
migrate 98
Lab 98
civilians 98
orderly 98
Min 98
ican 98
uru 98
pref 98
marble 98
72 98
marke@@ 98
Under@@ 98
iga@@ 98
Engilsh 98
dine 98
murders 98
Lavigne 98
puri@@ 98
78 98
Bull 98
unic@@ 98
KTV 98
penguins 98
predicting 98
twin@@ 98
Province 98
Product 98
collar 98
heel 98
continental 98
tenth 98
memorandum 98
Sach@@ 98
solu@@ 98
dinosaur 98
injections 98
fla@@ 98
ose@@ 98
Izu 98
ped@@ 98
salads 98
endured 98
Ring 98
uko 98
CAE 98
Analy@@ 98
blackouts 98
cooper@@ 98
Oceania 98
Lancaster 98
flourish 98
obli@@ 98
compost 98
Manpower 98
US$ 98
.j@@ 98
d=@@ 98
L.@@ 98
UL 97
TAKE 97
1th 97
ONLY 97
sunglasses 97
fif@@ 97
86 97
familly 97
embr@@ 97
wired 97
whispering 97
oke 97
childrens 97
ologi@@ 97
tif 97
restr@@ 97
complement 97
attendants 97
Univer@@ 97
eman 97
furi@@ 97
hus@@ 97
mailing 97
rus 97
Walt 97
Grandma 97
thday 97
Post@@ 97
soaking 97
Lotte 97
rill@@ 97
examiner 97
Johnson 97
sexually 97
fores@@ 97
impulse 97
Aki@@ 97
screwed 97
hr@@ 97
Southern 97
Differ@@ 97
Paraguay 97
cucumbers 97
Skills 97
Tochigi 97
transl@@ 97
Paper 97
manag@@ 97
nment 97
foggy 97
Aqu@@ 97
dustbin 97
Visual 97
tite 97
oro@@ 97
mega 97
grasses 97
labs 97
ripe 97
bearing 97
plantation 97
Or 97
undeveloped 97
haven 97
JLPT 97
tra 97
Orchestra 97
Asi@@ 97
fiancee 97
kka 97
Oil 97
emailed 97
gies 97
suburban 97
specul@@ 97
Notebook 97
sukiyaki 97
itinerary 97
discrimin@@ 97
hazards 97
medications 97
colds 97
inheritance 97
proving 97
entrepreneurs 97
harvested 97
manufactured 97
Lead 97
Countries 97
finest 97
2500 97
dimensions 97
surfaces 97
vulnerability 97
nurture 97
Technical 97
le/@@ 97
population@@ 97
OUR 96
AGAIN 96
19.00 96
enought 96
heights 96
IDE 96
HongKong 96
alists 96
politic 96
Stanford 96
Gym 96
mobile@@ 96
forgets 96
dum@@ 96
sever@@ 96
sto@@ 96
Nov@@ 96
ego 96
mers 96
yness 96
tray 96
Sleep 96
100,000 96
blender 96
anatomy 96
aha 96
teachings 96
absorbing 96
nin@@ 96
yum 96
googled 96
shim@@ 96
Camden 96
holic 96
Half 96
brow@@ 96
seal 96
9am 96
slow@@ 96
MIT 96
firends 96
Rakugo 96
english@@ 96
SD 96
Huntington 96
Haru 96
Masa 96
ader 96
decayed 96
pursued 96
ht@@ 96
Consul@@ 96
snowball 96
underestimate 96
Meet 96
skater 96
dial@@ 96
Heroes 96
GF 96
business@@ 96
pup@@ 96
Spa 96
Enoshima 96
Jam@@ 96
ills 96
leaked 96
animes 96
hn 96
schooling 96
NT@@ 96
Brother 96
PDF 96
proceeded 96
penetr@@ 96
01@@ 96
voluntarily 96
monks 96
Dy@@ 96
Dic@@ 96
analysed 96
Lantern 96
assertion 96
optimal 96
ury 96
negligence 96
adequately 96
waterfalls 96
Tag@@ 96
traces 96
azu 96
profiles 96
swimmers 96
nieces 96
squares 96
Carly 96
educates 96
2009/@@ 96
SHOW 95
OL@@ 95
forword 95
compe@@ 95
tops 95
ACE 95
ament 95
bore 95
tened 95
Edinburgh 95
aft 95
Lec@@ 95
Concert 95
requi@@ 95
Insurance 95
curr@@ 95
rd 95
rally 95
smu@@ 95
Gay 95
lled 95
tracked 95
realities 95
Heavy 95
spin 95
centered 95
acceler@@ 95
perf@@ 95
cracked 95
width 95
ajima 95
drawer 95
bro 95
protagonists 95
ture@@ 95
Cancer 95
soaring 95
oms 95
wn@@ 95
Suzuki 95
poets 95
Software 95
Chrome 95
glo@@ 95
poisoning 95
budd@@ 95
inous 95
weary 95
Cos@@ 95
Kagawa 95
XX@@ 95
arch@@ 95
2days 95
Matsumoto 95
gang@@ 95
extending 95
fishermen 95
swept 95
Face 95
Ren 95
cise 95
Technologies 95
durable 95
offs 95
screen@@ 95
wonderland 95
opia 95
Yor@@ 95
touring 95
dominate 95
Dreams 95
atta 95
Base 95
diversified 95
Devil 95
trails 95
clever@@ 95
juvenile 95
methodology 95
Malta 95
acity 95
unattractive 95
patriotism 95
Flower 95
persi@@ 95
clover 95
crashing 95
Detroit 95
Call 95
Has 95
hei 95
Picture 95
amplifier 95
Gram@@ 95
tras@@ 95
transmission 95
Parliament 95
youngster 95
Fox@@ 95
Forrest 95
more@@ 95
GE 94
VER@@ 94
INE 94
enqu@@ 94
HELP 94
own@@ 94
fax 94
1945 94
wee 94
Zu@@ 94
usal 94
Caroline 94
lame 94
dra 94
midday 94
widen 94
carefree 94
itely 94
Aug@@ 94
sow 94
Letter 94
23th 94
sig@@ 94
stent 94
compar@@ 94
suite 94
reccom@@ 94
retri@@ 94
Hama@@ 94
commodity 94
Brain 94
birthrate 94
mechanic 94
anemia 94
particle 94
mission@@ 94
forgiveness 94
yang 94
Stanley 94
carbon@@ 94
Cristina 94
bites 94
SL@@ 94
ium 94
inger 94
historically 94
Try 94
mac 94
Problem 94
Eng 94
1974 94
shanghai 94
blonde 94
Firefox 94
Point 94
shrimps 94
wrapping 94
bol 94
carr@@ 94
Watson 94
Ishi@@ 94
lever 94
Mount 94
corrupt 94
Liberty 94
waitresses 94
heroic 94
Risk 94
arcade 94
chang 94
inequality 94
Give 94
Gyoza 94
casts 94
forieg@@ 94
skydiving 94
tick@@ 94
premiere 94
TSU@@ 94
able@@ 94
ias 94
essed 94
beacause 94
83 94
domitory 94
pickpockets 94
Zh@@ 94
cheeks 94
lavender 94
Ale@@ 94
spark@@ 94
assisting 94
Tian 94
compares 94
ik@@ 94
Shu 94
euro 94
modification 94
Newspaper 94
satur@@ 94
organism 94
Electronic 94
Spencer 94
47@@ 94
execution 94
numb 94
Karen 94
Sheep 94
eradicate 94
enhances 94
travel@@ 94
glaciers 94
Morgan 94
curricular 94
ts/@@ 94
info@@ 94
CLO@@ 93
infor@@ 93
deliberately 93
ett 93
costum@@ 93
proudly 93
wires 93
embarr@@ 93
sers 93
correspond 93
cone 93
bottled 93
eachother 93
King@@ 93
silk 93
hob@@ 93
convin@@ 93
screens 93
Joseph 93
08@@ 93
winners 93
Dom@@ 93
copying 93
jit@@ 93
propor@@ 93
FA@@ 93
thre@@ 93
expl@@ 93
proofread 93
pas 93
Lin 93
Kyle 93
ists 93
AKI 93
bent 93
Oden 93
Eur@@ 93
illes 93
static 93
chir@@ 93
creators 93
Khan 93
ram 93
asha 93
appealed 93
1982 93
Movies 93
overwork 93
eck 93
cles 93
dom 93
lan 93
Chri@@ 93
pies 93
Fine 93
Gun@@ 93
brew 93
gro 93
Small 93
dvd 93
tta 93
jealousy 93
mp 93
organizers 93
Au 93
550 93
ATA 93
Pre 93
ometer 93
ambiance 93
recreation 93
measurement 93
prepaid 93
AV 93
adolescence 93
panting 93
Tem@@ 93
integration 93
CPA 93
processor 93
fork 93
minimized 93
Writer 93
downsides 93
cookery 93
eep 93
moose 93
Turin 93
PEOPLE 92
worth@@ 92
HER@@ 92
dissap@@ 92
fisherman 92
10/@@ 92
Wuthering 92
identical 92
lunchtime 92
True 92
yourselves 92
Maths 92
lungs 92
regime 92
recommends 92
enjoy@@ 92
excit@@ 92
Finally 92
Disease 92
minu@@ 92
oppos@@ 92
Everybody 92
professions 92
rod 92
vibrant 92
scal@@ 92
wait@@ 92
Play@@ 92
nearer 92
seem@@ 92
Sab@@ 92
aves 92
TER 92
depen@@ 92
Hill 92
NA 92
exceeded 92
Aires 92
pathetic 92
Doll@@ 92
lap@@ 92
neutral 92
adviser 92
plese 92
chubby 92
iKnow 92
rethink 92
tar 92
diag@@ 92
59@@ 92
linguistic 92
liberal 92
Pusan 92
americ@@ 92
erase 92
goddess 92
remarkably 92
dinosaurs 92
dily 92
ASHI 92
Sheldon 92
boast 92
Beauty 92
patrol 92
famil@@ 92
broiled 92
Force 92
OS@@ 92
LANG 92
Left 92
Asada 92
Congress 92
accelerate 92
poetic 92
fee@@ 92
coordinate 92
Europeans 92
Yan@@ 92
gourmet 92
utilizing 92
atri@@ 92
Honolulu 92
servic@@ 92
encounters 92
yn 92
freestyle 92
immer@@ 92
needle 92
div@@ 92
spit 92
Ishikawa 92
whiskey 92
Era 92
speechless 92
Jorge 92
nighttime 92
tripped 92
abundance 92
swiftly 92
arising 92
87 92
Clu@@ 92
hone 92
600@@ 92
Richardson 92
platforms 92
boasts 92
disguise 92
peter 92
grazing 92
Gorbachev 92
dispense 92
Lara 92
coupled 92
Phelps 92
depleting 92
Forsberg 92
°C 92
WH@@ 91
Lucia 91
low@@ 91
sharks 91
unfortunatelly 91
perfec@@ 91
assertive 91
illumination 91
Yas@@ 91
invites 91
companions 91
zers 91
prints 91
mour@@ 91
noting 91
box@@ 91
reali@@ 91
entre@@ 91
conserve 91
attends 91
dishwasher 91
Defense 91
eno@@ 91
chu@@ 91
bla@@ 91
jap@@ 91
popped 91
jum@@ 91
histories 91
won@@ 91
spiri@@ 91
Bush 91
100000 91
user@@ 91
eed 91
Maz@@ 91
BBS 91
Yeah 91
scol@@ 91
word@@ 91
stuff@@ 91
timid 91
forge@@ 91
Kimchi 91
swimsuit 91
stretched 91
dismissed 91
Broadway 91
rele@@ 91
Kendo 91
caption 91
pastor 91
bile 91
recharge 91
Hot@@ 91
Piazza 91
fatter 91
phil@@ 91
altitude 91
constitu@@ 91
bonito 91
pharmacist 91
rainfall 91
cheeky 91
Julie 91
amoto 91
citation 91
ea 91
liters 91
freaking 91
ole@@ 91
warrior 91
seas@@ 91
ministry 91
sweetness 91
KD 91
ater@@ 91
persist 91
Honey 91
MV 91
therapist 91
spacecraft 91
len 91
penguin 91
progression 91
anesthesia 91
witches 91
legislation 91
Tang@@ 91
awe 91
atures 91
Nutrition 91
offences 91
marginal 91
demonstrates 91
Taiyaki 91
MR@@ 91
employing 91
innovate 91
TDL 91
hikes 91
underdeveloped 91
OECD 91
.u@@ 91
Direction 91
Hemingway 90
sincer@@ 90
Oli@@ 90
Carol 90
arg@@ 90
chooses 90
1234567 90
fol@@ 90
spl@@ 90
dislikes 90
fications 90
Are@@ 90
signing 90
tness 90
eds 90
59 90
unchanged 90
instruc@@ 90
overcame 90
wea@@ 90
erased 90
defect 90
europ@@ 90
Romans 90
Houston 90
Nu@@ 90
Figh@@ 90
thogh 90
dug 90
pronoun@@ 90
jp 90
sb 90
april 90
sociology 90
absor@@ 90
foe 90
Control 90
Some@@ 90
ddle 90
vessels 90
CS 90
carelessly 90
ounder 90
mackerel 90
bara 90
Sky@@ 90
Katakana 90
spontaneously 90
gged 90
honorific 90
ounce 90
pencils 90
31@@ 90
Tainan 90
uku 90
assemble 90
talk@@ 90
downloading 90
settling 90
riot 90
Traditional 90
oyster 90
binding 90
respectable 90
panicked 90
uring 90
Sauce 90
Commer@@ 90
plat@@ 90
modeling 90
IE 90
greasy 90
concep@@ 90
osa 90
destructive 90
alco@@ 90
tag@@ 90
deb@@ 90
Canadians 90
owling 90
dictate 90
sex@@ 90
Lincoln 90
AB 90
Ss 90
appointments 90
yakiniku 90
incur 90
hereditary 90
punctuality 90
logging 90
conscientious 90
undertake 90
Protection 90
IBM 90
revolution@@ 90
Eyre 90
Elle 90
mos 90
tagged 90
Trieste 90
Cristiano 90
1968 90
realizes 90
taxpayers 90
wheelchairs 90
Associate 90
Andalucia 90
2008/0@@ 90
.gov@@ 90
.A. 90
funfair 90
ASH@@ 89
ION@@ 89
sday 89
nex@@ 89
Warsaw 89
Dinner 89
Fox 89
Ele@@ 89
ED@@ 89
Tit@@ 89
Show@@ 89
madam 89
ashes 89
observations 89
fantas@@ 89
tapes 89
vious 89
proble@@ 89
poly@@ 89
isolation 89
outh 89
afri@@ 89
ologies 89
underwater 89
design@@ 89
adverts 89
propaganda 89
mount 89
log@@ 89
awoke 89
hour@@ 89
gra@@ 89
betray 89
abdominal 89
Event 89
fulfillment 89
wrestler 89
kura 89
disciplines 89
explor@@ 89
Yep 89
ax 89
Off 89
Welcome 89
tap@@ 89
Walk 89
Voice 89
Start 89
Indians 89
centigrade 89
bases 89
sneeze 89
injure 89
moive 89
fertilizer 89
obedient 89
weeds 89
subordinates 89
christian 89
caffeine 89
share@@ 89
9pm 89
gall@@ 89
Shimane 89
conceal 89
mind@@ 89
Ruby 89
pragmatic 89
fos@@ 89
goose 89
Subway 89
matsu@@ 89
peninsula 89
Barack 89
insert 89
bree@@ 89
coc@@ 89
sal 89
blin@@ 89
73 89
memorization 89
dashed 89
catastrophes 89
easygoing 89
wellness 89
hub 89
provider 89
empa@@ 89
indu@@ 89
omelet 89
gos@@ 89
alarming 89
30minutes 89
tacos 89
divides 89
Wak@@ 89
coastal 89
instrumental 89
farms 89
questionable 89
instructed 89
swelling 89
theoretically 89
Copperfield 89
collabor@@ 89
risen 89
pacemaker 89
public@@ 89
cohesion 89
credible 89
undesirable 89
OTHER 88
Army 88
NEVER 88
ued 88
ven 88
cht 88
Gil@@ 88
control@@ 88
Ana 88
abor@@ 88
anity 88
bizarre 88
persistent 88
Utada 88
sati@@ 88
boutiques 88
altough 88
flee 88
Develop@@ 88
Sasha 88
STAR 88
comeback 88
ei 88
british 88
semin@@ 88
earphones 88
53 88
Py@@ 88
cord 88
Mongolia 88
communic@@ 88
koshi 88
diminishing 88
Bridget 88
ww 88
trembling 88
3G 88
onigiri 88
Burger 88
Aso 88
dro@@ 88
gf 88
dal 88
listing 88
imasen 88
surviving 88
texted 88
HOT 88
rigorous 88
stine 88
Ever@@ 88
hhhhh 88
Gener@@ 88
otic 88
89 88
render 88
Pur@@ 88
68 88
BF 88
rab@@ 88
uri 88
spir@@ 88
SUSHI 88
moto 88
Sakamoto 88
Tun@@ 88
entertainer 88
revol@@ 88
udy 88
TV@@ 88
Pope 88
Gray 88
illustrator 88
biologist 88
82 88
updates 88
bunny 88
carved 88
canal 88
Slovakia 88
usable 88
muddy 88
Prin@@ 88
EV 88
acked 88
ld@@ 88
sinking 88
Laos 88
asserts 88
pleasurable 88
ducks 88
Gran@@ 88
Casino 88
Venezuela 88
Ltd 88
electromagnetic 88
urgency 88
Woody 88
Monte@@ 88
2004@@ 88
a-@@ 88
http://www.gen-4.org/Technology/systems/@@ 88
CON@@ 87
LIVE 87
Tommy 87
peac@@ 87
FROM 87
ELL 87
SUN@@ 87
CK 87
cting 87
Diana 87
Cel@@ 87
hee 87
secre@@ 87
22th 87
tanned 87
tail@@ 87
effected 87
volley 87
frighten 87
cent@@ 87
wer@@ 87
Grand@@ 87
ila 87
fit@@ 87
spo@@ 87
mons 87
strai@@ 87
superb 87
agrees 87
tary 87
alistic 87
featuring 87
curing 87
olf 87
graph@@ 87
stand@@ 87
circus 87
granting 87
clubbing 87
domain 87
0000@@ 87
kish 87
11pm 87
ott@@ 87
superiors 87
sunburned 87
coloring 87
Piano 87
vowel 87
panor@@ 87
incorrectly 87
telescope 87
phew 87
tart 87
perm 87
olis 87
commerci@@ 87
rotten 87
moody 87
parting 87
Clar@@ 87
semi@@ 87
mills 87
ranks 87
Learn 87
ambience 87
quali@@ 87
aforementioned 87
Haruhi 87
prejudices 87
kendo 87
Contin@@ 87
civilized 87
insists 87
ellation 87
scandal 87
past@@ 87
drip 87
racist 87
wang 87
qualifying 87
incompetent 87
par 87
acut@@ 87
Akira 87
wasabi 87
Kid@@ 87
industrious 87
Yamaguchi 87
observatory 87
objection 87
recital 87
requiring 87
deep@@ 87
paradigm 87
Soul 87
mentor 87
formally 87
ecosystems 87
Christopher 87
greens 87
buds 87
ted@@ 87
bothersome 87
condo 87
Rye 87
ruling 87
nish 87
prospective 87
vegetarians 87
distin@@ 87
exhibited 87
ools 87
regained 87
anxi@@ 87
accounted 87
Okinawan 87
Fair 87
scholarships 87
YU@@ 87
shit@@ 87
tized 87
intensi@@ 87
apparel 87
Prom@@ 87
seize 87
puppies 87
continual 87
Joy 87
subsequent 87
ulu 87
taro 87
Qui@@ 87
occupations 87
eous 87
Analysis 87
Forbidden 87
generator 87
Yin 87
corrosion 87
Thang 87
surgeries 87
NUS 87
inhale 87
Surveillance 87
OVER 86
Painting 86
unk@@ 86
Catalan 86
comb@@ 86
folder 86
ree 86
Back@@ 86
dable 86
sweaters 86
advi@@ 86
advisable 86
devoting 86
sional 86
63 86
aman 86
robber 86
hygienic 86
shouts 86
thly 86
excluding 86
Luc@@ 86
predic@@ 86
Patricia 86
widow 86
trolley 86
moist 86
wid@@ 86
brigh@@ 86
mans 86
holi@@ 86
prototypes 86
educative 86
grad@@ 86
Hunter 86
ANO 86
reservations 86
nerd 86
strang@@ 86
bald 86
Ath@@ 86
JPY 86
healthily 86
atu 86
Qi@@ 86
olympic 86
periodically 86
resembles 86
minus 86
Recently 86
presidents 86
intact 86
backing 86
daugh@@ 86
rapp@@ 86
digit@@ 86
Aer@@ 86
polar 86
Les 86
determines 86
charactor 86
rs 86
Christchurch 86
premature 86
Marco 86
imposing 86
titis 86
Qatar 86
Bun@@ 86
destined 86
suspension 86
melancholy 86
rider 86
guarantees 86
varies 86
uncanny 86
notification 86
buri 86
imaging 86
Jas@@ 86
migr@@ 86
pitiful 86
ility 86
ello 86
ially 86
Kri@@ 86
YY@@ 86
vigorous 86
Berlusconi 86
settlement 86
toughest 86
Another 86
Kuala 86
vicinity 86
2pm 86
exploration 86
grandchild 86
shan 86
TT@@ 86
caramel 86
perpe@@ 86
supplementary 86
Napoli 86
tedly 86
borrowing 86
juku 86
31th 86
Quest 86
Pilates 86
Adv@@ 86
had@@ 86
mang@@ 86
test@@ 86
artworks 86
Kids 86
liability 86
whipped 86
Shou@@ 86
irri@@ 86
orbit 86
Jesse 86
Internship 86
Midsummer 86
pts 86
slapped 86
reminder 86
courtyard 86
Canton 86
Hugo 86
Bog@@ 86
stati@@ 86
barking 86
globalisation 86
ACU 86
Rasheed 86
Lublin 86
.asp?@@ 86
bioethic@@ 86
.com.libproxy1.nus.edu.sg/@@ 86
KNOW 85
IF 85
IGHT 85
I&apos;M 85
osen 85
ointed 85
EVERY@@ 85
prise 85
adjectives 85
detectives 85
extr@@ 85
equi@@ 85
identi@@ 85
confuses 85
wai@@ 85
depended 85
flat@@ 85
rob 85
ork 85
awa@@ 85
chai 85
shabby 85
temp@@ 85
anticipate 85
tt 85
trunk 85
const@@ 85
packet 85
Christ@@ 85
plu@@ 85
104 85
humili@@ 85
merchants 85
substitu@@ 85
their@@ 85
gol@@ 85
polished 85
heartbeat 85
induce 85
Cir@@ 85
text@@ 85
Ethics 85
ms@@ 85
Kana 85
Ja@@ 85
associ@@ 85
Gogh 85
blade 85
Ts 85
accomplishing 85
Slovenia 85
vowels 85
Court 85
asive 85
Kok@@ 85
pim@@ 85
gaga 85
lifted 85
Kun@@ 85
GI 85
Ara@@ 85
surname 85
Costco 85
midst 85
enza 85
crop 85
yeon 85
treadmill 85
videogames 85
sause 85
brushes 85
ensive 85
Mozart 85
cocktails 85
flowed 85
pati@@ 85
blankets 85
valentine 85
hhhh@@ 85
cosplay 85
sandy 85
biome@@ 85
Mart 85
teddy 85
tam@@ 85
CN@@ 85
Yao 85
Eiffel 85
cla@@ 85
daylight 85
mortality 85
operational 85
Equ@@ 85
Leader 85
Hallows 85
Oper@@ 85
Black@@ 85
Chain 85
palms 85
devotion 85
regulated 85
Takeshi 85
eses 85
Zen 85
advises 85
idleness 85
balancing 85
soo@@ 85
Toy@@ 85
sacred 85
exterior 85
discovers 85
dynamics 85
pops 85
safari 85
Wide 85
Bourne 85
fertili@@ 85
get@@ 85
specification 85
interference 85
proponents 85
-and-@@ 85
MR 84
ARD 84
U2 84
agility 84
announ@@ 84
AGE 84
Fuk@@ 84
sea@@ 84
vement 84
sitter 84
Adriana 84
psychologically 84
satis@@ 84
lowered 84
ü@@ 84
poisonous 84
combines 84
Ow@@ 84
tick 84
publicity 84
Pot@@ 84
successive 84
PA 84
burdens 84
ause 84
brakes 84
esti@@ 84
shel@@ 84
alleys 84
happen@@ 84
remeber 84
ministers 84
imo 84
distractions 84
fraternity 84
inspires 84
ayer 84
Memorial 84
parent@@ 84
obe@@ 84
Chongqing 84
part1 84
kyou 84
instructors 84
Tottori 84
itching 84
exploitation 84
Que@@ 84
html 84
Akita 84
tackling 84
blizzard 84
shortened 84
take@@ 84
mming 84
cocoa 84
Shyla 84
laz@@ 84
3th 84
Stop 84
chilling 84
shortest 84
gling 84
Leg@@ 84
AA 84
commenting 84
dial 84
aton 84
shold 84
jiang 84
neglecting 84
fraction 84
leftovers 84
fluctu@@ 84
carp 84
chilled 84
mortal 84
commun@@ 84
pizz@@ 84
Jeff@@ 84
preceding 84
HAN@@ 84
Deathly 84
supporter 84
webcam 84
omo 84
Demons 84
decay 84
ridden 84
Taormina 84
esi 84
impli@@ 84
Services 84
broad@@ 84
underlying 84
expire 84
Abbey 84
stems 84
shabu 84
puma 84
manuals 84
Kha@@ 84
surve@@ 84
Bulgaria 84
asan 84
arized 84
Plus 84
assin 84
glowing 84
subjected 84
ineffective 84
gospel 84
Gion 84
Gasol 84
YS 84
Kato 84
Chuck 84
revenues 84
automation 84
croissant 84
lei 84
Challenger 84
entails 84
Pyramids 84
ramps 84
Thuan 84
Ik 84
/index@@ 84
in_@@ 84
.com/news/@@ 84
docs/@@ 84
asia@@ 84
pensioners 84
Ted 83
misleading 83
sail 83
grou@@ 83
AIN 83
fitting 83
novice 83
cia 83
vase 83
Christie 83
Bo 83
Sue 83
downhill 83
inexperienced 83
collegues 83
Miserables 83
necess@@ 83
pear 83
Bec@@ 83
ology@@ 83
therap@@ 83
housekeeping 83
VO@@ 83
bulk 83
confirmation 83
materi@@ 83
Universe 83
ANT@@ 83
arduous 83
lord 83
sorting 83
uter@@ 83
Dam@@ 83
chall@@ 83
analy@@ 83
coconut 83
Na 83
categorized 83
rhy@@ 83
ooh 83
3GS 83
Wol@@ 83
heartily 83
mimic 83
havent 83
notable 83
Odawara 83
Fight 83
blogging 83
Word@@ 83
crun@@ 83
gothic 83
strip 83
diets 83
restraunt 83
icky 83
captions 83
exaggeration 83
yor@@ 83
Austen 83
Mind 83
video@@ 83
importing 83
kilos 83
twist 83
ubiquitous 83
5years 83
hula 83
consol@@ 83
favors 83
red@@ 83
emer@@ 83
ante@@ 83
Muse 83
yrs 83
lighten 83
ci 83
dividing 83
UNESCO 83
Others 83
disputes 83
drying 83
fined 83
60s 83
Oh@@ 83
gre 83
fusion 83
discriminate 83
frequ@@ 83
inventory 83
Ame@@ 83
ideally 83
Employment 83
toddler 83
mish@@ 83
caterpillar 83
envirom@@ 83
bai 83
dwellers 83
Perfume 83
6pm 83
incorporate 83
poker 83
dip 83
feasibility 83
vings 83
recruited 83
Superman 83
legendary 83
roaming 83
pumps 83
Luci@@ 83
passports 83
encyclopedia 83
ADA 83
Penicillin 83
Eurasian 83
search@@ 83
ist@@ 83
pregnancies 83
1-@@ 83
es-@@ 83
THERE 82
THINK 82
HIM 82
clown 82
portraits 82
buyers 82
replying 82
micro 82
whichever 82
FRIEND 82
rel 82
doctoral 82
ounding 82
TA@@ 82
eal@@ 82
calculator 82
ê@@ 82
gest 82
mista@@ 82
eur@@ 82
excite 82
provi@@ 82
intri@@ 82
wart 82
sham@@ 82
multimedia 82
gut 82
mies 82
lif@@ 82
ension 82
Luis 82
Sep@@ 82
sir@@ 82
penny 82
cockroaches 82
gram@@ 82
Belarus 82
Lon@@ 82
agr@@ 82
Clin@@ 82
pepole 82
otechnology 82
Uhhh 82
comment@@ 82
android 82
Chiang 82
yoshi 82
Never@@ 82
Mercedes 82
Fore@@ 82
Milky 82
Takao 82
igo 82
Tru@@ 82
elev@@ 82
sane 82
bok 82
6000 82
Chinatown 82
ooooo 82
vich 82
Daisuke 82
Q1 82
stung 82
Hok@@ 82
clam 82
digging 82
feathers 82
5days 82
Tour 82
glanced 82
omb 82
verted 82
melodies 82
Book@@ 82
5pm 82
stimulation 82
Goal 82
shoots 82
superstitions 82
order@@ 82
lection 82
Lumpur 82
ingen 82
caves 82
Jack@@ 82
Alan 82
lav@@ 82
explosions 82
gun@@ 82
shinkansen 82
planetarium 82
Wu 82
pom@@ 82
elding 82
Kennedy 82
Nishi@@ 82
persuading 82
PO 82
broadband 82
villain 82
void 82
bt 82
attribu@@ 82
FF 82
treehouse 82
Libya 82
inability 82
chic@@ 82
agitated 82
hostile 82
Pel@@ 82
cognition 82
Knight 82
maids 82
Sure 82
But@@ 82
safe@@ 82
gan@@ 82
Bat@@ 82
distinguished 82
Pamplona 82
specialization 82
Lala 82
zar 82
Alexandra 82
303 82
Afro 82
Kabul 82
Kyiv 82
Hongdae 82
SEM 82
2006@@ 82
Genetic@@ 82
http://www.nature@@ 82
ing_@@ 82
&quot;- 82
vhtr@@ 82
...... 82
WORLD 81
malicious 81
dome 81
Really 81
alised 81
dele@@ 81
proposals 81
annoys 81
Mum 81
petition 81
closeness 81
ories 81
aped 81
tsm@@ 81
Katy 81
whisp@@ 81
appli@@ 81
atta@@ 81
angk@@ 81
Hikaru 81
tible 81
sweeping 81
sack 81
clearing 81
sco 81
Regi@@ 81
mix@@ 81
lotion 81
efully 81
sam 81
vendors 81
eiving 81
frag@@ 81
gover@@ 81
USJ 81
enduring 81
picky 81
orphan 81
reflex 81
innocence 81
buck 81
lian 81
yards 81
Hab@@ 81
superficial 81
Watanabe 81
physi@@ 81
3years 81
Russians 81
Hakata 81
hail 81
Tra@@ 81
Kazuki 81
Iam 81
apper 81
wii 81
1hour 81
playful 81
milli@@ 81
Showa 81
pollutants 81
motivates 81
accented 81
Made 81
breeding 81
exhaustion 81
Av@@ 81
analog 81
smelly 81
Gol@@ 81
MANGA 81
crude 81
pon 81
anor@@ 81
retailer 81
scratched 81
countdown 81
ellow@@ 81
infant 81
pig@@ 81
Del@@ 81
sla@@ 81
administrator 81
stinky 81
pesticides 81
Pitt 81
piles 81
igner 81
onom@@ 81
Jump 81
chocol@@ 81
reversed 81
multilingual 81
Lee@@ 81
volcanic 81
Stu@@ 81
slowing 81
Wall@@ 81
Intermediate 81
ning@@ 81
Box 81
Manila 81
eru 81
constr@@ 81
Kent@@ 81
questionnaires 81
NC@@ 81
penalties 81
Kid 81
hesitant 81
vulgar 81
kidney 81
rever@@ 81
Lou@@ 81
conven@@ 81
Pass@@ 81
federal 81
payments 81
Francis 81
gov@@ 81
workouts 81
disagrees 81
cicada 81
Degree 81
purpos@@ 81
112 81
disrupt 81
E.M. 81
About@@ 81
marsala 81
VER 80
IR 80
EA 80
lux@@ 80
NI@@ 80
iring 80
Rafael 80
jour@@ 80
fai@@ 80
eva 80
diplom@@ 80
vertical 80
stylist 80
endly 80
condition@@ 80
Lan@@ 80
arities 80
Vic@@ 80
ciation 80
intrud@@ 80
Geography 80
shoppers 80
tour@@ 80
Maj@@ 80
api@@ 80
Folk 80
Concer@@ 80
nineteenth 80
emergencies 80
Cab@@ 80
Spr@@ 80
utterly 80
LL@@ 80
shivering 80
feather 80
spur 80
mathematician 80
iny 80
strips 80
hol 80
submitting 80
sleepless 80
rip 80
Not@@ 80
liberty 80
isnt 80
rotate 80
agoni@@ 80
nominated 80
kyu@@ 80
eligible 80
breakdown 80
peaches 80
black@@ 80
edges 80
Tourism 80
SEN@@ 80
Non@@ 80
apparatus 80
bai@@ 80
World@@ 80
delic@@ 80
beautician 80
Tofu 80
cies 80
Luke 80
disconnect 80
Eu@@ 80
Law@@ 80
enligh@@ 80
embarrassment 80
akuji 80
15000 80
philosophical 80
Macau 80
hei@@ 80
intends 80
copy@@ 80
veter@@ 80
evers 80
dozen 80
emoticons 80
hrs 80
Yun@@ 80
sus 80
adored 80
izakaya 80
Monroe 80
mail@@ 80
adhere 80
greatness 80
enth@@ 80
1983 80
geograph@@ 80
eeing 80
greenery 80
Franklin 80
Brandon 80
2005@@ 80
LDP 80
overloaded 80
bow@@ 80
scr@@ 80
float 80
hosts 80
ophone 80
ults 80
URA 80
pedi@@ 80
vill@@ 80
buddies 80
employ@@ 80
disturbance 80
Fit@@ 80
Hogwarts 80
Hil@@ 80
reflecting 80
alongside 80
froze 80
yester@@ 80
euthan@@ 80
vo 80
El 80
goat 80
Everything 80
Dum@@ 80
HIV 80
cyber 80
recre@@ 80
dispos@@ 80
Pearl 80
kayaking 80
inhabited 80
explicit 80
subtitled 80
Ipad 80
Caucasian 80
429@@ 80
n.@@ 80
http://www.b@@ 80
8) 80
http://www.n@@ 80
nature@@ 80
--@@ 80
Toluca 80
Michenstain 80
floorball 80
Gorky 80
Córdoba 80
htc 80
Timisoara 80
animatronics 80
Lora 80
Málaga 80
golem 80
LOZAH 80
án 80
Noman 80
Amador 80
Paxton 80
Djurshol@@ 80
kabaa 80
á 80
Casar 80
Kadeer 80
š@@ 80
FAVOURITE 80
CLP 80
Linings 80
Cacharr@@ 80
Kinta 80
Kunta 80
Historico 80
Clausthal 80
Viña 80
Vianne 80
Farrell 80
Dempsey 80
NCS 80
GMC 80
Gorbachov 80
Luhr 80
Baluchistan 80
Groban 80
AC-12 80
THE@@ 79
DIS@@ 79
HAS 79
behaviours 79
FIN@@ 79
trainings 79
Cars 79
occupies 79
Sav@@ 79
misses 79
liest 79
proo@@ 79
swore 79
Bot@@ 79
accordance 79
WAY 79
waterproof 79
YES 79
well@@ 79
thetic 79
urant 79
eved 79
Fred 79
event@@ 79
battle@@ 79
Bras@@ 79
loos@@ 79
activist 79
Page 79
functioning 79
vent@@ 79
offend 79
Liberal 79
mashed 79
Pir@@ 79
spain 79
enting 79
eyelashes 79
porridge 79
thunder@@ 79
torn 79
Safari 79
Iron 79
sprouts 79
expired 79
Tamil 79
10am 79
persistence 79
gai@@ 79
glish 79
nutrients 79
pedal 79
Sister 79
stin@@ 79
Got@@ 79
bias 79
Graduate 79
orn 79
premises 79
aky 79
assign 79
dimensional 79
collaborative 79
killers 79
iga 79
applicant 79
ctive 79
fingerprint 79
cyber@@ 79
streaming 79
kable 79
invoice 79
Jen@@ 79
venues 79
donations 79
decl@@ 79
revolving 79
nav@@ 79
skipping 79
atter@@ 79
Check 79
metabolism 79
consistency 79
taboo 79
Goo@@ 79
Duck 79
tus 79
cali@@ 79
culinary 79
Ugly 79
anta 79
unknowingly 79
ancing 79
Kiy@@ 79
pessi@@ 79
profoundly 79
selfishness 79
ango 79
haste 79
Scottish 79
investig@@ 79
climax 79
dumping 79
Damon 79
Pride 79
Private 79
sparked 79
recovers 79
deceive 79
diplomatic 79
flea 79
Jonathan 79
Benjamin 79
kom@@ 79
Cola 79
envir@@ 79
Kink@@ 79
Alaska 79
Ds 79
compliments 79
Somalia 79
circuits 79
likelihood 79
lorry 79
revolves 79
s.html 79
THEY 78
showers 78
06@@ 78
BY 78
logy 78
industri@@ 78
KY 78
tanks 78
SA 78
anced 78
ration 78
stupi@@ 78
Carter 78
interrupting 78
swiming 78
Kimura 78
try@@ 78
parag@@ 78
ington 78
amazon 78
hr 78
asion 78
flashed 78
excep@@ 78
cup@@ 78
LS 78
anal@@ 78
funnier 78
rela@@ 78
Tourist 78
scholar 78
roc@@ 78
neighbouring 78
cult 78
monitors 78
aders 78
eth@@ 78
mam@@ 78
puni@@ 78
regretting 78
sory 78
Dave 78
expects 78
ules 78
Century 78
recei@@ 78
pinch 78
surrounds 78
tionally 78
acious 78
84 78
confectionery 78
narration 78
tomorow 78
embassy 78
Gunma 78
AWA 78
urt 78
Busy 78
tum 78
caster 78
edu@@ 78
Sumika 78
dem@@ 78
TOYOTA 78
refriger@@ 78
sportsmanship 78
mug 78
chic 78
soju 78
landlady 78
Smo@@ 78
uniqu@@ 78
Sent@@ 78
cc 78
brunch 78
viet@@ 78
matured 78
sman 78
Masa@@ 78
tear@@ 78
omes 78
hashi 78
constructive 78
wn 78
fest 78
vine 78
Dragons 78
resemble 78
versi@@ 78
shortages 78
Mini@@ 78
zh@@ 78
kel 78
crises 78
cz 78
shifted 78
20110@@ 78
swans 78
adolescents 78
seeks 78
submerged 78
CSI 78
Wei@@ 78
asser@@ 78
ffed 78
extracurricular 78
attributes 78
subjective 78
Short 78
Order 78
disin@@ 78
wrecked 78
sley 78
porch 78
sensors 78
leggings 78
Xbox 78
Electri@@ 78
gus 78
swinging 78
pronoun 78
lotus 78
publisher 78
darling 78
coma 78
vaccines 78
arose 78
Dynasty 78
rup@@ 78
booklets 78
Tianjin 78
norms 78
imitation 78
cracker 78
istic 78
VI 78
drowning 78
selective 78
Iranian 78
Disaster 78
chap@@ 78
broadcasts 78
spot@@ 78
restrain 78
harvesting 78
BM@@ 78
spotlight 78
rah 78
transporting 78
Baltic 78
commercialization 78
pesos 78
stiffness 78
Wordsworth 78
Approach 78
Healthcare 78
droughts 78
security@@ 78
of-@@ 78
Hsien 78
.do@@ 78
.sg/@@ 78
CNG 78
Clayton 78
Roadmap 78
MSRs 78
Eschede 78
BEEN 77
advert 77
IES 77
AIDS 77
shyness 77
Austrian 77
ointment 77
devils 77
Oni@@ 77
immedi@@ 77
suprise 77
competitor 77
believ@@ 77
movi@@ 77
diced 77
interes@@ 77
individuality 77
antiques 77
ember 77
ouri@@ 77
osphere 77
vin@@ 77
wol@@ 77
sleeved 77
mar 77
zzi 77
onwards 77
dot 77
portal 77
beast 77
Duty 77
refle@@ 77
RY 77
dense 77
pd@@ 77
oya 77
workload 77
foreig@@ 77
patio 77
frineds 77
hanami 77
criterion 77
resumes 77
moisture 77
xoxo 77
legends 77
albeit 77
Hayabusa 77
Kas@@ 77
Talking 77
Sales 77
cancers 77
igners 77
kimonos 77
hoku 77
speach 77
assessing 77
registering 77
tummy 77
microscope 77
tribu@@ 77
zumi 77
MB 77
equation 77
bla 77
elections 77
Using 77
ywood 77
1940 77
uss 77
PV 77
oval 77
Issue 77
Sel@@ 77
coolest 77
revising 77
citizenship 77
mattress 77
applause 77
FU@@ 77
Evangelion 77
Wed 77
cation@@ 77
tia 77
herb 77
kilometre 77
defferent 77
nei@@ 77
clou@@ 77
Lewis 77
AKE 77
noti@@ 77
adu@@ 77
apri@@ 77
many@@ 77
accident@@ 77
aggressively 77
confined 77
northeast 77
southwest 77
Race 77
inos 77
HS 77
bangs 77
batter 77
ditch 77
watermelons 77
yoghurt 77
glorious 77
feel@@ 77
Cho@@ 77
Kichi@@ 77
Tsuk@@ 77
prep 77
rape 77
elsewhere 77
provokes 77
enrolling 77
amming 77
piracy 77
airlines 77
charitable 77
superhero 77
manipulation 77
phal@@ 77
Islamic 77
olden 77
emits 77
retention 77
bea 77
Solar 77
dants 77
4- 77
TC 76
OP@@ 76
MORE 76
I&apos;@@ 76
TTER 76
WN 76
bossy 76
HOME 76
Wen@@ 76
POP 76
Tribu@@ 76
begged 76
chri@@ 76
PI@@ 76
ardi@@ 76
sunbathing 76
ffer 76
unfriendly 76
TOO 76
Manuel 76
ICA 76
sponsor 76
queries 76
1973 76
Bene@@ 76
wet@@ 76
Rosa 76
tee@@ 76
magaz@@ 76
renovation 76
eks 76
technicians 76
struc@@ 76
Date 76
presently 76
hun 76
butt 76
knocking 76
Something 76
accessory 76
exploding 76
Cro@@ 76
Hills 76
cutlet 76
Okay 76
Valent@@ 76
refuses 76
Ah@@ 76
assists 76
indication 76
pun 76
aned 76
teasing 76
Wish 76
drama@@ 76
Appli@@ 76
Type 76
rash 76
shallow 76
Us@@ 76
zz 76
workaholic 76
urine 76
Tarantino 76
gamble 76
Tsuyu 76
eater 76
atos 76
Jung 76
expres@@ 76
furry 76
Od@@ 76
Kazu 76
lt 76
whole@@ 76
reign 76
Battle 76
mont 76
enrichment 76
Anki 76
enders 76
picturesque 76
provisions 76
continents 76
mage 76
mainstream 76
induced 76
Captain 76
led@@ 76
siness 76
Rot@@ 76
trainees 76
Keio 76
prophet 76
iMac 76
celsius 76
contagious 76
toss 76
Lic@@ 76
escalator 76
hao 76
newbie 76
Collins 76
breach 76
curb 76
assa@@ 76
rupted 76
Without 76
Austin 76
Loc@@ 76
tou 76
mill 76
infin@@ 76
Bos@@ 76
muy 76
rustic 76
tack@@ 76
urgently 76
Destiny 76
reflective 76
Model 76
tidal 76
Andreas 76
Hand@@ 76
improper 76
blind@@ 76
Innovation 76
fluids 76
aler@@ 76
Reuters 76
mc@@ 76
assessments 76
categor@@ 76
Eff@@ 76
portfolio 76
heli@@ 76
Clean 76
creep 76
85@@ 76
Main@@ 76
ppo 76
pumped 76
suspects 76
exploiting 76
brotherhood 76
Runner 76
Budget 76
Techn@@ 76
equilibrium 76
betterment 76
wal 76
t-@@ 76
.c@@ 76
t=@@ 76
full/@@ 76
Loong 76
nuclear-@@ 76
EST 75
unenjoyable 75
omit 75
sewage 75
ANG@@ 75
nuc@@ 75
annoy@@ 75
barr@@ 75
los 75
Pos@@ 75
summing 75
hap@@ 75
zzy 75
RAD@@ 75
hateful 75
kilogram 75
sorted 75
inspector 75
influ@@ 75
sided 75
announcements 75
ggling 75
yeas 75
Area 75
baskets 75
twentieth 75
stren@@ 75
Oliver 75
pony 75
udge 75
snorkel 75
archit@@ 75
Classic 75
Studying 75
yy@@ 75
briefing 75
newcomers 75
craw@@ 75
Yamanashi 75
FY@@ 75
Dev@@ 75
arily 75
uu@@ 75
dire 75
Happiness 75
fear@@ 75
fictional 75
disney 75
fascinate 75
equip 75
Non 75
mari@@ 75
keywords 75
MI 75
Vampire 75
arouse 75
tiz@@ 75
offense 75
behavioral 75
CC 75
Soup 75
donuts 75
mae 75
oney 75
FA 75
Toefl 75
surfers 75
FFXIV 75
doesnt 75
provinces 75
Tango 75
Americ@@ 75
advent 75
Tama@@ 75
jian 75
WW2 75
inputs 75
Machine 75
bronze 75
Wan 75
Boo@@ 75
lily 75
irresponsible 75
introduc@@ 75
glue 75
Christina 75
HO 75
Daz@@ 75
glove 75
cud@@ 75
biz 75
toppings 75
protests 75
lum@@ 75
monia 75
vals 75
lect 75
SD@@ 75
Perry 75
divine 75
pulls 75
esome 75
gers 75
ameli@@ 75
nega@@ 75
nuisance 75
collision 75
evaluating 75
dys@@ 75
heath 75
Dal@@ 75
affir@@ 75
yakitori 75
discourse 75
pedag@@ 75
manipulate 75
bubbles 75
nightclubs 75
Premium 75
ERA 75
comprises 75
rem 75
deliver@@ 75
Wave 75
barn 75
compound 75
Wimbledon 75
irrigation 75
witnesses 75
Mindy 75
Mizoguchi 75
practitioners 75
initiated 75
rfid@@ 75
privac@@ 75
employability 75
WHAT 74
sportswear 74
motor@@ 74
rung 74
ethic 74
fluid 74
atelly 74
een 74
concentr@@ 74
Curi@@ 74
700@@ 74
iest 74
evidently 74
pearl 74
compri@@ 74
sten 74
Chen 74
rests 74
intent 74
tance 74
Leon 74
TOP 74
MO 74
nightmares 74
even@@ 74
devel@@ 74
diffr@@ 74
Going 74
oons 74
Fil@@ 74
recognizing 74
hoarse 74
Indiana 74
Dess@@ 74
emerg@@ 74
quakes 74
arra 74
kittens 74
waii 74
december 74
Yuri 74
kiwi 74
eruption 74
omelette 74
Major 74
Jud@@ 74
Save 74
vou@@ 74
here@@ 74
God@@ 74
sufficiency 74
blooms 74
refr@@ 74
beige 74
newborn 74
contend 74
Ayumi 74
While 74
9% 74
rc@@ 74
Hindi 74
champagne 74
150@@ 74
orig@@ 74
targeted 74
990 74
discarded 74
cherished 74
resumed 74
oriental 74
Email 74
uncles 74
everday 74
Bad@@ 74
moped 74
Sek@@ 74
tants 74
this@@ 74
tubes 74
ern 74
ilian 74
Serena 74
verge 74
energi@@ 74
ails 74
rying 74
forthcoming 74
usian 74
Catcher 74
chuck@@ 74
Hay@@ 74
Naoto 74
comical 74
hs 74
Kenji 74
Gab@@ 74
ference 74
obo 74
ospe@@ 74
Palermo 74
workbook 74
participates 74
possessions 74
ducing 74
bler 74
deser@@ 74
alli@@ 74
variable 74
Bureau 74
Chronic@@ 74
Ise 74
pacific 74
Shabu 74
contented 74
evelt 74
[...]
