e </w>
s </w>
t </w>
t h
d </w>
i n
y </w>
. </w>
a n
e r
o </w>
, </w>
I </w>
e n
o n
o r
o u
th e</w>
g </w>
a r
t o</w>
a </w>
in g</w>
l </w>
a p
o s
i s</w>
t i
an d</w>
e d</w>
er </w>
r e
f </w>
a l
in </w>
o m
a t</w>
l i
s t
ap os
apos ;
& apos;
c h
on </w>
o f</w>
e s</w>
i t</w>
a s</w>
v e</w>
or </w>
s h
m </w>
an </w>
l y</w>
m y</w>
o w
r i
w h
b e
u s
k </w>
h a
w i
en </w>
y ou
l e</w>
m e</w>
a t
a y</w>
l e
th e
th at</w>
a s
o o
o p
f or</w>
l d</w>
d i
q u
a c
v er
e l
o t
you </w>
e s
b u
th </w>
; </w>
w as</w>
i t
i r
s o</w>
i c
ha ve</w>
o t</w>
a b
p e
en t</w>
g h
u r
ow </w>
er e</w>
k e</w>
ar e</w>
ch </w>
- </w>
u n
t r
! </w>
c a
n e
ti on</w>
qu ot
l l</w>
& quot
&quot ;</w>
r o
th is</w>
m a
d ay</w>
bu t</w>
a l</w>
b e</w>
wi th</w>
ou ld</w>
ou t</w>
c om
&apos; t</w>
w e</w>
n &apos;t</w>
t s</w>
c e</w>
s e
&apos; s</w>
s i
a g
sh </w>
us e</w>
p </w>
d o</w>
w or
d e
ar </w>
c on
on e</w>
s u
s om
e x
or e</w>
a m
n ot</w>
r </w>
ver y</w>
a d
c an</w>
th er</w>
p l
c i
om </w>
t o
wi ll</w>
al l</w>
n </w>
t er</w>
p ro
an t</w>
n g
al ly</w>
f r
li sh</w>
? </w>
a y
be ca
h e</w>
the y</w>
d s</w>
op le</w>
v i
pe ople</w>
e e
s p
a m</w>
n ow</w>
E ng
o l
beca use</w>
ab out</w>
Eng lish</w>
ti me</w>
th in
li ke</w>
th ere</w>
ou n
s t</w>
s e</w>
f f
e v
t er
) </w>
gh t</w>
s a
an y</w>
i l
t a
fr om</w>
oo d</w>
t e
w </w>
k ing</w>
y e
u d
b y</w>
&apos; m</w>
m e
f or
wh en</w>
( </w>
i m
m ore</w>
ir </w>
f ri
i f</w>
c l
g e
u l
er s</w>
wh i
o ther</w>
p er
fri en
J ap
ha d</w>
ti on
p ar
ay s</w>
som e</w>
h i
a tion</w>
gh </w>
t ed</w>
st ud
an g
ur e</w>
f u
ou r</w>
a d</w>
p re
at e</w>
it y</w>
thin k</w>
l o
t ing</w>
g ood</w>
g r
w ant</w>
th ing</w>
sh e</w>
the ir</w>
j o
g o</w>
f in
us t</w>
wh at</w>
h e
os t</w>
w ould</w>
: </w>
h as</w>
d u
m any</w>
the m</w>
m o
m ent</w>
to day</w>
p u
d e</w>
en ts</w>
as t</w>
c </w>
g o
som e
or t</w>
whi ch</w>
you r</w>
f ir
a v
t y</w>
es e</w>
al so</w>
el l</w>
ab le</w>
a f
g s</w>
k now</w>
ou r
ap p
c ould</w>
on g</w>
en t
w e
w ay</w>
d er
re c
e c
h er</w>
b o
s pe
ar s</w>
ar d</w>
ou gh</w>
m i
d r
fir st</w>
v er</w>
w ri
k s</w>
wh o</w>
i </w>
u p</w>
oo k</w>
d o
ag e</w>
h is</w>
ge t</w>
ou s</w>
w ere</w>
t e</w>
wor k</w>
f e</w>
ar y</w>
be en</w>
&apos; </w>
t ri
ow n</w>
di ff
ev er</w>
oo l</w>
n ing</w>
m ost</w>
k ed</w>
m on
s o
h ow</w>
ic </w>
le ar
an ese</w>
a in</w>
in ter
s ch
ne w</w>
0 </w>
b i
en ce</w>
ic e</w>
re ally</w>
af ter</w>
en d</w>
p r
w ent</w>
sh ould</w>
st r
l ot</w>
oun d</w>
Jap anese</w>
j ust</w>
tr y</w>
tion s</w>
i d</w>
p or
frien ds</w>
h el
g i
it e</w>
fu l</w>
ver y
b </w>
c oun
w at
f e
m u
e very
di d</w>
u m
os e</w>
d ing</w>
as e</w>
on ly</w>
g re
tr an
u s</w>
st ar
t ure</w>
f i
h app
t t
ac e</w>
a u
es t</w>
ma ke</w>
th an</w>
sch ool</w>
s in
sp ort</w>
f am
o ld</w>
es s</w>
e l</w>
e m
d er</w>
v ing</w>
mu ch</w>
n i
li fe</w>
p le
i ly</w>
d ed</w>
s el
Jap an</w>
al l
h om
com e</w>
a ch
an ce</w>
ye ars</w>
m in
go ing</w>
w ays</w>
t al
f ore</w>
y ing</w>
w ee
w ell</w>
a in
s ti
n a
s c
b li
ac k</w>
g e</w>
s s</w>
se e</w>
n o</w>
p os
por t
w o</w>
be t
p h
e ly</w>
e st
p ri
l ast</w>
el l
pro b
p o
frien d</w>
to o</w>
n o
s on</w>
at ed</w>
pu bli
2 0
ta ke</w>
ou ght</w>
h ow
i g
re e</w>
how ever</w>
the se</w>
th en</w>
v es</w>
f ee
spe a
l a
hi m</w>
c re
ti ve</w>
k e
com m
publi c</w>
a ch</w>
ac t
an y
ye ar</w>
ne ed</w>
in e</w>
ev en</w>
ti m
diff er
hel p</w>
fee l</w>
m or
re ad
g u
al ways</w>
stud y</w>
op e</w>
ti es</w>
thin gs</w>
es s
b er</w>
g ot</w>
l ong</w>
u c
d ays</w>
th ough</w>
w a
lo ve</w>
b r
t wo</w>
v ed</w>
prob le
k es</w>
C h
en jo
sel f</w>
ch ang
e very</w>
e p
us ed</w>
c or
c es</w>
sa id</w>
k in
u ally</w>
c a</w>
be st</w>
s ed</w>
l oo
su ch</w>
f a
b le</w>
wor ld</w>
p le</w>
o ver</w>
s k
tim es</w>
hom e</w>
im port
ti c
d y</w>
cl as
pre s
g y</w>
on s</w>
jo b</w>
wh ere</w>
al i
op </w>
st er
m m
an s</w>
g a
2 </w>
s er
h ope</w>
sin ce</w>
ma de</w>
wh y</w>
wri te</w>
un i
8 </w>
h ere</w>
it s</w>
tran sport</w>
st a
o f
be fore</w>
th an
&apos; ll</w>
e y</w>
un der
o c
c u
some thing</w>
st or
&apos; ve</w>
import ant</w>
il l
h ou
s m
c ar</w>
f un
ne x
ang u
en er
s ay</w>
/ </w>
com p
nex t</w>
an i
c er
tr av
r y</w>
ex am
b ack</w>
differ ent</w>
d es
inter est
ent ly</w>
st e
fin d</w>
r a
c our
tt le</w>
s ur
sti ll</w>
si on</w>
ol o
re ad</w>
l angu
ac ti
du c
happ y</w>
s it
im pro
te ach
li ttle</w>
per i
pl ay
fam ily</w>
lear n</w>
bet ter</w>
w an
mo vi
n ow
ch il
pl ace</w>
ol l
1 </w>
th er
m us
c ity</w>
h ard</w>
whi le</w>
re as
20 0
o ff
under st
t en
li ve</w>
m s</w>
p ing</w>
t en</w>
mon ey</w>
e ar
ple ase</w>
i on</w>
e as
c ol
u e</w>
ac t</w>
in to</w>
ye ster
ar e
de ci
yester day</w>
b us
v el
3 </w>
ver s
m ee
5 </w>
s es</w>
tion al</w>
en g
n ed</w>
dr en</w>
gre at</w>
wri ting</w>
stud ents</w>
chil dren</w>
coun try</w>
sa me</w>
o k
fu ture</w>
ic ul
bo dy</w>
or s</w>
diff icul
t ur
ci al</w>
e le
an other</w>
at ing</w>
wi th
^ </w>
star ted</w>
h o
di s
m ar
b ook</w>
i s
th ought</w>
o th
ar ound</w>
ne ver</w>
i li
an g</w>
per son</w>
k ee
ni ght</w>
f ood</w>
ag ain</w>
m y
vers ity</w>
t u
ec t</w>
ex peri
hou se</w>
al s</w>
m ay</w>
ex c
wat ch
ic al</w>
v en
ad v
m ust</w>
hi gh</w>
do es</w>
m er
in gs</w>
f l
te ch
su mm
p en
D </w>
gi ve</w>
pl ay</w>
ag es</w>
an d
f av
con t
sh op
st er</w>
re s</w>
b l
bi g</w>
d ur
de vel
ag o</w>
x </w>
me m
s y
f ound</w>
se con
b all</w>
langu age</w>
s le
Ch in
c all
wee k</w>
wor king</w>
d re
ig n</w>
cor rec
p s</w>
di ary</w>
some times</w>
spea k</w>
t om
th r
underst and</w>
i es</w>
e w</w>
difficul t</w>
en ing</w>
e ff
every one</w>
us ing</w>
e ach</w>
m an</w>
li st
kin d</w>
ti c</w>
dur ing</w>
* </w>
tech n
ri ght</w>
stud ying</w>
summ er</w>
with out</w>
mor ning</w>
my self</w>
exam ple</w>
be ing</w>
4 </w>
sh i
or e
for t
clas s</w>
n ice</w>
enjo y</w>
sp or
he al
m at
n er</w>
be li
proble m</w>
pl an
e ve</w>
par t</w>
na me</w>
or r
p ic
impro ve</w>
V </w>
t ook</w>
9 </w>
be au
an t
b ad</w>
read ing</w>
ca l</w>
le ss</w>
p a
le t</w>
r ed</w>
cour se</w>
loo king</w>
I n
call ed</w>
si de</w>
t ell</w>
than k</w>
movi e</w>
g ir
olo gy</w>
ca me</w>
d ly</w>
a k
stor y</w>
b oo
p op
b as
re la
tr o
chang e</w>
v ir
it ed</w>
ow er</w>
si ble</w>
e t
th ose</w>
lear ning</w>
p as
h </w>
c ul
tal k</w>
s ol
en ti
a w
u </w>
pop ul
& #
= </w>
at ely</w>
st u
kee p</w>
su p
bu y</w>
so on</w>
s ite</w>
mus ic</w>
e i
ti v
ro om</w>
tri es</w>
e at</w>
fe w</w>
ma y
l ook</w>
&# 9
c are</w>
for e
th ree</w>
w al
i de
en ces</w>
y p
w in
be come</w>
g g
t ting</w>
c ur
beau ti
devel op
~ </w>
i l</w>
A </w>
ch o
le ar</w>
l es</w>
mee t</w>
uni versity</w>
star t</w>
el t</w>
sh ed</w>
fin i
v e
par ents</w>
al though</w>
may be</w>
me di
wat ch</w>
ar i
orr ow</w>
in for
su l
beauti ful</w>
f elt</w>
ci ally</w>
s ure</w>
experi ence</w>
m an
vir on
in g
wan ted</w>
coun tries</w>
of ten</w>
ar t</w>
s ing</w>
c t</w>
c r
ter s</w>
A mer
be g
es pe
z e</w>
Amer ic
en viron
S </w>
a tions</w>
o ver
teach er</w>
w ard</w>
interest ing</w>
a i
M i
ch e
en e
r un
w on
s on
0 0</w>
proble ms</w>
do ing</w>
ma tion</w>
e t</w>
comp any</w>
c ri
a ff
sa w</w>
tom orrow</w>
gr ad
read y</w>
con si
to ld</w>
ell o</w>
our s</w>
thr ough</w>
K ore
deci ded</w>
r e</w>
e p</w>
wor ds</w>
rec ently</w>
H ello</w>
mi ght</w>
ne w
b ro
fun </w>
d ri
espe cially</w>
at es</w>
some one</w>
re sta
h and</w>
resta ur
ne t</w>
in cre
beli eve</w>
se ar
st s</w>
te m
shop ping</w>
T V</w>
go ver
col le
trav el</w>
6 </w>
qu es
reas on</w>
w r
ill s</w>
gr am
st re
we en</w>
en ough</w>
bet ween</w>
m other</w>
fin ally</w>
ou t
re sul
e du
u t
f t</w>
boo ks</w>
or der</w>
gover n
di tion</w>
stud ent</w>
p ort</w>
c ess</w>
f oo
b re
c ar
u m</w>
s it</w>
ca tion</w>
us ually</w>
l l
ta tion</w>
c ess
fam ous</w>
ma kes</w>
ic i
pu t</w>
act ually</w>
po in
in v
pro duc
su b
every thing</w>
an c
t re
bo th</w>
ther e
pos sible</w>
me ans</w>
n g</w>
en ed</w>
d es</w>
dr in
con cer
comm un
L </w>
in ess</w>
sh ow</w>
secon d</w>
si m
ne e
d a
s l
si ve</w>
h um
c old</w>
d own</w>
d in
there fore</w>
li ves</w>
for ward</w>
so ci
e ty</w>
fe el
techn ology</w>
pr acti
s w
g ener
p i
g ar
h ours</w>
you ng</w>
ma g
b or
em s</w>
c en
p ed</w>
f ree</w>
mon th</w>
k i
C </w>
al most</w>
y o</w>
H i</w>
n at
di sc
as ked</w>
ho li
t ball</w>
op in
k now
b it</w>
sm all</w>
we a
ha ving</w>
d d
ch ar
sk ills</w>
fav or
n um
infor mation</w>
h ar
at er</w>
T </w>
ke t</w>
po li
wat er</w>
ge tting</w>
7 </w>
of f</w>
uc lear</w>
it ing</w>
correc t</w>
com ing</w>
th s</w>
E </w>
c o
t est</w>
c ars</w>
ta in</w>
w ar
o b
t own</w>
&apos; d</w>
1 0</w>
f re
enjo y
z ed</w>
b ought</w>
al ready</w>
favor ite</w>
s ent
un ti
T ok
ch a
sit u
ou ri
pl ac
li ving</w>
c oo
ga me</w>
d ent</w>
vi ew</w>
f act</w>
or g
_ </w>
watch ing</w>
n y</w>
de ar</w>
l s</w>
bu il
Chin ese</w>
as k</w>
r u
ro ad</w>
govern ment</w>
w w
Tok yo</w>
f ul
ti red</w>
en c
unti l</w>
oth ers</w>
f il
ou s
sp end</w>
f oll
restaur ant</w>
ser v
on g
environ ment</w>
w om
ta in
al ity</w>
he ard</w>
com pu
li m
vi sit</w>
ell ing</w>
any way</w>
le s
s en
se e
ot e</w>
eas y</w>
ste m</w>
du ce</w>
L ang</w>
v ac
g l
mem ber</w>
con om
h ot</w>
ot s</w>
ow s</w>
n uclear</w>
any thing</w>
K </w>
re ali
spor ts</w>
min d</w>
ph one</w>
l and</w>
play ing</w>
opin ion</w>
f ac
sur pri
k en</w>
stu di
ow ing</w>
T he</w>
tri p</w>
R </w>
pre f
wee k
fore ign</w>
interest ed</w>
shi p</w>
ne ar</w>
in tro
c le
an sw
tr ain</w>
b ir
spea king</w>
r ain
pos i
f ast</w>
cont in
wea ther</w>
to ge
o d</w>
toge ther</w>
thin king</w>
s un
ener gy</w>
ma in</w>
con ven
mi sta
j our
ide a</w>
s wi
c ted</w>
a way</w>
commun ic
e conom
am p
u tion</w>
ex pen
ta king</w>
sy stem</w>
cl ud
d ge</w>
par ty</w>
ch i
sear ch</w>
t yp
re comm
t ;</w>
st ay</w>
au gh
gir l</w>
se as
bu s</w>
ex pl
i ght</w>
sle ep</w>
cl oth
mon ths</w>
m en
on ce</w>
y s</w>
de li
te am</w>
f es
t ly</w>
ri ed</w>
than ks</w>
ch ec
num ber</w>
tri ed</w>
cloth es</w>
se ver
ab ili
ar ri
p ower</w>
ex pe
ap er</w>
ele c
you r
f ur
na tional</w>
k n
pro vi
e ful</w>
k ers</w>
m om
en s</w>
t or</w>
y es</w>
st e</w>
s ci
heal th</w>
ful ly</w>
on es</w>
sin g
bus y</w>
f ace</w>
com ple
conven i
me t</w>
t ter</w>
won der
in e
l ine</w>
fort un
n a</w>
am es</w>
sp on
ad dition</w>
b ed</w>
ad ays</w>
ou p</w>
now adays</w>
ap </w>
A u
f ic
v en</w>
spe cial</w>
s al
ag ed</w>
ma king</w>
e ment</w>
adv ant
soci ety</w>
re qu
fa ther</w>
plac es</w>
h u
tr a
R e
m ent
r ing</w>
n or
a ve</w>
popul ar</w>
le ft</w>
m ents</w>
new s</w>
qu ite</w>
v o
Mi cha
v ari
200 9</w>
& amp
Micha el</w>
Americ an</w>
tu res</w>
watch ed</w>
ay ing</w>
f ar</w>
com fort
su c
l un
wh e
si g
s or
practi ce</w>
b a
per son
In ter
b and</w>
a ma
at ten
re spon
l ar
ex am</w>
ar ing</w>
ti t
off ice</w>
ut es</w>
situ ation</w>
loo ked</w>
poin t</w>
vi sit
du e</w>
sh op</w>
org ani
se ems</w>
ac c
tr ain
vi ties</w>
resul t</w>
ang e</w>
cho ose</w>
trav elling</w>
fini shed</w>
k er</w>
str uc
o le</w>
1 9
grad u
an k</w>
dre am</w>
mem b
k new</w>
ec ts</w>
ear ly</w>
st y
it al</w>
st ed</w>
bus iness</w>
acti vities</w>
ca m
op port
tal king</w>
st ri
heal th
z ing</w>
se t</w>
list ening</w>
min utes</w>
st op</w>
se en</w>
er ing</w>
n ers</w>
ap pe
sever al</w>
hi gh
tr ue</w>
der ly</w>
movi es</w>
&#9 3
comfort able</w>
ab ly</w>
in ste
re f
U R
in clud
ga ve</w>
play ed</w>
fl u
edu cation</w>
v el</w>
every day</w>
ch ance</w>
cl os
din ner</w>
reas ons</w>
pro cess</w>
&#93 ;</w>
p t</w>
st om
u al</w>
&#9 1
gh ts</w>
l ater</w>
for m
c are
mom ent</w>
inste ad</w>
mi s
whe ther</w>
el derly</w>
j ect</w>
holi day</w>
sh ort</w>
com es</w>
hum an</w>
tt en</w>
we b
enjoy ed</w>
chang ed</w>
os s</w>
pl o
develop ment</w>
Chin a</w>
lun ch</w>
wri tten</w>
re member</w>
kn own</w>
F r
abili ty</w>
wh ole</w>
compu ter</w>
he ar</w>
pro gram
consi der
expen sive</w>
know le
ad ver
li ght</w>
fortun ately</w>
l ots</w>
or y</w>
week end</w>
di c
ma in
ev ed</w>
cul ture</w>
tur n</w>
er ed</w>
foo tball</w>
con ver
l ate</w>
re search</w>
p ur
no thing</w>
an ds</w>
p ast</w>
a ir</w>
T O
ye t</w>
/ /
wor d</w>
an ts</w>
char ac
n ess</w>
rec ei
&apos; re</w>
are a</w>
re al</w>
is su
o ke</w>
act ors</w>
cur r
h tt
c at
ma l</w>
jour n
c ap
htt p
d en</w>
i mag
p oll
: //
S t
c all</w>
cl u
knowle dge</w>
c k</w>
on t</w>
l uc
na tive</w>
fu ll</w>
en try</w>
i ous</w>
des ign</w>
wi fe</w>
incre as
c le</w>
d one</w>
s our
er ci
p ay</w>
http ://
n er
u p
c ost</w>
wor ks</w>
act or</w>
ma j
feel ing</w>
S p
drin k</w>
h a</w>
so cial</w>
ques tion</w>
ab road</w>
fil m</w>
t end</w>
en ding</w>
M ar
pref er</w>
adver ti
ur al</w>
per f
wi sh</w>
ic s</w>
in es</w>
h al
3 0</w>
vac ation</w>
do or</w>
te le
bre a
UR L</w>
ac k
list en</w>
b s</w>
com pe
n s</w>
op er
sa d</w>
ir e</w>
Kore an</w>
colle ge</w>
te ach</w>
answ er</w>
bi li
ci ous</w>
p ain
N ew</w>
us ion</w>
t ment</w>
tr ying</w>
in ation</w>
par ed</w>
beca me</w>
st ance</w>
et c</w>
sel ves</w>
ne cess
inter net</w>
b ene
d augh
at ure</w>
bu r
v ol
langu ages</w>
y e</w>
N </w>
ex erci
wor ked</w>
e e</w>
eng ine
eng lish</w>
0 0
eas ily</w>
e w
sa tion</w>
bene f
happ ened</w>
do c
gr oup</w>
h un
af ter
Kore a</w>
S ing
c ase</w>
c tion</w>
si des</w>
a ke</w>
l ow</w>
ti ci
o s</w>
kin ds</w>
ic k
wa it</w>
ac ci
sle ep
le ast</w>
me mor
tal ked</w>
pl an</w>
me an</w>
chi ld</w>
wr ote</w>
beg in
ow ed</w>
ous ly</w>
po or</w>
fav ouri
e d
lear ned</w>
mor e
recomm end</w>
di vi
us eful</w>
de pen
pr om
ep t</w>
p er</w>
conveni ent</w>
serv ice</w>
me an
c ou
fr a
em plo
z y</w>
te ly</w>
swi mm
favouri te</w>
&amp ;</w>
i er</w>
more over</w>
h os
Sing ap
run </w>
h ot
g ames</w>
b ri
tran spor
un ity</w>
sty le</w>
th day</w>
ac cor
le ave</w>
v ate</w>
ple as
si ons</w>
T h
enc y</w>
l ed</w>
t op
da ily</w>
y s
hal f</w>
nee ds</w>
con cl
ev ening</w>
en ter
ir d</w>
str ong</w>
wal k</w>
pres ent</w>
o to</w>
sor ry</w>
elec tri
ar ed</w>
e ating</w>
cu stom
cen tr
memb ers</w>
run ning</w>
ic k</w>
I t</w>
O h</w>
st ing</w>
swimm ing</w>
v al
popul ation</w>
b lo
am s</w>
sh es</w>
pic ture</w>
seas on</w>
ic es</w>
wr ong</w>
transpor tation</w>
al one</w>
su dd
le vel</w>
er i
every body</w>
tiv al</w>
P </w>
u ght</w>
ag ree</w>
s ong</w>
vi de
vi sion</w>
le tter</w>
di rec
concl usion</w>
l ost</w>
fr ont</w>
sup port</w>
o g
pri vate</w>
daugh ter</w>
clu b</w>
ag ing</w>
f our</w>
ma il</w>
surpri sed</w>
mee ting</w>
sent ences</w>
A n
t on
necess ary</w>
si ster</w>
accor ding</w>
web site</w>
bir thday</w>
tr ac
studi ed</w>
ca use</w>
Inter net</w>
con f
c ated</w>
h our</w>
am a</w>
or i
sa ve</w>
win ter</w>
chec k</w>
lar ge</w>
qu i
sp ending</w>
nat ural</w>
M on
opport unity</w>
wom an</w>
mo ve</w>
wee ks</w>
clas ses</w>
pr ot
oc k</w>
S un
prob ably</w>
un der</w>
exc ited</w>
a ir
S h
in ed</w>
su ff
gr ap
% </w>
ques tions</w>
pre ci
u k
sk i
o ve</w>
concer t</w>
& g
d on</w>
&g t;</w>
p ly</w>
wonder ful</w>
out side</w>
re li
no on</w>
wa iting</w>
deli cious</w>
st ore</w>
advant ages</w>
U ni
si bili
teach ers</w>
see ing</w>
en ly</w>
re l
disc us
. .
wa ste</w>
comp ani
am oun
1 1</w>
pri ce</w>
re g
2 0</w>
st ly</w>
T ai
cle an</w>
your s</w>
b ab
sp ring</w>
health y</w>
ul ar</w>
Ch ri
Singap ore</w>
&#91 ;</w>
ach i
t op</w>
t able</w>
n am
o in
re gar
ta kes</w>
he art</w>
buil ding</w>
tr aff
U S
c os
el s</w>
h us
fi ve</w>
fun ny</w>
intro duc
g lo
gr am</w>
ar tic
m ing</w>
app li
z </w>
qu ality</w>
us es</w>
gl ad</w>
ar r
mar ket</w>
m os
bro ther</w>
traff ic</w>
sh ing</w>
m en</w>
sp ent</w>
arri ved</w>
i se</w>
ha ir</w>
ra ther</w>
r ain</w>
wal king</w>
u es</w>
be sides</w>
vari ous</w>
an ces</w>
compe ti
ww w
op en</w>
sudd enly</w>
ri es</w>
par k</w>
c al
re st</w>
perf ect</w>
cl ose</w>
th us</w>
hus band</w>
tur ned</w>
mat ter</w>
gr ound</w>
ti s
spe ci
mo der
t ow
ki ds</w>
produc ts</w>
ci ties</w>
contin ue</w>
m ess
as tic</w>
s ons</w>
pres en
www .
bo y</w>
for get</w>
J u
we ar</w>
any one</w>
M </w>
oun ds</w>
k y</w>
I tal
son gs</w>
p ose</w>
F ri
c ool</w>
incre ase</w>
lo cal</w>
U </w>
th qu
de st
shop s</w>
poll ution</w>
mista kes</w>
conver sation</w>
hos p
gg est</w>
l ong
m il
ra di
posi tion</w>
fam ili
sent ence</w>
de fin
e yes</w>
pro gram</w>
are as</w>
amoun t</w>
the m
sa fe
rela tion
app oin
ter ri
hi story</w>
ou th</w>
fini sh</w>
st ation</w>
les son</w>
fi ed</w>
ama zing</w>
c as
a il
t ex
pr in
comm on</w>
qu ick
wom en</w>
enti al</w>
ar ly</w>
d ang
t ot
I N
at ur
tele vision</w>
l ing</w>
pa ti
oo ls</w>
divi du
fra id</w>
ar ti
un fortunately</w>
foll owing</w>
in dividu
a fraid</w>
hu ge</w>
P e
st op
h er
quick ly</w>
y cle</w>
ha ha</w>
off ee</w>
an ding</w>
O </w>
br ing</w>
adv ice</w>
he ad</w>
ta ken</w>
Y </w>
Au str
ear thqu
compani es</w>
di tional</w>
hel ps</w>
nee ded</w>
h ur
P ar
clos ed</w>
si on
won der</w>
bu l
http:// www.
an im
you ng
Americ a</w>
A r
L on
pre ss</w>
k a</w>
us ual</w>
cu ri
h on
Austr ali
al e</w>
c ra
gu ess</w>
ho b
gram m
sh i</w>
il s</w>
exerci se</w>
secon dly</w>
after noon</w>
ap preci
u res</w>
ner v
m as</w>
li ved</w>
exc iting</w>
str ange</w>
t w
le ad
c offee</w>
E ur
i d
atten tion</w>
t ty</w>
Lon don</w>
pic tures</w>
ne y</w>
5 0</w>
ment al</w>
tr ou
differ ence</w>
con fi
1 2</w>
artic le</w>
tro l</w>
ch ed</w>
as s</w>
reali zed</w>
he ld</w>
ex pres
pas sed</w>
for m</w>
W or
en ch</w>
vide o</w>
W h
s wee
tran sl
inter national</w>
wan ts</w>
gi ven</w>
journ al</w>
acti v
ph ot
sim il
vi ew
eff ici
d ence</w>
t ou
maj or</w>
se a</w>
person al</w>
mista ke</w>
sim ple</w>
sh ows</w>
gr and
ph ys
TO E
consi der</w>
ar ds</w>
Uni versity</w>
them selves</w>
le c
an n
Sun day</w>
sh are</w>
ir ed</w>
par tic
c ele
adverti se
ol der</w>
frien dly</w>
ab ove</w>
im pres
tr u
ay ed</w>
communic ate</w>
il ed</w>
wor ried</w>
ther more</w>
con tr
olo gi
expl ain</w>
moder n</w>
ser ious</w>
sa tis
av o
nerv ous</w>
s aying</w>
am ong</w>
m oun
pre tty</w>
ke ts</w>
sour ces</w>
intro duce</w>
sibili ty</w>
me th
dri ving</w>
per form
bi le</w>
us si
pr op
tem per
hom e
coo king</w>
e ld</w>
do g</w>
glo b
fur thermore</w>
fes tival</w>
begin ning</w>
ti cal</w>
f ic</w>
s ent</w>
g ene
C an
s ound</w>
B </w>
cu t</w>
d ou
or ig
fin e</w>
fir stly</w>
star ting</w>
f oc
so c
c ook</w>
i an</w>
1 5</w>
bor n</w>
beg an</w>
nat ure</w>
at trac
th ird</w>
gramm ar</w>
gir ls</w>
av ail
coun t</w>
1 0
fore ig
c er</w>
S atur
Tai w
t ouri
it able</w>
sol ve</w>
ke tball</w>
n is</w>
expe cted</w>
ch all
des cri
teach ing</w>
train ing</w>
ri ce</w>
hot el</w>
o es</w>
p aper</w>
wan na</w>
y cl
tem ber</w>
str y</w>
tic s</w>
fi sh</w>
visit ed</w>
c ed</w>
mat eri
p ost</w>
G er
ou d</w>
de m
tic ed</w>
g ical</w>
S ep
re spe
E R
tici p
dri ve</w>
Y ou
bor ing</w>
d ate</w>
pro f
re gi
resul ts</w>
n ot
anim als</w>
ill ed</w>
ad a</w>
li ked</w>
typ e</w>
earthqu ake</w>
sol u
war m</w>
i gh
eas ier</w>
bas ketball</w>
c ts</w>
c lim
pas s</w>
st mas</w>
eff ec
ke y</w>
econom ic</w>
s now</w>
s ays</w>
b ye</w>
sp ace</w>
Sep tember</w>
ani sh</w>
hel ped</w>
st at
go al</w>
se qu
cho ice</w>
en cour
pos ed</w>
e g
provi de</w>
comple tely</w>
ten nis</w>
ev ent</w>
con ne
mo ved</w>
ma ch
p are</w>
er ry</w>
stre et</w>
man ag
ac tion</w>
D ay</w>
gu y</w>
bab y</w>
safe ty</w>
go es</w>
des ig
im medi
U S</w>
R ussi
he av
ag ain
sen se</w>
gre en</w>
pre pare</w>
qu e</w>
j ects</w>
gu ys</w>
com pared</w>
& l
l ack</w>
ab les</w>
su per
sc ore</w>
&l t;</w>
pro fes
communic ation</w>
l ose</w>
again st</w>
happ en</w>
om e</w>
curr ent</w>
ti ves</w>
hosp ital</w>
grap h
avail able</w>
yp e</w>
t on</w>
or d</w>
cont act</w>
a tive</w>
in no
imag ine</w>
a z
gu e</w>
ud e</w>
activ ity</w>
at s</w>
bo y
tra ditional</w>
c ent
includ ing</w>
en ds</w>
Satur day</w>
i de</w>
vi ous</w>
he aring</w>
re duce</w>
S e
s end</w>
x ed</w>
wor kers</w>
er ous</w>
d ents</w>
se em
d ings</w>
O c
B ri
rel ated</w>
er y</w>
c in
ski ll</w>
de al</w>
lo l</w>
t wi
ro le</w>
soc cer</w>
cu te</w>
develop ed</w>
mo bile</w>
im p
mi ss</w>
ste p</w>
re port</w>
vo ice</w>
J o
par ticip
Chri stmas</w>
dis appoin
rain y</w>
loo ks</w>
Fr ench</w>
pr on
le av
c an
tri eved</w>
st ers</w>
g oo
on line</w>
home work</w>
sh ee
advertise ment</w>
ide as</w>
e book</w>
brea k</w>
ton ight</w>
s ounds</w>
jo bs</w>
cer tain</w>
immedi ately</w>
f f</w>
gi ves</w>
li br
e ar</w>
T H
we ight</w>
US A</w>
re le
terri ble</w>
ch es</w>
al ong</w>
gene tic</w>
dd le</w>
in side</w>
de gre
studi es</w>
K y
cr ow
poin ts</w>
increas ing</w>
orig in
at t
fi eld</w>
pre par
seem ed</w>
it ely</w>
chang es</w>
drin king</w>
con trol</w>
fr u
simil ar</w>
ti z
Re trieved</w>
i P
temper ature</w>
nor mal</w>
h ic
g en
pl es</w>
j i</w>
boy friend</w>
en ded</w>
in du
cou ple</w>
sci ence</w>
recei ved</w>
feel ings</w>
g y
defin itely</w>
G </w>
holi days</w>
gh t
les sons</w>
sch ools</w>
ex i
z ation</w>
str ong
su m
b ar
in flu
con di
w oke</w>
in d</w>
f lo
mean ing</w>
typ es</w>
f all</w>
medi cal</w>
ch ing</w>
your self</w>
d ar
.. .</w>
ha te</w>
issu e</w>
b ack
contin u
min e</w>
bas ed</w>
young er</w>
fa i
p ot
si x</w>
fac ili
ta ught</w>
tri bu
L i
tiv ely</w>
lo cated</w>
g one</w>
c lear</w>
a th
cle an
ve hic
h im
h y
acci dent</w>
h or
gener ation</w>
win d
m om</w>
w el
top ic</w>
in i
profes sion
M ad
d ding</w>
inter view</w>
we b</w>
h and
devel op</w>
at or</w>
s mo
w on</w>
ref er
Australi a</w>
over ed</w>
long er</w>
en d
e f</w>
Sp anish</w>
p m</w>
el se</w>
g er</w>
s li
Ju ly</w>
gradu ate</w>
Fri day</w>
sa fe</w>
e an</w>
b ank</w>
F </w>
as pe
posi tive</w>
glob al</w>
in stance</w>
cl ock</w>
sci enti
. com
heav y</w>
y a</w>
ac tive</w>
ex press</w>
pro ject</w>
foll ow</w>
ge ts</w>
con sequ
O K</w>
un e</w>
peri od</w>
ci tiz
ur y</w>
stop ped</w>
Taiw an</w>
relation ship</w>
ain ed</w>
wh ite</w>
z z
issu es</w>
he ad
clas sm
cen ter</w>
an o</w>
vi ll
cam p</w>
appreci ate</w>
ma ge</w>
Wor ld</w>
D i
k it
olo gical</w>
see m</w>
c s</w>
to ber</w>
wa ke</w>
o v
lo ved</w>
y ed</w>
deci de</w>
sk y</w>
d ance</w>
be ach</w>
su itable</w>
ul es</w>
trav el
re si
wor k
en ty</w>
st ayed</w>
ro om
ha m
mo tiv
doc tor</w>
suc cess
i a</w>
b al
bre ak
wor se</w>
Oc tober</w>
ap pro
ad ul
st af
ad m
ni fic
consider ed</w>
I C</w>
plan ts</w>
staf f</w>
li on</w>
colle ag
h op
au th
l ang</w>
benef its</w>
mi ddle</w>
ca used</w>
plan e</w>
libr ary</w>
wor ry</w>
r an</w>
rela x</w>
li t
v ely</w>
sy ch
sleep y</w>
fin al</w>
ser ies</w>
A pri
li kes</w>
te a</w>
enc ed</w>
new sp
play er</w>
bus es</w>
inv ol
l at
Apri l</w>
e ts</w>
cre ate</w>
all s</w>
no body</w>
ic ally</w>
j ap
C om
engine ering</w>
foreig ners</w>
de ta
high er</w>
e ce</w>
s now
competi tion</w>
mus e
ri s
sol ution</w>
des p
de v
j u
bl ack</w>
chang ing</w>
fur ther</w>
D e
luc ky</w>
t y
op ened</w>
l u
y en</w>
ap ar
plan ning</w>
trou ble</w>
fre sh</w>
U n
in a</w>
spe e
desp ite</w>
a th</w>
con tribu
jo in</w>
de par
cl es</w>
th ou
M y</w>
au di
tot ally</w>
mar ried</w>
tain s</w>
or din
Mon day</w>
u ary</w>
ap s</w>
inno v
c at</w>
ter m</w>
dr aw
$ </w>
b oss</w>
sh ion</w>
b er
avo id</w>
re sources</w>
stre ss</w>
V i
tur al</w>
spea kers</w>
f act
at a</w>
eff ort</w>
wh en
cele br
ru b
pl ant</w>
re ly</w>
ne igh
be coming</w>
app ly</w>
beg in</w>
ir s</w>
at mos
custom ers</w>
phys ical</w>
em ber</w>
s ick</w>
lim ited</w>
atmos ph
ca ke</w>
p sych
at tend</w>
sc re
charac ter</w>
r ules</w>
A N
I D</w>
fin an
ne t
ex per
s is</w>
ve ge
ang ry</w>
ph r
Mar ch</w>
sub ject</w>
S k
p ain</w>
perform ance</w>
econom y</w>
la w</w>
when ever</w>
we dding</w>
ant ly</w>
tion ed</w>
st ant</w>
or ity</w>
deci sion</w>
es day</w>
Can ada</w>
dang erous</w>
br ought</w>
re turn</w>
vol un
ta ste</w>
um ents</w>
sc en
ke pt</w>
st age</w>
en ter</w>
stor ies</w>
ap e</w>
ai m</w>
st and</w>
TOE IC</w>
pr ac
h old</w>
di shes</w>
se cre
c li
no ticed</w>
rec ent</w>
t ables</w>
jo ined</w>
b ic
program s</w>
m er</w>
mess age</w>
gi ving</w>
ak i</w>
exam s</w>
electri city</w>
s ou
in ven
off er</w>
In di
fa ster</w>
Y ear</w>
compu ters</w>
charac ters</w>
h ood</w>
dr ama</w>
tic ally</w>
Ky oto</w>
pre v
cer ely</w>
e di
pro gre
partic ular</w>
S ir</w>
b an
pur pose</w>
atmosph ere</w>
g ust</w>
blo g</w>
ri ch</w>
re gre
ev ents</w>
win d</w>
dou b
rain ing</w>
Pe ter</w>
le ad</w>
d ow
cos ts</w>
e mo
play ers</w>
anc ed</w>
vo ca
ec ted</w>
enjoy able</w>
as ed</w>
at e
A l
H T
bi ggest</w>
sti tu
h t
any more</w>
ci es</w>
ess ay</w>
shi ps</w>
T o
facili ties</w>
N a
d ers</w>
ca fe</w>
l y
exc ell
cra zy</w>
A si
profession al</w>
foo ds</w>
ne ga
re actor</w>
as s
con dition</w>
se curi
i sed</w>
citiz ens</w>
ad s</w>
ec ture</w>
mi le</w>
be er</w>
re actors</w>
M r</w>
inter est</w>
cat ch</w>
m ul
che ap</w>
uni or</w>
l ab
restaur ants</w>
ex tre
w in</w>
uni ties</w>
the less</w>
ow ers</w>
dre ss</w>
gener al</w>
ac ks</w>
spea ker</w>
oc ol
advant age</w>
tic ket</w>
f ant
th fully</w>
a h</w>
Au gust</w>
so f
c e
bi ke</w>
ot t
break fast</w>
ga z
m ale</w>
gir l
ti ce</w>
p ool</w>
f ell</w>
i ld</w>
f ar
exc ept</w>
emplo ye
sti c</w>
G r
ei ther</w>
h ence</w>
curr ently</w>
an a</w>
G re
h it</w>
wi de</w>
tre es</w>
ma gaz
g ot
securi ty</w>
as si
c ir
c ent</w>
swee t</w>
requ i
d ro
hou ses</w>
si l
in ten
te en
be ha
achi eve</w>
reali ze</w>
p li
not es</w>
sin cerely</w>
individu al</w>
fu el</w>
c ard</w>
un </w>
G od</w>
ad e</w>
nam ed</w>
kee ping</w>
hel ping</w>
pain ting</w>
X </w>
clas s
T u
bo ard</w>
bi sh</w>
in k</w>
com pl
H i
H ar
in s</w>
par ts</w>
fa shion</w>
F e
ex change</w>
sleep ing</w>
bu ild</w>
or ies</w>
excell ent</w>
am i</w>
V HT
buil dings</w>
pre pared</w>
enter tain
disappoin ted</w>
o on</w>
de cre
s m</w>
some day</w>
impro ved</w>
effec tive</w>
sit es</w>
hob by</w>
medi a</w>
che aper</w>
foc us</w>
bl ue</w>
You </w>
got ten</w>
volun te
wor th</w>
wal ked</w>
finan cial</w>
i ons</w>
tran s
ver s</w>
ar ies</w>
sig nific
tou ch</w>
M a
in j
fai thfully</w>
har der</w>
ch ocol
P C</w>
200 8</w>
ear li
su g
presen tation</w>
thou ghts</w>
n e</w>
b a</w>
dow n
VHT R</w>
rub bish</w>
li fe
d on
h ands</w>
materi als</w>
as es</w>
re duc
con struc
m ed</w>
su m</w>
ll ing</w>
j unior</w>
J une</w>
sing le</w>
tow ards</w>
oc cur
u te</w>
tit ude</w>
bul ary</w>
s mile</w>
as ks</w>
b ing</w>
di sa
im possible</w>
commun ity</w>
pre vious</w>
tru th</w>
ci ation</w>
flo or</w>
F ac
exam ination</w>
O sa
experi ences</w>
19 9
beha vi
grad e</w>
hom et
introduc tion</w>
suc cess</w>
ell s</w>
de pres
comp li
nega tive</w>
girl friend</w>
develop ing</w>
ac count</w>
mo ving</w>
. ht
poli ce</w>
h ind</w>
famili es</w>
with in</w>
buil t</w>
ve ment</w>
ca mer
con centr
acc ep
import ance</w>
ul arly</w>
sh oes</w>
re ach</w>
Osa ka</w>
d oll
hel p
1 4</w>
crow ded</w>
know s</w>
t um
meth od</w>
Sk ype</w>
tran ce</w>
Sp ain</w>
voca bulary</w>
M ay</w>
se par
tion ary</w>
pl ays</w>
be hind</w>
centr e</w>
homet own</w>
for got</w>
on d</w>
di es</w>
wh at
b ar</w>
l on
anc ing</w>
E x
ph oto</w>
tic kets</w>
eff ects</w>
apar tment</w>
ac a
ro b
d a</w>
sit ting</w>
surpri se</w>
pa ir</w>
ycl ing</w>
ap ers</w>
sh oc
concer ned</w>
produc t</w>
stre ets</w>
respe ct</w>
gr ow</w>
vel s</w>
di st
c o</w>
prev ent</w>
mo d
ici al</w>
medi c
r op
Ital ian</w>
T ha
at ures</w>
con c
hur t</w>
kit ch
J an
og ni
B r
f y</w>
20 10</w>
pa id</w>
tit le</w>
1 st</w>
ologi es</w>
train s</w>
o graph
sun ny</w>
oo d
expe c
i or</w>
pl ans</w>
stu ff</w>
environ mental</w>
sup posed</w>
pron un
sun </w>
bas ic</w>
some body</w>
p ow
or k</w>
un k</w>
impro ving</w>
rec ogni
aw a</w>
sh ou
care er</w>
tex t</w>
twi ce</w>
frien d
happ iness</w>
help ful</w>
confi dence</w>
pas s
cul tural</w>
c lear
phot os</w>
wh er
hum ans</w>
emplo y
st aying</w>
classm ates</w>
e qui
bro ken</w>
men tioned</w>
enjo ying</w>
sour ce</w>
conf used</w>
en trance</w>
con sum
sing ing</w>
ph ones</w>
p tion</w>
ne ver
hi stor
par t
ch i</w>
moun tain</w>
ti sh</w>
e al
ha b
l augh
li k
m ot
la zy</w>
earli er</w>
c y</w>
der ed</w>
mat ch</w>
sh or
i m</w>
what ever</w>
di sp
serv ices</w>
recei ve</w>
dar k</w>
dest ro
visit ing</w>
F u
cr u
vill age</w>
ag e
ca ught</w>
degre e</w>
C on
bl ood</w>
fil ms</w>
3 0
cre ated</w>
col or</w>
wi se</w>
x ing</w>
l er</w>
j um
bo x</w>
.com /
never theless</w>
Ital y</w>
fant astic</w>
all ow</w>
depar tment</w>
er ful</w>
stre s
ordin ary</w>
ess ential</w>
prot ect</w>
electri c</w>
Eur ope</w>
me al</w>
every where</w>
be low</w>
l ower</w>
se c
success ful</w>
sur r
an al
si ze</w>
progre ss</w>
ent ries</w>
f it</w>
se ase</w>
op tion</w>
os som
c ks</w>
bic ycle</w>
ach e</w>
D V
in ci
m es</w>
shee ts</w>
dr ank</w>
P ER
lik ely</w>
ch erry</w>
B i
c anc
Ger man</w>
1 3</w>
spee ch</w>
il ing</w>
T e
f actors</w>
h aps</w>
origin al</w>
ta x
eff ect</w>
ex ha
em ents</w>
ma ster</w>
jour ney</w>
s /
ch at
c up</w>
lit ary</w>
le t
gre at
bu ying</w>
de ter
N or
P ro
expe ct</w>
spe ed</w>
os ing</w>
him self</w>
vari ety</w>
f er
gy m</w>
satis fied</w>
Un ited</w>
pronun ciation</w>
o li
&#91 ;
min i
Fac ebook</w>
ent al</w>
ter ms</w>
Bri tish</w>
effici ent</w>
e ball</w>
Eng land</w>
IN K</w>
pres sure</w>
R F
r ap
p p
underst anding</w>
per haps</w>
Y ork</w>
b ad
p an
sub jects</w>
a vi
dre ams</w>
di sease</w>
care ful</w>
Jo h
{ </w>
em p
wind ow</w>
a di
mi litary</w>
b ott
f an</w>
R i
luc k</w>
1 2
chall eng
sc ared</w>
cas es</w>
sup por
de ath</w>
opport unities</w>
bro ad
ear th</w>
th ous
dre s
S u
re ply</w>
B ra
bl ossom
di ed</w>
teen ag
acci dents</w>
star ts</w>
ch an
L e
st y</w>
H Y
conveni ence</w>
n on</w>
muse um</w>
T om</w>
br ain</w>
th ers</w>
ri de</w>
f er</w>
a i</w>
experi enced</w>
li ter
1 00</w>
no tice</w>
sal es</w>
happ ens</w>
ou gh
we aring</w>
m ood</w>
sur vi
id enti
r ate</w>
me ly</w>
L INK</w>
li es</w>
prepar ing</w>
HY PER
HYPER LINK</w>
fi g
respon sible</w>
prof ess
gu it
gr ow
famili ar</w>
o il</w>
pi ece</w>
h one</w>
medic ine</w>
U K</w>
20 11</w>
radi o</w>
appli cation</w>
bas eball</w>
g as</w>
gr at
edu ca
pati ent</w>
cer e
mi d
wonder ing</w>
t ors</w>
touri sts</w>
c op
cre am</w>
r en
te en</w>
st ems</w>
ch at</w>
RF ID</w>
cin em
Mad am</w>
on ic</w>
descri be</w>
a k</w>
techn ologies</w>
&amp ;
the at
e duc
gr owing</w>
stor es</w>
4 0</w>
oun ded</w>
at ter
elec tr
ser i
indu stry</w>
stat ement</w>
n t</w>
ri ver</w>
qu ali
fre qu
vege tables</w>
edu le</w>
travel ing</w>
equi p
str u
&#91; HYPERLINK</w>
in st
S outh</w>
some where</w>
A R
a w</w>
situ ations</w>
gg er</w>
appe ared</w>
ab solu
vehic les</w>
} &#91;HYPERLINK</w>
C am
st and
l ately</w>
sch edule</w>
al ter
ch ose</w>
g ain</w>
al co
ba g</w>
ti </w>
requ ired</w>
ris k</w>
mon y</w>
C ol
colleag ues</w>
comple te</w>
k o</w>
ver si
aspe cts</w>
lo vely</w>
t ask</w>
in de
h es
grow th</w>
regar ds</w>
be comes</w>
dic tionary</w>
su ggest</w>
poli cies</w>
bor ed</w>
extre mely</w>
speci fic</w>
a im
oo oo
t ent</w>
o o</w>
acc ept</w>
ear n</w>
re ach
am ed</w>
Bra z
p age</w>
g on</w>
cent ury</w>
air port</w>
1 8</w>
en ge</w>
rela tives</w>
engine ers</w>
strong ly</w>
gr ou
swi m</w>
a st
dis advantages</w>
S y
adv ance</w>
chocol ate</w>
ti ll</w>
u t</w>
fl owers</w>
memor y</w>
me at</w>
g ol
bi es</w>
ad d</w>
pleas ant</w>
le g
sim ply</w>
x i
Russi an</w>
pro duce</w>
r ace</w>
aw are</w>
at titude</w>
o ds</w>
main ly</w>
depen dent</w>
educa tional</w>
ad y</w>
our selves</w>
ar gu
gar den</w>
St ates</w>
er r
f le
e mail</w>
ne ar
cour ses</w>
regar ding</w>
de l</w>
neigh b
d ad</w>
leav ing</w>
kitch en</w>
attrac tive</w>
th re
sh ir
flu ently</w>
st ep
st ars</w>
st ate</w>
increas ed</w>
pri ces</w>
app rop
r ac
is land</w>
sh owed</w>
pr oud</w>
respon sibility</w>
st anding</w>
di e</w>
approp ri
b ly</w>
C hi
fi re
in ing</w>
tr ack</w>
struc ture</w>
n ood
act ly</w>
pos sibility</w>
differ ences</w>
m a</w>
mach ine</w>
list ened</w>
su shi</w>
se ven</w>
pr oper
ex actly</w>
underst ood</w>
t ough</w>
sy m
0 00</w>
an no
do gs</w>
hou se
jap anese</w>
war ming</w>
ment ary</w>
sle pt</w>
B e
ca uses</w>
plan ned</w>
on able</w>
appe ar</w>
cul tures</w>
us ers</w>
bo ys</w>
aff ord</w>
ri d</w>
s ort</w>
benef it</w>
imp act</w>
1 6</w>
li st</w>
ac r
adul ts</w>
k i</w>
condi tions</w>
d ancing</w>
clear ly</w>
so ld</w>
at ory</w>
har dly</w>
mis sion</w>
d om
p id</w>
ar a</w>
ro ck</w>
200 7</w>
er t</w>
re por
im ple
newsp aper</w>
camer a</w>
atten ded</w>
re ality</w>
pro cess
ar t
vi ously</w>
W i
room s</w>
h ol
g le</w>
tre at
tr a</w>
comm ents</w>
employe es</w>
grou ps</w>
te sts</w>
sm art</w>
ec tion</w>
introduc ed</w>
chec ked</w>
me as
in t
mus ical</w>
ch ur
an ci
im a</w>
A li
sur f
dem ic</w>
inv ited</w>
n al</w>
hob bies</w>
wi lling</w>
memor ies</w>
str eng
re sear
de ep</w>
cinem a</w>
for ce</w>
goo ds</w>
E S
S o
chall enge</w>
hes it
ac tions</w>
s ell</w>
all owed</w>
car ry</w>
he at</w>
Fr ance</w>
continu ed</w>
us i
regre t</w>
cer tain
spe c
inv est
stu pid</w>
vac y</w>
.ht m
absolu tely</w>
b read</w>
solu tions</w>
manag ement</w>
al ing</w>
te sting</w>
w ar</w>
P r
l d
Eur op
le ep</w>
arti cles</w>
dest ination</w>
in f
I V</w>
com b
govern ments</w>
d en
de ad</w>
ac qu
pleas ure</w>
lat est</w>
ur a</w>
guit ar</w>
poli cy</w>
depen ds</w>
uni que</w>
f ly</w>
ic ken</w>
p on
gg ing</w>
Wh at</w>
it ted</w>
discus s</w>
di sh</w>
stri ct</w>
any where</w>
ba th</w>
um s</w>
gener ally</w>
sur ve
doub t</w>
gg es
wor ker</w>
Russi a</w>
c ell</w>
ac cess</w>
cal m</w>
signific ant</w>
i ze</w>
ser ve</w>
th ir
ro ads</w>
sp ir
E N
vi a</w>
pi ano</w>
ev ent
g er
dri ver</w>
v in
ty ph
es ome</w>
H ong</w>
r out
li g
g ed</w>
v al</w>
M us
ell ow</w>
wel come</w>
su gges
1 5
wea k</w>
tw enty</w>
n ote</w>
ad vi
reli gi
p ac
ad di
sp oke</w>
ar gue</w>
mil k</w>
provi des</w>
Joh n</w>
high ly</w>
K ong</w>
de ep
val u
profess or</w>
ele ss</w>
n ur
t ings</w>
gradu ated</w>
uk u
wh ose</w>
or m
tion ally</w>
ag re
happ ening</w>
impres sed</w>
S um
coo ked</w>
ar ch
au tum
di et</w>
rela xed</w>
Na tional</w>
v ic
fin ding</w>
ok en</w>
fir e</w>
b ers</w>
val ue</w>
histor ical</w>
ing ly</w>
me t
la w
est s</w>
ho l</w>
N ag
e ye</w>
ou se</w>
fig ure</w>
aw esome</w>
program me</w>
view s</w>
bu d
lo ves</w>
sy stems</w>
wh om</w>
ach es</w>
ap art</w>
influ ence</w>
di stance</w>
N i
sen ior</w>
pri vacy</w>
da mage</w>
ell ed</w>
tw are</w>
G u
se me
vi l</w>
hon est</w>
m el
man age</w>
bi gger</w>
l and
pl astic</w>
r ange</w>
or dered</w>
E n
char ge</w>
at ors</w>
enter ed</w>
2 5</w>
c tions</w>
appropri ate</w>
D ec
wor st</w>
sh ape</w>
vi ol
S hi
w ine</w>
seri ously</w>
autum n</w>
1 8
ca tions</w>
mil lion</w>
exha u
ver sion</w>
fi ght</w>
tu al</w>
shoc ked</w>
friend ship</w>
manag er</w>
ele mentary</w>
cere mony</w>
correc tions</w>
at en</w>
Inter national</w>
acr oss</w>
exper im
expres sions</w>
deta ils</w>
d om</w>
t ar
me als</w>
sti cs</w>
sug ge
s oup</w>
d est</w>
arri ve</w>
event ually</w>
I f</w>
contr ast</w>
on i
B o
pe t</w>
re memb
it self</w>
all ows</w>
ex tra</w>
gl ass</w>
Vi et
aca demic</w>
re ti
care fully</w>
T he
qu it</w>
an ti
pleas ed</w>
alco hol</w>
E R</w>
z a</w>
qui et</w>
Europ ean</w>
s n
M al
off ers</w>
c ab
f all
as king</w>
min ds</w>
life style</w>
Q </w>
c ket</w>
ch icken</w>
r am
+ </w>
seme ster</w>
M e
ann oun
main tain</w>
direc tly</w>
j ec
re ment</w>
S ch
Indi a</w>
pic k</w>
TH E</w>
1 00
o k</w>
fi f
ki ll</w>
s we
uc k</w>
l au
B ar
au tom
leav es</w>
certain ly</w>
know ing</w>
chil d
cam ps</w>
t asks</w>
ep tion</w>
boo k
sof tware</w>
back ground</w>
ess es</w>
di seas
gr y</w>
individu als</w>
n ation</w>
r an
ill ance</w>
we ird</w>
a sh
s es
Dec ember</w>
entertain ment</w>
encour age</w>
N ov
ne arly</w>
. org
as leep</w>
l ap
gradu ation</w>
teenag ers</w>
over come</w>
invol ved</w>
theat re</w>
answ ered</w>
sc ri
g en</w>
pi zz
li e</w>
M r
dr y</w>
sl ow
O N
ma th</w>
de ca
volunte er</w>
e ase</w>
hun gry</w>
1 7</w>
ag s</w>
re turned</w>
cur ry</w>
requi res</w>
grad ually</w>
diseas es</w>
clean ing</w>
li ghts</w>
typ ical</w>
or ing</w>
typh oon</w>
s qu
H ey</w>
or ed</w>
b on</w>
l an
magaz ine</w>
bro ke</w>
t in
br ings</w>
par king</w>
abili ties</w>
motiv ation</w>
consider ing</w>
o x
on a</w>
F es
T wi
no vel</w>
v </w>
cap ital</w>
surf ing</w>
expres sion</w>
phr ase</w>
le y
C ity</w>
meth ods</w>
scen e</w>
t es</w>
M o
drin ks</w>
ri </w>
h ost</w>
disc overed</w>
pot ential</w>
K an
ster n</w>
as sig
b il
k illed</w>
feel s</w>
moun tains</w>
tic ing</w>
re pe
F uku
l ines</w>
inde ed</w>
le y</w>
w all</w>
ok ay</w>
c ast</w>
cl ou
tot al</w>
F L</w>
Fes tival</w>
surve illance</w>
k ar
compli cated</w>
opin ions</w>
h an
ri ding</w>
iP hone</w>
ti li
provi ded</w>
A S
X D</w>
b age</w>
pres ents</w>
custom er</w>
recomm ended</w>
o ther
men tion</w>
chur ch</w>
beau ty</w>
concer n</w>
re ve
confi dent</w>
se le
slow ly</w>
rele ased</w>
respon se</w>
fic ation</w>
fa ir</w>
ser ved</w>
rela xing</w>
m all</w>
ri ll
suff ering</w>
A d
pati ents</w>
gu i
A p
valu able</w>
Jan uary</w>
sa ving</w>
lon ely</w>
re main
reg ular</w>
dr op
lau gh</w>
for ever</w>
W ed
f light</w>
er g
0 %</w>
s p</w>
N o</w>
p op</w>
c el
correc ted</w>
W e</w>
op pos
- -
om e
fe ar</w>
secre t</w>
thr ough
si ght</w>
imple men
s us
ac ting</w>
4 th</w>
ur ed</w>
di g
equip ment</w>
j ud
tex t
A T
in stitu
doll ars</w>
ex ic
disa ster</w>
requ ire</w>
t ree</w>
i so
sing er</w>
2 4</w>
wher e
en sure</w>
Ger many</w>
go als</w>
sp oken</w>
sl ow</w>
se as</w>
D is
smo king</w>
re view</w>
treat ment</w>
ye ah</w>
fe male</w>
E ar
ha bit</w>
mo del</w>
relation ships</w>
as ses</w>
ca st
produc tion</w>
mi d</w>
concentr ate</w>
ac y</w>
com par
it ems</w>
x im
DV D</w>
pur ch
br u
de f
hi </w>
.org /
mos tly</w>
fire works</w>
200 0</w>
sur ance</w>
ed om</w>
m m</w>
fe atures</w>
b an</w>
pref ecture</w>
ba th
n it
exam ples</w>
journ ali
ain s</w>
ac com
f at</w>
da mag
audi ence</w>
ni a</w>
in d
de p
week ends</w>
man aged</w>
M an
war ds</w>
psych ology</w>
child hood</w>
scre en</w>
se ction</w>
E L
construc tion</w>
tiv ity</w>
ain ing</w>
tech ni
ani me</w>
M exic
fi le</w>
os si
su it</w>
fa iled</w>
plac ed</w>
en tr
anal y
t a</w>
h h
D o</w>
b y
person ally</w>
ster ed</w>
gi ft</w>
ad ap
top ics</w>
B B
stru gg
p d
cat s</w>
es cap
e qu
health care</w>
includ e</w>
reach ed</w>
draw ing</w>
thr ow</w>
o d
l in
wi t
TO </w>
is ure</w>
mot or
n u
19 8
ne l</w>
prop er</w>
s day</w>
e dy</w>
gu ide</w>
en ess</w>
plan et</w>
ta tions</w>
fre edom</w>
sh own</w>
Tu esday</w>
qu ar
b sp</w>
person ality</w>
ang a</w>
T i
dem and</w>
scienti fic</w>
min ute</w>
auth or</w>
T ur
chat ting</w>
r ying</w>
particip ate</w>
difficul ties</w>
gh tly</w>
discus sion</w>
col our</w>
200 4</w>
practi se</w>
at ta
fi gh
ici ent</w>
n bsp</w>
200 5</w>
su me</w>
st ar</w>
ver age</w>
aff ected</w>
con clud
aff ect</w>
i mage</w>
TOE FL</w>
ec es</w>
mid night</w>
pas sion</w>
t our</w>
Wed n
mo on</w>
V al
depres sed</w>
I n</w>
d ata</w>
e m</w>
h ang</w>
de b
br uary</w>
wi shes</w>
super market</w>
# </w>
D an
m ate</w>
I T</w>
com mu
r om
clim bing</w>
des er
con duc
ru le</w>
og a</w>
f illed</w>
celebr ate</w>
lap top</w>
c ycle</w>
ar m</w>
sh y</w>
accep ted</w>
sig n</w>
through out</w>
f ever</w>
adv anced</w>
ir y</w>
c ell
k u</w>
t elling</w>
est ab
A c
on to</w>
la un
in struc
enti re</w>
dr unk</w>
mag ic</w>
ley ball</w>
rememb ered</w>
as ing</w>
C ar
cl o
hom es</w>
form er</w>
ei ght</w>
aw ar
blossom s</w>
d enti
o y
a to</w>
pri ze</w>
H </w>
incre di
all er</w>
k m</w>
M ac
W </w>
sal ary</w>
dr aw</w>
let ters</w>
bo at</w>
com ment</w>
Fe bruary</w>
electr onic</w>
at su
go d</w>
f as
eff or
se at</w>
hab its</w>
k id</w>
part ner</w>
en h
2 5
as soci
car ds</w>
prac ticing</w>
materi al</w>
prop os
pe ace</w>
for ms</w>
d less</w>
th ly</w>
prom ise</w>
in come</w>
cri sis</w>
sk in</w>
practi cal</w>
200 6</w>
refer ences</w>
em b
str ate
d ness</w>
exhau sted</w>
perf ec
foo t</w>
ter i
G ener
maj ority</w>
tr ust</w>
difficul ty</w>
effici ency</w>
behavi or</w>
stand ard</w>
O N</w>
expl ained</w>
m outh</w>
O M
alter native</w>
pl enty</w>
vol leyball</w>
frequ ently</w>
cha ir</w>
si ght
exi st</w>
ur </w>
i st</w>
F or
t ool</w>
pizz a</w>
fru str
al u
mar k</w>
nor m
in surance</w>
par ties</w>
mess ages</w>
adverti sing</w>
Asi an</w>
S te
innov ation</w>
g es</w>
en ted</w>
indu stri
c ry</w>
g ation</w>
consequ ently</w>
employ ment</w>
ci p
the ater</w>
te ams</w>
condi tion
ri se</w>
scienti sts</w>
O R
vehic le</w>
n d</w>
techn ological</w>
C entr
s at</w>
it ation</w>
P l
di r
produc ed</w>
ad dress</w>
mar ri
H ir
anc y</w>
effor ts</w>
grand mother</w>
foll owed</w>
e aten</w>
mis sed</w>
D s</w>
os en</w>
any body</w>
str ai
m ic
fa il
appe ar
tr y
Sch ool</w>
ob viously</w>
b le
my ster
ograph y</w>
suff er</w>
desig ned</w>
es ti
num bers</w>
sub way</w>
exerci ses</w>
un comfortable</w>
c over</w>
includ es</w>
arch it
decre ase</w>
dr u
oc cas
A fri
pi eces</w>
pic ked</w>
ex </w>
transl ate</w>
ther n</w>
J </w>
up set</w>
G oo
se x
int el
achi ev
cr ying</w>
ur sday</w>
1 3
u ce</w>
proper ly</w>
lec ture</w>
consequ ences</w>
go v
tit les</w>
versi ties</w>
n ames</w>
near by</w>
partic ularly</w>
pro jects</w>
consider ation</w>
A s
su rely</w>
w a</w>
gar bage</w>
other wise</w>
recomm end
techn ical</w>
reas onable</w>
M t</w>
appli ed</w>
step s</w>
ke ting</w>
Q u
ra ised</w>
nood les</w>
over seas</w>
coun ts</w>
Wedn esday</w>
men u</w>
e ag
for ced</w>
Twi tter</w>
m ary</w>
ener y</w>
jo gging</w>
rec ycling</w>
thous and</w>
ce ed</w>
di um</w>
coun try
c ked</w>
be d
tu be</w>
l oud</w>
am ing</w>
ad ed</w>
emb arr
de cl
pre si
ex hi
anci ent</w>
interest s</w>
C D</w>
f are</w>
j ams</w>
v ements</w>
survi ve</w>
Par k</w>
H a
ch osen</w>
hor ri
A M</w>
Sum mer</w>
du ces</w>
cont ent</w>
P h
o be
for est</w>
val ues</w>
ou l</w>
el ds</w>
al bu
e fully</w>
fl at</w>
visit ors</w>
up on</w>
where as</w>
I S
6 0</w>
a oke</w>
conver sa
c overed</w>
en th
some how</w>
t ee
country side</w>
ep iso
lear ners</w>
n ose</w>
prom ised</w>
bud get</w>
for gotten</w>
g ery</w>
head ache</w>
com for
aspe ct</w>
W ow</w>
bir th</w>
ag ue</w>
fas cin
perfec tly</w>
ali ve</w>
mat es</w>
m p
j ing</w>
ra ise</w>
pow erful</w>
deter min
degre es</w>
a verage</w>
gl asses</w>
in dependent</w>
mach ines</w>
d el
o very</w>
g ent
comm er
on ed</w>
1 7
organi z
1 9</w>
we ap
ment ally</w>
so ft</w>
uni versities</w>
Asi a</w>
t ells</w>
sp read</w>
poli tical</w>
c um
t or
Goo gle</w>
con tain
adv ent
l ady</w>
S ci
bal ance</w>
per cent</w>
sm oo
beli eved</w>
rec or
min ton</w>
. gov
sh aring</w>
r d</w>
regi stered</w>
a me</w>
sm ell</w>
w ood</w>
refer ence</w>
lead s</w>
li cen
conne cted</w>
k ore
o bli
pos t
be long</w>
u str
tur ns</w>
grat eful</w>
con sci
is ing</w>
un g</w>
tre at</w>
dr ed</w>
vi s
e en</w>
destro yed</w>
organi zation</w>
T ri
T his</w>
program mes</w>
sol ar</w>
des ire</w>
sh r
di ver
newsp apers</w>
sp ite</w>
bir ds</w>
. .</w>
no vels</w>
C up</w>
beli ev
k il
ow ner</w>
E g
sight seeing</w>
curi ous</w>
Th ursday</w>
P at</w>
regi on</w>
gener ations</w>
le ts</w>
h all</w>
swee ts</w>
contribu te</w>
s ad
h ang
impro vement</w>
tee th</w>
accom mod
c oll
pe ac
r ent</w>
suff icient</w>
b right</w>
2 1</w>
N uclear</w>
cri tical</w>
O U
am as</w>
ar ts</w>
tur ning</w>
2 2</w>
strong er</w>
lo cation</w>
sup pose</w>
sear ching</w>
di stri
ab or
fi x</w>
fri ed</w>
M ari
ee l</w>
1 1
norm ally</w>
H e</w>
Braz il</w>
pass eng
c ow
fun ds</w>
enth usi
reti rement</w>
sc enery</w>
p ul
min ded</w>
con vin
H ow</w>
com </w>
the me</w>
2 nd</w>
fl u</w>
har m
oppos ite</w>
clim ate</w>
fi ll</w>
engine er</w>
hun dred</w>
3 rd</w>
ill ustr
Nov ember</w>
se min
R es
pri mary</w>
an k
re ss</w>
bo ar
phr ases</w>
ok a</w>
des k</w>
lim it</w>
c k
oper ation</w>
transl ation</w>
provi ding</w>
re pli
b ow</w>
ex p
oc cu
f ans</w>
fee t</w>
ali for
sugge sted</w>
M ini
car bon</w>
ca kes</w>
fi elds</w>
correc tly</w>
cast le</w>
process es</w>
Americ ans</w>
sh ower</w>
emo tions</w>
oun d
st es</w>
answ ers</w>
sur gery</w>
f actor</w>
un less</w>
impres sion</w>
I N</w>
car to
il and</w>
Ear th</w>
appear ance</w>
Tha i</w>
M os
ro ll
ill ing</w>
n or</w>
tem ple</w>
m ir
A L
2 3</w>
bi tion</w>
ac ts</w>
sh ima</w>
shou l
tem por
y ellow</w>
deep ly</w>
. pd
st ances</w>
me ant</w>
reduc ed</w>
br and</w>
marri age</w>
C alifor
g ers</w>
w er</w>
sp i
mi gr
su st
ri ghts</w>
wa sh</w>
e th
be ar</w>
Nor th</w>
R o
a king</w>
hun ting</w>
sa uce</w>
de man
wa ited</w>
reg ularly</w>
conc ept</w>
N e
le vels</w>
ch in
de cor
bad minton</w>
N ew
str ang
Par is</w>
do ors</w>
web sites</w>
pron oun
an ge
charac teri
touri st</w>
ri cs</w>
Tha iland</w>
direc tor</w>
lo g</w>
op ening</w>
B ud
no ise</w>
rec ord</w>
@ </w>
ta sty</w>
gol f</w>
k ai
ha i</w>
R y
P ri
ter r
f ying</w>
adul t</w>
ol den</w>
ch n
damag ed</w>
har d
P ol
streng th</w>
ini ti
resear ch
be ings</w>
g ing</w>
par ks</w>
A K
prac ticed</w>
li gh
c ow</w>
wa it
rout ine</w>
st ood</w>
conclud e</w>
pre ven
aw ful</w>
Eg yp
leg al</w>
di al
disc over</w>
organi zed</w>
wri ter</w>
con st
dir ty</w>
separ ate</w>
app ed</w>
r os
ath on</w>
com edy</w>
ani mal</w>
figh ting</w>
au l</w>
correc ting</w>
cre ative</w>
Califor nia</w>
b it
u ri
lear nt</w>
em erg
licen se</w>
b ow
tax i</w>
t all</w>
us age</w>
high est</w>
we t</w>
Ar ab
hesit ate</w>
er a</w>
ch ances</w>
man u
embarr as
C o
gre w</w>
F in
great ly</w>
sta irs</w>
fac ing</w>
l ands</w>
M c
s en</w>
H an
colleag ue</w>
off ered</w>
ee k</w>
fl ower</w>
D r
Com m
B u
the sis</w>
infor m</w>
shir t</w>
lead er</w>
te dly</w>
d am
cir cum
s er</w>
inv esti
Fu ji</w>
sibili ties</w>
H ok
shor t
n ine</w>
S en
A M
fail ure</w>
F ir
luc k
fact ory</w>
di aries</w>
dis agree</w>
albu m</w>
in gre
An na</w>
argu ment</w>
Y ok
pro c
c ycling</w>
ad ing</w>
mo vement</w>
stom ach</w>
sk ating</w>
the ma
en a</w>
tele phone</w>
op pon
P i
sm aller</w>
la ke</w>
bus in
sugges tions</w>
smo ke</w>
fa shi
pu tting</w>
tr act</w>
vide os</w>
horri ble</w>
Se oul</w>
O kin
qu ick</w>
A N</w>
fru it</w>
ni ght
sub titles</w>
reg ul
speci ali
hi li
fl av
sc ary</w>
o ya</w>
bur den</w>
sty les</w>
Har ry</w>
I S</w>
4 5</w>
pref er
stres sed</w>
en om
os him
jap an</w>
strai ght</w>
1 6
assig n
op h
re vol
over all</w>
accommod ation</w>
cele bri
coo per
hon est
met al</w>
mar keting</w>
ap pl
P aul</w>
an tic</w>
l ou
ll a</w>
g n
a a
l oss</w>
cl aim</w>
awar eness</w>
compl ain</w>
D on
sp r
dr amas</w>
dev ices</w>
dep end</w>
sk ype</w>
fun ction</w>
ar ity</w>
ly rics</w>
sh ot</w>
const antly</w>
ingre di
A ng
discus sed</w>
ri min
qu es</w>
sh el
.htm l</w>
presi dent</w>
cri me</w>
in o</w>
adm it</w>
radi o
un known</w>
distri bu
S ha
fa il</w>
on e
ru sh</w>
ex plan
poli tici
bu n
B ei
lu x
K ar
ous in</w>
sp are</w>
th y</w>
can di
fall ing</w>
e vi
in fra
clos er</w>
g or
m anga</w>
mis sing</w>
surr oun
dr op</w>
n am</w>
d ess
R E
inven tion</w>
concer ns</w>
le gs</w>
op tions</w>
comple x</w>
fe e</w>
T S</w>
fe wer</w>
ac ted</w>
c ousin</w>
consum ption</w>
f ro
magaz ines</w>
g ate</w>
d ont</w>
l osing</w>
luck ily</w>
p it
meas ures</w>
age ing</w>
hor se</w>
lab or
ing ing</w>
ti ring</w>
d ay
s am
bro thers</w>
re fre
reli eved</w>
H u
class room</w>
P er
respe c
canc er</w>
car ried</w>
le isure</w>
e li
kin der
cour t</w>
ge tic</w>
thin ks</w>
wor e</w>
cre ating</w>
net work</w>
sh ar
under ground</w>
bl es</w>
Hok kai
fun ding</w>
incredi ble</w>
comfor t</w>
boar ding</w>
ham a</w>
com ic</w>
ex ten
cho osing</w>
pu p
sh oo
r ar
s outh</w>
ha haha</w>
dr ama
cho ices</w>
u tili
coun ter</w>
y oga</w>
A T</w>
m as
or i</w>
n ap</w>
P S</w>
N o
av es</w>
st one</w>
fini shing</w>
pre cious</w>
acc ent</w>
K o
Bei jing</w>
fac es</w>
v ey</w>
T om
ev alu
Mexic o</w>
b ags</w>
ph enom
che erful</w>
dist in
arti sts</w>
we ak
th rill
nat ur
gi es</w>
sa fer</w>
sel ling</w>
expen ses</w>
p ack
ha ven
it a</w>
fa ul
Hokkai do</w>
I sl
si sters</w>
S er
de mon
g ained</w>
land sc
mi </w>
we stern</w>
sol ved</w>
ener getic</w>
nor th</w>
z es</w>
harm ful</w>
oshim a</w>
it ting</w>
ani mation</w>
dang er</w>
clo thing</w>
I C
af t</w>
me ters</w>
hou sing</w>
uk i</w>
ha ir
L O
suc ceed</w>
haven &apos;t</w>
journali sts</w>
pe ts</w>
great est</w>
au </w>
ton gue</w>
IN G</w>
pro ve</w>
te ars</w>
hy dro
in si
dd en</w>
cl aim
sig ned</w>
mar ks</w>
O ly
lead ing</w>
Indi an</w>
rar ely</w>
S we
wa shing</w>
her self</w>
cor ner</w>
t ch</w>
bri dge</w>
ke en</w>
kee ps</w>
st uck</w>
pos es</w>
wa i
gre ater</w>
z er
challeng es</w>
r ound</w>
conversa tions</w>
L u
bath room</w>
impres sive</w>
ch am
W e
pr ay</w>
ide al</w>
m ass</w>
is m</w>
ad ded</w>
mus ici
s ful</w>
ten ance</w>
mu m</w>
n arr
F i
anno ying</w>
be at</w>
emp ha
Okin awa</w>
car ri
wor ld
sou ven
n one</w>
ti me
includ ed</w>
ma ils</w>
i dly</w>
Gener ation</w>
ob vious</w>
Fir st</w>
f s</w>
f ts</w>
assi stant</w>
be ef</w>
us er</w>
atta ched</w>
G e
ou </w>
effec tively</w>
i est</w>
deca des</w>
ene w
don es
rob ots</w>
in ations</w>
pr os
200 3</w>
Australi an</w>
encour aged</w>
Viet nam</w>
chec king</w>
b la
l li
2 9</w>
benef icial</w>
gr own</w>
che mi
dro ve</w>
prepar ation</w>
Dis ney</w>
ses sion</w>
escap e</w>
in k
requ est</w>
f la
repli ed</w>
fi xed</w>
demon str
be y
jo ke</w>
the ory</w>
att le</w>
wonder ed</w>
fle xi
g ri
laugh ing</w>
kinder gar
ex tent</w>
C l
tow ard</w>
sup er</w>
p apers</w>
tr o</w>
i di
or o</w>
clou dy</w>
fu </w>
inst all
mo de</w>
colle ct</w>
mar kets</w>
ob jec
dig ital</w>
disc rimin
publi shed</w>
F l
ga ther
radi ation</w>
liter ature</w>
conne ction</w>
um bre
si a</w>
ten se</w>
bir d</w>
cu st
be side</w>
foreig ner</w>
all ow
Centr al</w>
ref le
r enew
Yok o
P hili
co at</w>
stres sful</w>
thir ty</w>
flu ent</w>
te e</w>
bas is</w>
. s
t an
rap idly</w>
t le</w>
M edi
A le
s ore</w>
pa st
cri ed</w>
Mos cow</w>
cow or
eg gs</w>
In dones
contr oll
intel lig
Te chn
20 12</w>
sli ghtly</w>
ch ann
chin ese</w>
passeng ers</w>
presen ted</w>
con fir
Bar cel
natur ally</w>
jum p</w>
G olden</w>
in spe
Barcel ona</w>
ok u</w>
inci dent</w>
peac eful</w>
ess ed</w>
bas ically</w>
ro ll</w>
f our
bey ond</w>
cl in
Pol and</w>
g a</w>
O r
or es</w>
ang hai</w>
dri vers</w>
off ic
muse ums</w>
la stly</w>
br own</w>
law s</w>
ma thema
commer cial</w>
competi tive</w>
mis sions</w>
pain ful</w>
par ent</w>
cer ti
at tract</w>
mon it
direc t</w>
off icial</w>
imag es</w>
mo di
sh ine</w>
innov ations</w>
he avi
ic a</w>
er no
hop efully</w>
Hi gh</w>
cour age</w>
aff ects</w>
gg ed</w>
sun ami</w>
estab li
R ob
C lu
U N
poli te</w>
conne ct</w>
achi eved</w>
announ ced</w>
sm iled</w>
t our
rec over</w>
un able</w>
R om
reg ard</w>
drop ped</w>
m ur
pro file</w>
u plo
deci sions</w>
anc ou
H el
C P
memor ize</w>
i ll</w>
S i
fur nit
Mr s</w>
Mad rid</w>
err ors</w>
emp ty</w>
pas sing</w>
P ot
mat ure</w>
poll u
qu e
z u
S an</w>
2 6</w>
depen ding</w>
p ped</w>
consi sts</w>
ap ologi
Ali son</w>
journ als</w>
rela tively</w>
3 D</w>
tow ns</w>
cru cial</w>
lo ad</w>
ex t</w>
sing ly</w>
erno by
Yoko hama</w>
hosp it
ancou ver</w>
min im
hand le</w>
a id</w>
cam pa
P o
de aling</w>
r are</w>
en orm
call s</w>
H e
tar get</w>
bili ty</w>
mat ters</w>
p ot</w>
bo dies</w>
T ak
prin ted</w>
op hi
fac ts</w>
D u
Y O
sh ad
ad op
br an
laugh ed</w>
j e
sen si
si x
kn ess</w>
denti st</w>
an x
al d</w>
T em
appl ying</w>
econom ics</w>
sh ared</w>
ci l</w>
Ap ple</w>
as i
p en</w>
circum stances</w>
honest ly</w>
sever e</w>
Z </w>
prot ection</w>
ch em
oc ean</w>
a shi</w>
spir it</w>
ig n
sal t</w>
plan es</w>
S c
ill ness</w>
mean while</w>
M S
on y</w>
T a
S pe
rom antic</w>
g /
eag er</w>
V ancouver</w>
hol ding</w>
religi on</w>
ram en</w>
du m
che ese</w>
bru sh</w>
G i
tal ent</w>
Afri ca</w>
th ro
T here</w>
p ages</w>
ic y</w>
sc r
pre gn
reli able</w>
un t</w>
infra structure</w>
conf er
y aki</w>
pain t</w>
per form</w>
i sin
emerg ency</w>
om i
F R</w>
mar athon</w>
p al
arti st</w>
pe i</w>
h orr
dres sed</w>
furnit ure</w>
gre en
p ace</w>
doc tors</w>
surr ounded</w>
occur red</w>
Mi y
goo d
inv ite</w>
pu s</w>
at oes</w>
Nag oya</w>
sup ply</w>
L a
Clu b</w>
wind ows</w>
H eal
Chri sti
K i
st able</w>
ta x</w>
p ity</w>
advi se</w>
comp are</w>
Sh anghai</w>
phenom en
doc uments</w>
hydro gen</w>
lo c
pa th</w>
t oo
recogni ze</w>
kar aoke</w>
so ap</w>
semin ar</w>
cri min
E l
Dan ny</w>
tru ly</w>
classm ate</w>
agre ed</w>
P re
e y
am bi
ingredi ents</w>
om y</w>
ver b</w>
bu tt
reali sed</w>
wat er
N O
K a
B l
sc ale</w>
auth ori
est er
be t</w>
fac tion</w>
fun ctions</w>
se tting</w>
eal and</w>
anx ious</w>
correc tion</w>
d it</w>
% 20
weap ons</w>
shee t</w>
ay a</w>
we al
secon d
surpri singly</w>
Phili pp
b atter
T E
mul ti
az z</w>
wel fare</w>
p at
ti ps</w>
M in
main tenance</w>
ta stes</w>
I I</w>
dev ice</w>
st ence</w>
S C
deta il</w>
r oo
pos ted</w>
8 0</w>
kindergar ten</w>
tempor ary</w>
coun ting</w>
in str
manu fact
fre sh
b acks</w>
or d
col ors</w>
t un
che er</w>
s ity</w>
g as
ski ing</w>
experim ent</w>
sub si
thro at</w>
fun d</w>
work place</w>
i son</w>
ali zation</w>
s ang</w>
inter n
rele v
pri ority</w>
E ner
b on
spea ks</w>
sh ap
per spec
thous ands</w>
atten ding</w>
conf li
Mus e
ac cur
appro ach</w>
stat us</w>
Sci ence</w>
Pot ter</w>
t ools</w>
mi xed</w>
x es</w>
Ha wai
al es</w>
cor por
ev ol
T r
inven tions</w>
labor atory</w>
some time</w>
har m</w>
ar ms</w>
Tu be</w>
un like</w>
el der</w>
C or
cap ac
text book</w>
B us
conc ep
hop ing</w>
hur ry</w>
cont est</w>
or ders</w>
mus cles</w>
secre ts</w>
sh owing</w>
AN D</w>
d y
pu b</w>
research ers</w>
H A
ri sing</w>
emo tional</w>
on o</w>
T im
ig nor
ne g
W ar</w>
re main</w>
i ses</w>
T o</w>
k im
you th</w>
d ency</w>
recei ving</w>
sk illed</w>
ta sted</w>
Can adi
tri ps</w>
B ut
.s g/
20 0</w>
Muse um</w>
satis faction</w>
cr os
I s</w>
resi dents</w>
p uni
exc use</w>
S pr
Ch ernoby
clim b</w>
ke ys</w>
mom ents</w>
Singap ore
reduc ing</w>
es tic</w>
for mal</w>
tr end</w>
addi tionally</w>
sn acks</w>
phenomen on</w>
.pd f</w>
con tains</w>
tem p
challeng ing</w>
th in</w>
Z ealand</w>
g est</w>
dis count</w>
umbre lla</w>
grand father</w>
cat eg
wher ever</w>
her o</w>
disa sters</w>
gr ass</w>
coo led</w>
motiv ated</w>
after wards</w>
att ack</w>
behavi our</w>
pl ot</w>
inter pre
sa ved</w>
ent ine</w>
a kes</w>
mean ing
rele ase</w>
w est</w>
2 8</w>
clu bs</w>
A C
doc um
tim s</w>
me chan
net works</w>
posi tions</w>
l ying</w>
bott om</w>
pre h
impro vements</w>
sa ke</w>
ter y</w>
O ne</w>
re cip
for mation</w>
d ent
re place</w>
W eek</w>
sec tor</w>
educ ated</w>
ac ked</w>
sh ment</w>
techni ques</w>
Cam p</w>
invest ment</w>
mat ches</w>
7 0</w>
adverti sed</w>
bri lli
ab and
Y u
cre dit</w>
Ener gy</w>
cell phone</w>
E du
enorm ous</w>
pe trol</w>
tim ate</w>
s y</w>
fact ories</w>
n esses</w>
K ing</w>
fru its</w>
g are
bl ed</w>
su </w>
autom a
re st
mini str
li ons</w>
2 7</w>
l a</w>
cust om</w>
ma d</w>
ir ri
ne i
T or
H app
vic tims</w>
M il
P or
bad ly</w>
it ory</w>
bed room</w>
1 4
ani a</w>
scen es</w>
cu isin
grat ul
P u
pac ked</w>
fac ed</w>
uk u</w>
J o</w>
se ly</w>
foll ows</w>
Taiw anese</w>
adap t</w>
5 00</w>
p aying</w>
O O
to i
S U
h ell</w>
sti mul
gr ab
influ enced</w>
e missions</w>
pur poses</w>
f ol
success fully</w>
c ope</w>
dis appear</w>
ox ide</w>
l ot
adm ire</w>
f alls</w>
con sul
di a</w>
br ow
direc tion</w>
a head</w>
f ossi
educ ate</w>
air plane</w>
f lies</w>
politici ans</w>
sti ck</w>
relev ant</w>
purch ase</w>
Chernoby l</w>
pres er
eg g</w>
p ping</w>
radio active</w>
si bly</w>
far m
he ar
chemi stry</w>
serv ation</w>
fl ying</w>
C V</w>
ant a</w>
num erous</w>
tour nam
advent ure</w>
P al
grand parents</w>
ca using</w>
ter ia</w>
sc ar
employe e</w>
depres sion</w>
li c</w>
sp ot</w>
de mo
c over
call ing</w>
centr al</w>
horr or</w>
avo i
in sp
in dic
Braz ili
gu ests</w>
gr an
un happy</w>
B er
K im</w>
ag a</w>
jo y</w>
foc used</w>
ir ing</w>
hu mid</w>
rec ycle</w>
transl ated</w>
sal e</w>
pass age</w>
I M
comple ted</w>
hab it
U k
sk i</w>
pi on
episo de</w>
imag ined</w>
frustr ated</w>
lab </w>
be ll</w>
Eng ine
st ro
pu sh</w>
10 00</w>
past a</w>
z en</w>
Re actor</w>
memor i
se ats</w>
sug ar</w>
t sunami</w>
t ory</w>
le g</w>
competi tions</w>
de ly</w>
disc overy</w>
appoin tment</w>
2 3
du ty</w>
embarras sed</w>
ar g
Th ir
v ice</w>
snow ing</w>
p atter
sing ers</w>
enh ance</w>
pain tings</w>
d ates</w>
p un
an e</w>
suff ered</w>
implemen ted</w>
O k
0 s</w>
sh all</w>
class ical</w>
cri tici
ys is</w>
I T
re pair</w>
ain t</w>
environ mentally</w>
shoul der</w>
lar gest</w>
en se</w>
neigh bor
iP od</w>
disp os
c ore</w>
ac le</w>
H oll
es si
per c
hi de</w>
con gratul
n .
da iry</w>
grap h</w>
de ad
inven ted</w>
appreci ated</w>
lar ger</w>
s ac
S .</w>
a o</w>
oper ating</w>
concer ning</w>
wi ld</w>
re vi
Li fe</w>
concep ts</w>
t s
Spr ing</w>
j ac
se x</w>
instr uments</w>
o l</w>
Swe den</w>
tin y</w>
gh ted</w>
nei ther</w>
ycl es</w>
po ver
travel ed</w>
situ ated</w>
fossi l</w>
de te
re ments</w>
an ic</w>
occur </w>
fic ations</w>
cont ents</w>
P M</w>
invol ves</w>
com position</w>
Philipp ines</w>
bil lion</w>
Val entine</w>
determin ed</w>
it es</w>
iP ad</w>
l o</w>
lat ter</w>
E C
g ap</w>
inj ured</w>
C el
Mi ch
cri cket</w>
room mate</w>
pur su
a ster</w>
repor ted</w>
increas es</w>
J ack</w>
psych ological</w>
rain ed</w>
stop s</w>
I K
D avi
bu t
2 9
D oc
hand some</w>
O b
O R</w>
Bi g</w>
com preh
ci gare
kore an</w>
le ge</w>
prin t</w>
St ar
recogni zed</w>
uc lear
mm m</w>
clean ed</w>
G ood</w>
be aches</w>
chann els</w>
arr ang
ap par
S tre
a str
fic ate</w>
pl us</w>
r ou
sta tions</w>
effici ently</w>
wi dely</w>
is y</w>
re stri
Tai pei</w>
origin ally</w>
manufact ur
un usual</w>
k is
A h</w>
Edu cation</w>
explan ation</w>
v ital</w>
w oo
Hawai i</w>
s and
sk ir
prom ot
il es</w>
j am</w>
vi su
ro de</w>
concer ts</w>
particip ated</w>
pup ils</w>
dis counts</w>
bur ger</w>
gu ar
sp ac
L it
ach ing</w>
dis play</w>
d orm
dou ble</w>
deli ver
sol di
expl ore</w>
200 2</w>
separ ated</w>
na tion
cap able</w>
sen ding</w>
ph il
cam pus</w>
organi sed</w>
brilli ant</w>
expl o
d ney</w>
bl ing</w>
Thir dly</w>
characteri stics</w>
Canadi an</w>
sy n
four th</w>
P a
pover ty</w>
recommend ations</w>
Uk rain
You Tube</w>
com ics</w>
I EL
Fuku shima</w>
stitu te</w>
cre ates</w>
happ ily</w>
fi shing</w>
st ates</w>
dis ci
Ch ar
C O
gre s
na tions</w>
happ ier</w>
imag ination</w>
S ar
de my</w>
E N</w>
confer ence</w>
ur ban</w>
a unt</w>
heavi ly</w>
inv est</w>
f it
sou l</w>
n os
ec ast</w>
us eless</w>
he he</w>
Th ank</w>
program ming</w>
docum ent
capac ity</w>
N Y</w>
g ro
condition er</w>
repor ts</w>
t ori
broad cast</w>
addi cted</w>
di ag
ar my</w>
b ands</w>
sensi tive</w>
particip ants</w>
pos sibly</w>
ir o</w>
archit ecture</w>
W ester
hom eless</w>
par ti
shr ine</w>
Br ook</w>
os hi
teach es</w>
z on</w>
disc over
M or
p ack</w>
b om
for ecast</w>
Par ty</w>
custom s</w>
sch ed
disci pl
contr ary</w>
ob tain</w>
twi tter</w>
smoo thly</w>
cop y</w>
no isy</w>
Heal th</w>
n ic</w>
and a</w>
cli ents</w>
200 1</w>
L angu
strate gy</w>
expec tations</w>
op ti
requi rements</w>
ver se</w>
prom ote</w>
th i
tt able</w>
re action</w>
dom estic</w>
fe ed</w>
cr oss</w>
F a
exhi bition</w>
ca sh</w>
down town</w>
spi ri
di ving</w>
ha m</w>
organi se</w>
ad ditional</w>
p ay
Gre en</w>
V E</w>
terr ori
B A</w>
IEL TS</w>
jo kes</w>
arg uments</w>
ju ice</w>
el ed</w>
dis like</w>
expen di
surpri sing</w>
appro xim
fri ger
er ship</w>
E conom
begin ner</w>
gener ate</w>
R ed</w>
t ac
A ma
20 14</w>
than k
pati ence</w>
bott le</w>
j i
ar ily</w>
mathema tics</w>
dru gs</w>
Mal ay
H ouse</w>
celebri ties</w>
beg un</w>
jud ge</w>
g ases</w>
con tro
perform ed</w>
H un
O n
ob st
ath le
a de
tou ched</w>
infor med</w>
s and</w>
U .
Egyp t</w>
sudd en</w>
E ast</w>
.com </w>
cul ar</w>
J en
brea th</w>
S T
But ler</w>
sch ol
ven ess</w>
dist ances</w>
h oo
j us
chan nel</w>
fa me</w>
al le
mar ry</w>
n. d</w>
good bye</w>
renew able</w>
e ars</w>
S he</w>
green house</w>
Davi d</w>
t ant</w>
P le
pl ates</w>
a tional</w>
touri sm</w>
bur n</w>
ro bo
mor al</w>
tal ks</w>
fac ebook</w>
ol ine</w>
co al</w>
DV Ds</w>
re friger
authori ties</w>
N S</w>
To day</w>
f o
col der</w>
econom ical</w>
organi ze</w>
gener ated</w>
H O
tre ated</w>
be l
m ass
deb ate</w>
safe ly</w>
popul arity</w>
Ry an</w>
mee tings</w>
tra dition</w>
approxim ately</w>
pre dic
seas ons</w>
go ld</w>
comm it
daugh ters</w>
k able</w>
5 th</w>
por k</w>
k u
chat ted</w>
B ut</w>
secon ds</w>
mi x
sm iling</w>
expec ting</w>
a j
ul a</w>
dorm itory</w>
A i
b orr
Y a
os hi</w>
arr ange</w>
C he
sh ock</w>
elec tion</w>
un expected</w>
appli cations</w>
sust ain
N E
de c
second ary</w>
sur vey</w>
ci vi
d ying</w>
hi king</w>
op s</w>
ch er</w>
u me</w>
ra w</w>
sa v
as p
al arm</w>
ni ghts</w>
l er
se m
butt on</w>
tr ade</w>
institu tions</w>
far m</w>
blossom </w>
re placed</w>
/ 0
da i</w>
for ge
n ings</w>
attrac ted</w>
mas sive</w>
S anta</w>
al ty</w>
sta dium</w>
any ways</w>
I L
ear ning</w>
ali ties</w>
an ity</w>
ak u
ex act</w>
L uc
main tain
7 th</w>
swe at</w>
inter view
sin s</w>
are well</w>
O F</w>
myster ious</w>
di oxide</w>
intern ship</w>
lo ver</w>
-- --
fre ely</w>
landsc ape</w>
prom o
l ink</w>
bo iled</w>
resi dent</w>
fre e
dess ert</w>
sub m
Mini stry</w>
discrimin ation</w>
z oo</w>
consum ers</w>
c king</w>
ag ement</w>
fu els</w>
b ars</w>
fascin ating</w>
exi stence</w>
begin s</w>
w alls</w>
identi ty</w>
cle ver</w>
ti ous</w>
BB C</w>
tu tor</w>
coo k
Stre et</w>
M at
dre w</w>
to ys</w>
prin ci
faul t</w>
fin ger</w>
descri bed</w>
acc es
t ower</w>
ge ous</w>
sol ving</w>
it em</w>
Isl and</w>
cont ext</w>
house hold</w>
attrac tions</w>
regar dless</w>
de dic
re mar
dis appeared</w>
el a</w>
wa sting</w>
civi li
St ud
Tur key</w>
S o</w>
in te
ki pe
grad es</w>
sac ri
v y</w>
D es
ke y
encour aging</w>
oppon ents</w>
occu p
B al
r ow</w>
oc k
world wide</w>
ag gres
ma xim
sex ual</w>
por ts</w>
5 0
ele ments</w>
ri c</w>
hang ing</w>
ne ck</w>
co ach</w>
or al</w>
summ ary</w>
aff ord
Ti me</w>
st ands</w>
he ight</w>
wi ll
D ev
se cu
gor geous</w>
electri cal</w>
be an</w>
nam ese</w>
ec o</w>
ag on</w>
re minded</w>
un believ
any time</w>
M M
be long
short age</w>
divi ded</w>
t ary</w>
foo t
phil os
neighbor hood</w>
emplo yed</w>
col or
consci ous</w>
shir ts</w>
sugges tion</w>
H mm</w>
I D
wal let</w>
health ier</w>
ag ency</w>
s s
S am
pre di
j azz</w>
W il
des per
wor ries</w>
rob ot</w>
wa shed</w>
appe ars</w>
se ts</w>
c ure</w>
ra il
r ab
ris ks</w>
ari an</w>
hi ll</w>
gram ma
ten ed</w>
cir cle</w>
carri er</w>
m on</w>
sal on</w>
lo g
nor thern</w>
u g
ec ting</w>
Ple ase</w>
cal cul
cuisin e</w>
sear ched</w>
t reas
equ al</w>
rela tions</w>
or ange</w>
bu cks</w>
destro y</w>
on al</w>
he li
f arewell</w>
D .</w>
sele cted</w>
pronoun ce</w>
br inging</w>
poli tics</w>
tournam ent</w>
fit ness</w>
ar i</w>
X X
advertise ments</w>
Wester n</w>
celebr ated</w>
Happ y</w>
desig ning</w>
fif ty</w>
comb ination</w>
me tro</w>
t ab
r ang</w>
introduc ing</w>
as ide</w>
suppor ting</w>
e ast</w>
L ou
di str
wor rying</w>
b ins</w>
n uclear
s an</w>
y o
pos sibilities</w>
gro cer
m ac
allow een</w>
strugg ling</w>
reali stic</w>
W R</w>
busin esses</w>
car rying</w>
prof it</w>
s oo
offic er</w>
Wh y</w>
nood le</w>
broad ca
Bud d
colle ction</w>
perspec tive</w>
fic tion</w>
L E
W A
9 0</w>
bab ies</w>
om bi
che f</w>
bu </w>
A b
y u
P S
in depen
suc c
S NS</w>
hot els</w>
Hir oshima</w>
ass ess
L in
Sy dney</w>
g ad
reve al</w>
ob ject</w>
anal ysis</w>
we i
c ting</w>
bo ther
I m
re presen
Viet namese</w>
so li
cre a
flexi ble</w>
an i</w>
re minds</w>
surroun dings</w>
a qu
tiv als</w>
v it
afford able</w>
br ave</w>
J ack
ta il</w>
Doc tor</w>
weal th</w>
pic s</w>
reali se</w>
ch ap
c ing</w>
run s</w>
aw n</w>
objec tive</w>
narr ow</w>
p .
.ht m</w>
B el
strate gies</w>
re duces</w>
p an</w>
all er
sp icy</w>
F er
deman ds</w>
al ed</w>
volunte ers</w>
app le</w>
c tive</w>
k g</w>
dis order</w>
ign ore</w>
sun shine</w>
lou dly</w>
cr am</w>
di v
O f</w>
P en
compreh en
to y</w>
color ful</w>
ade qu
snow boarding</w>
drama tically</w>
v ago</w>
b alls</w>
deli ghted</w>
k ne
techni que</w>
ga ther</w>
Langu age</w>
b ase</w>
P ower</w>
Kore ans</w>
C E
nu tri
phys ically</w>
K u
, 000</w>
ici ency</w>
h ire</w>
M and
f ed</w>
An d</w>
per su
A B
le ague</w>
bu ll
campa ign</w>
cl er
shad ow</w>
ac king</w>
suppor ted</w>
contin ues</w>
art work</w>
hop ed</w>
remain s</w>
compar ison</w>
consequ ence</w>
Techn ology</w>
I s
ar in</w>
sta ti
r hy
h in
conduc ted</w>
Fri ends</w>
e vil</w>
M ic
per cent
dist ur
le a
clin ic</w>
m in</w>
ap est</w>
phot ograph
pregn ant</w>
d ant</w>
f loo
bur ning</w>
trou bles</w>
h o</w>
N at
su its</w>
li </w>
be cu
Tri vago</w>
ci vil</w>
kil ome
work force</w>
lead ers</w>
S a
fes tivals</w>
stu ff
ter ed</w>
Di ary</w>
sal ad</w>
extre me</w>
b es</w>
Gre at</w>
so y</w>
k k
c y
fortun e</w>
fe ature</w>
al y</w>
bi kes</w>
ques tion
see k</w>
e ting</w>
hard working</w>
S qu
lec tur
gu il
Ali ce</w>
l os
acqu ire</w>
arrang ed</w>
tra sh</w>
squ are</w>
assign ment</w>
Col lege</w>
el op
war mer</w>
Wh o</w>
J e
S an
phot o
ee ded</w>
b al</w>
est ing</w>
communic ating</w>
propos al</w>
disappoin ting</w>
YO U</w>
ra ising</w>
instruc tor</w>
T ran
an xi
par ag
me d
evi dence</w>
ch an</w>
dres ses</w>
H alloween</w>
p he
sa ves</w>
produc ing</w>
fe es</w>
un cle</w>
on ing</w>
anno yed</w>
je ans</w>
earthqu akes</w>
ex posed</w>
cooper ation</w>
decre asing</w>
as y</w>
sil ly</w>
en s
K at
bla me</w>
fashi onable</w>
ex ec
candi date</w>
m ap</w>
wri ters</w>
T er
Don ald</w>
re pu
an ni
toi let</w>
vers ary</w>
aw k
sec ure</w>
industri al</w>
signific antly</w>
p ink</w>
b erry</w>
cham pion
h oku</w>
employ ers</w>
tax es</w>
tra di
mi th</w>
OM G</w>
co de</w>
par tment</w>
hum or</w>
pre mi
C a
C enter</w>
jo ining</w>
ul ed</w>
4 5
… </w>
SC WR</w>
cab in</w>
crow d</w>
inten ded</w>
mod els</w>
Dev elop
be ans</w>
percent age</w>
man ner</w>
rou te</w>
un forge
mag nific
prin ting</w>
hospit als</w>
organi sing</w>
k illing</w>
sp ots</w>
- year</w>
cam ping</w>
p e</w>
trans fer</w>
ad ministr
de fini
les s
dis advantage</w>
refre shed</w>
irri t
win dy</w>
: 00</w>
con stant</w>
grand ma</w>
in y</w>
Tim es</w>
R u
unbeliev able</w>
ab led</w>
oper a</w>
Po lish</w>
e k</w>
phys ics</w>
gar d
M ary</w>
enthusi as
fic ally</w>
ak a</w>
intellig ent</w>
re s
us e
W al
S wit
entertain ing</w>
6 th</w>
Sar ah</w>
regul ations</w>
j ected</w>
r ude</w>
Se a</w>
w ars</w>
vill ages</w>
Th at</w>
desig ns</w>
di strict</w>
jum ped</w>
th or
mi so</w>
in her
y er</w>
in tend</w>
3 1</w>
der ing</w>
cu tting</w>
um n</w>
as u</w>
borr owed</w>
in se
zer land</w>
re sort</w>
fin ds</w>
text books</w>
kin dness</w>
gi fts</w>
identi fy</w>
3 00</w>
com edi
recor ded</w>
strang ers</w>
mechan ical</w>
gas oline</w>
exi sting</w>
om s</w>
ther ap
Sha k
tal ented</w>
W ri
hou </w>
20 th</w>
ak u</w>
tri al</w>
sm art
deser ve</w>
T est</w>
z one</w>
vi sible</w>
R O
Swit zerland</w>
L ee</w>
bow l</w>
ag ent</w>
fri gh
sur face</w>
t ments</w>
y wood</w>
mm a</w>
r ow
souven irs</w>
Jan e</w>
Mac </w>
ac cess
ref used</w>
i tion</w>
expendi ture</w>
a ti
enter ing</w>
Indones ia</w>
L ove</w>
ch y</w>
A v
speci es</w>
o ven</w>
quali fications</w>
sch e
im migr
8 th</w>
ow ned</w>
scri pt</w>
not ebook</w>
k ura</w>
desig ner</w>
fee d
experim ents</w>
phot ography</w>
M y
sym bo
accep table</w>
tr op
ag ri
gol den</w>
lo ck</w>
super markets</w>
M ur
to ler
te am
un necessary</w>
1 .
insp ired</w>
ur g
fro zen</w>
mo ves</w>
z u</w>
C N
en der</w>
cent res</w>
ologi st</w>
th ick</w>
w aves</w>
batter y</w>
stru ment</w>
contro versi
dre amed</w>
a wake</w>
p ha
sil ver</w>
organiz ations</w>
st ock</w>
gen i
sc o</w>
be have</w>
f li
fin gers</w>
Ar t</w>
bri de</w>
cook ies</w>
lux ury</w>
3 5</w>
so on
Pe ter
N ar
k no
De partment</w>
repe at</w>
.gov /
di cul
v s</w>
su peri
pl at
inv itation</w>
per for
inno cent</w>
sel dom</w>
in strument</w>
f ond</w>
in ev
out door</w>
C á
D o
sup pli
v an</w>
org anic</w>
19 7
G ene
rec ycl
D re
mi x</w>
den y</w>
y u</w>
su ici
CP F</w>
acqu ain
shi ft</w>
cou sins</w>
thre w</w>
As soci
chi ps</w>
pr ai
book store</w>
re sume</w>
t te</w>
nee dless</w>
act ual</w>
mil lions</w>
coo l
r ural</w>
convin ced</w>
soon er</w>
st ol
mi stic</w>
11 th</w>
l ow
unforge ttable</w>
Malay sia</w>
p ap
il legal</w>
in spir
ban ned</w>
ash amed</w>
hun dre
innov ative</w>
V ic
ma ker</w>
hun g</w>
6 5</w>
ol dest</w>
pri me</w>
er al</w>
men d
H on
sc u
con s</w>
dis gu
blo gs</w>
u u
in sul
vis a</w>
B ook</w>
over time</w>
on ics</w>
l in</w>
laun dry</w>
b ac
guar an
view ing</w>
c enti
sym p
pain ted</w>
musici ans</w>
pollu ted</w>
BB Q</w>
revol ution</w>
re pa
assi stance</w>
represen ta
re m
associ ated</w>
tur ed</w>
Wh en</w>
gather ed</w>
r ose</w>
thre at</w>
poin ted</w>
at ar</w>
qu anti
New s</w>
s na
r or</w>
Tor onto</w>
rhy th
tre mend
S ak
mp ic</w>
A P
M s</w>
Shak espe
awk ward</w>
establi shed</w>
pu zz
magnific ent</w>
mean ings</w>
r um
es tion</w>
ti an</w>
dom in
Bri tain</w>
perfor man
C H
ess ays</w>
ab sor
rain bow</w>
B a
roll ed</w>
remar kable</w>
rec eption</w>
vi et</w>
The y</w>
S mith</w>
occas i
feed back</w>
. edu
dent ally</w>
parag rap
young est</w>
near est</w>
I R
sig ns</w>
train ed</w>
quali fied</w>
Ob ama</w>
quar ter</w>
atsu </w>
st ated</w>
respon d</w>
mo thers</w>
se tt
Fuku oka</w>
Ko be</w>
b attle</w>
hundre ds</w>
re ven
shap ed</w>
ser ving</w>
.gov .sg/
crea tivity</w>
sil ent</w>
re move</w>
Brazili an</w>
produc tive</w>
M el
C oo
propos ed</w>
shou ted</w>
satis fy</w>
fa ir
v ast</w>
appar ently</w>
studi o</w>
philos oph
deliver ed</w>
To hoku</w>
claim ed</w>
M ag
it age</w>
F re
o tic</w>
strugg le</w>
im i</w>
performan ces</w>
sil ence</w>
A ri
po cket</w>
bar ely</w>
L A</w>
swi tch</w>
Holl ywood</w>
doll ar</w>
ay er</w>
ann ual</w>
certi ficate</w>
pre viously</w>
mass age</w>
lo ving</w>
visu al</w>
w ing</w>
d ating</w>
teenag er</w>
wa sted</w>
ri dicul
chem ical</w>
4 0
D S</w>
ali zed</w>
E S</w>
contr act</w>
e u
progre s
You tube</w>
d or
maj oring</w>
o h</w>
us a</w>
ud es</w>
exper ts</w>
re source</w>
I F
ab sent</w>
ac comp
in ner</w>
bre e
ei gh
H er
ag awa</w>
sh ame</w>
cur ri
lo gical</w>
exam inations</w>
stol en</w>
install ed</w>
thrill er</w>
pack age</w>
hi dden</w>
ren ted</w>
rec ru
sand wi
o vers
ad dic
ough ly</w>
ph ar
Mand arin</w>
Develop ment</w>
fall en</w>
i ds</w>
flav or</w>
automa tically</w>
wh eel</w>
per sons</w>
ol s</w>
ma ster
clou ds</w>
ang 8</w>
le an
om a</w>
b arri
Shakespe are</w>
develop ments</w>
the dr
enthusi astic</w>
some what</w>
de fe
A L</w>
est ed</w>
ti e</w>
ama zed</w>
exc it
inter act</w>
lo vers</w>
ag i</w>
time table</w>
shor ter</w>
lectur er</w>
gar lic</w>
monit or</w>
s ounded</w>
f at
ro les</w>
P at
re mind</w>
obe sity</w>
sor ts</w>
200 9
Wh ite</w>
C oun
fun dam
deli very</w>
S P
clean er</w>
c ells</w>
plan ted</w>
pl ate</w>
car ing</w>
ha ted</w>
adequ ate</w>
So viet</w>
religi ous</w>
A R</w>
v ul
ti al</w>
brea king</w>
gr ounds</w>
A G
sch oo
fi s
S app
b other</w>
un ic
trav elled</w>
cou ples</w>
li qu
con tain</w>
cr ops</w>
sp ar
com mon
sh u
blo om</w>
deli ver</w>
su ming</w>
day time</w>
dre aming</w>
mini ster</w>
Sen dai</w>
M .</w>
carto ons</w>
ma tic</w>
cri mes</w>
ref use</w>
repu tation</w>
err or</w>
mi ser
k an
tra its</w>
regi ster</w>
p ure</w>
p al</w>
Ama zon</w>
read ers</w>
T an
ki ss</w>
din ing</w>
x x
adv anc
t ons</w>
neg le
descri ption</w>
j un
d ential</w>
eli min
nur se</w>
oc key</w>
av ed</w>
ti ght</w>
Ukrain e</w>
conven tional</w>
sor y</w>
fr ag
vir us</w>
s a</w>
sele ct</w>
Squ are</w>
ach ed</w>
A .</w>
Ge or
distin gui
Sapp oro</w>
exp and</w>
C af
T su
promo tion</w>
ow ners</w>
dedic ated</w>
M as
j unk</w>
cli ent</w>
m are</w>
kin dly</w>
inte gr
ari um</w>
gradu ating</w>
ee p</w>
treas ure</w>
increas ingly</w>
anni versary</w>
win ner</w>
n ick
jac ket</w>
too th</w>
ic kness</w>
speci fically</w>
t one</w>
ber g</w>
rec overed</w>
s .
bi ll</w>
Por tu
J as
comm unities</w>
hel lo</w>
brea ks</w>
sus pen
oo s</w>
S ur
B lack</w>
cen ters</w>
ca f
A f
for d</w>
sad ness</w>
sav ings</w>
eng ine</w>
pro s</w>
ot a</w>
preven ted</w>
F am
lec tures</w>
recommend ation</w>
es sion</w>
B re
liter ally</w>
vi vi
part ners</w>
P resident</w>
i al</w>
Sh inj
confir m</w>
A sh
di </w>
ar re
beli ef</w>
ser ves</w>
meaning ful</w>
B ir
struc tion</w>
ter nal</w>
K en
aband oned</w>
A m
for th</w>
sun g</w>
Oly m
down load</w>
Star bucks</w>
S al
p ol
arri val</w>
Mr .</w>
g am
tw el
ex tra
el ly</w>
prop or
ele v
chocol ates</w>
inspe ction</w>
ci a</w>
or a</w>
ne phe
ru p
pas ses</w>
J ames</w>
ac les</w>
coll ap
se ven
C u
di a
S ara</w>
ast oni
refriger ator</w>
C Ds</w>
Hi story</w>
al a</w>
F un
dru g</w>
h at</w>
expl os
sof a</w>
wh o
mus cle</w>
concentr ation</w>
stro ke</w>
underst and
E ve</w>
ee ee
ang k
15 th</w>
un pleasant</w>
n ic
O ct</w>
k ill
na tives</w>
neighb or</w>
bott les</w>
quar re
s ence</w>
Budd hi
Ste ph
ow ning</w>
stor m</w>
st am
ok o</w>
s light</w>
carto on</w>
Ri ver</w>
mic row
schol ar
Pro f
for ces</w>
en vy</w>
a sh</w>
comm itted</w>
continu ously</w>
5 0%</w>
Ju li
p ants</w>
act ress</w>
mir ror</w>
oli c</w>
A ni
t ance</w>
ti veness</w>
h ockey</w>
um my</w>
E i
con qu
kin g
J our
impro ves</w>
es /
form ed</w>
soldi ers</w>
assess ment</w>
g ant</w>
lot tery</w>
rain s</w>
ab e</w>
Y es</w>
E very
app ing</w>
fa st
reduc tion</w>
fresh man</w>
Pr in
cowor kers</w>
Christi an</w>
is a</w>
Y our</w>
ridicul ous</w>
O S</w>
C ri
reli ef</w>
motor cycle</w>
read s</w>
2 1st</w>
str aw
d awn</w>
e fs</w>
sched uled</w>
net working</w>
house work</w>
ossi p</w>
imp acts</w>
h h</w>
G en
gen es</w>
mon uments</w>
wi s
ang o</w>
W at
Oly mpic</w>
plac ement</w>
strang er</w>
tit led</w>
fif teen</w>
hy dr
ari se</w>
col ours</w>
sa i</w>
for ty</w>
D ani
Hel en</w>
ic als</w>
N ight</w>
viol ence</w>
br ands</w>
enthusias m</w>
C ham
ous ness</w>
M u
In stitute</w>
su bur
myster y</w>
for give</w>
remain ing</w>
achiev ement</w>
champion ship</w>
ali st</w>
li ft</w>
lear ner</w>
e ties</w>
thank ful</w>
at tit
camer as</w>
B as
ac counting</w>
Sc ot
ell a</w>
B ul
co ast</w>
b in</w>
S il
o gue</w>
ound ation</w>
anxi ety</w>
pot ato</w>
deca de</w>
R ome</w>
deser ves</w>
fortun ate</w>
comfort ably</w>
in convenient</w>
import antly</w>
commu te</w>
bull ying</w>
Sh in
z e
mar tial</w>
the tic</w>
as aki</w>
ri vers</w>
n i</w>
.htm l
controversi al</w>
deter mine</w>
sh ut</w>
acc um
re presents</w>
di lig
g ated</w>
ho le</w>
sen i
d ated</w>
organi zing</w>
In formation</w>
E aster</w>
D en
ul ty</w>
oooo oooo
M other</w>
M e</w>
desig ners</w>
regar ded</w>
gh ost</w>
nick name</w>
wei gh</w>
gu ard</w>
c ement</w>
inter views</w>
s ophi
c ock
ut ch</w>
accum ul
sun set</w>
stand ards</w>
y m
young sters</w>
E r
bic ycles</w>
si ghts</w>
Singapore ans</w>
refle ct</w>
prin cip
lu gg
V ER
off ering</w>
argu ed</w>
clos ely</w>
att acks</w>
at om
po d</w>
b ach
z hou</w>
lo y
i ed</w>
pas sport</w>
M Y</w>
A ut
pas sive</w>
lon gs</w>
C an</w>
in door</w>
rela tive</w>
ur o</w>
anc est
pas sion
medi um</w>
g aining</w>
l ay</w>
discus sing</w>
m ask</w>
bar becu
f al
sc ores</w>
ec ological</w>
fun c
uri ous</w>
ad just</w>
o &apos;
tom ato</w>
en able</w>
pro of</w>
a ur
Fu ture</w>
rhyth m</w>
lead ership</w>
recip e</w>
aggres sive</w>
o&apos; clock</w>
l am
th ri
Jo e</w>
emo tion</w>
ick ens</w>
li c
J .</w>
draw backs</w>
agre ement</w>
00 00</w>
op p
vol ume</w>
fl ow</w>
r ental</w>
win s</w>
commu ting</w>
coun cil</w>
inv ent</w>
bur g</w>
un a</w>
li ps</w>
I G
direc ted</w>
R og
boo ked</w>
thre at
bal let</w>
n on
r ates</w>
custom ed</w>
Engine ering</w>
twel ve</w>
tan e
ain ts</w>
sk y
wi shed</w>
D a
our ed</w>
G ar
I ON</w>
S tation</w>
S ta
as ser
char ity</w>
G ir
cal end
sche me</w>
in stant</w>
Ma x</w>
la sted</w>
tt es</w>
j eal
gu est</w>
night mare</w>
m ouse</w>
meas ure</w>
stati stics</w>
Lou is</w>
A D
chap ter</w>
S tu
sl ang</w>
th a</w>
a stern</w>
mon thly</w>
thr owing</w>
man kind</w>
pro ved</w>
shoo ting</w>
bo xes</w>
kim ono</w>
om ing</w>
ac customed</w>
air s</w>
b our
en counter</w>
cli ck</w>
Col ombi
G o
div or
A ca
u ps</w>
ab </w>
stri c
assign ments</w>
neighb our
H ot
sp elling</w>
C la
f ice</w>
contribu ted</w>
sophi sti
accomp lish</w>
pot atoes</w>
but ter
bar a</w>
out standing</w>
sym pa
bal anced</w>
suici de</w>
fle w</w>
m ess</w>
O ver</w>
li f
pu ll</w>
A V
Mari a</w>
inter action</w>
ru pt</w>
T R
en ables</w>
rel ation</w>
holi c</w>
K ate</w>
cul um</w>
C ir
c ant</w>
m ly</w>
ac i
ru shed</w>
hur ts</w>
on ally</w>
lugg age</w>
am us
Uni on</w>
ing ton</w>
pri son</w>
ti te</w>
fav or</w>
l eng
hor ses</w>
Jack son</w>
sacri fice</w>
A Y</w>
f ought</w>
cool ant</w>
H ak
s k</w>
J es
tem ples</w>
rec all</w>
E E
L at
S t</w>
z i</w>
r ough</w>
struc tures</w>
en di
lim it
ref lec
sustain able</w>
ac </w>
S H
gr as
up date</w>
Th ree</w>
uni on</w>
gent le</w>
R el
all ery</w>
A re</w>
y y
compe te</w>
fundam ental</w>
m p</w>
p se</w>
celebr ation</w>
att acked</w>
t ents</w>
um p</w>
produc tivity</w>
for ests</w>
ill nesses</w>
p per</w>
am i
bab y
fin ance</w>
estab lish</w>
episo des</w>
heav en</w>
class ic</w>
rab bit</w>
sti c
in gu
sim ul
contribu tion</w>
bo ost</w>
multi ple</w>
tou ching</w>
d ental</w>
ten sion</w>
tex ts</w>
d am</w>
nur sing</w>
A ki
controll ed</w>
C ast
Pu bli
y ummy</w>
3 3</w>
win ning</w>
ali sm</w>
1 4th</w>
al right</w>
eas iest</w>
5 %</w>
es tim
s la
C E</w>
read er</w>
b t
extra ordinary</w>
Arab ic</w>
di stant</w>
ear ch</w>
b orrow</w>
sel fish</w>
quanti ty</w>
wis dom</w>
St ate</w>
oper ate</w>
cler k</w>
La ura</w>
kipe dia</w>
enter tain</w>
C ul
be l</w>
inj ury</w>
obst acles</w>
M ay
S in
um a</w>
em on</w>
graph ic</w>
g ay</w>
vege table</w>
a tion
bl ack
gran ted</w>
u re
sup ple
influ ences</w>
up per</w>
continu ous</w>
bi o
attit udes</w>
beli efs</w>
C at
k in</w>
n ity</w>
min i</w>
common ly</w>
is ol
sad ly</w>
hu mi
bran ch</w>
er ts</w>
expl ains</w>
M E</w>
os ity</w>
cha irs</w>
man aging</w>
industri es</w>
2 :
H y
pro vin
amoun ts</w>
K it
\ </w>
respon sibilities</w>
Jas on</w>
exi sts</w>
p ill
c m</w>
pro duces</w>
re solution</w>
anci sco</w>
gradu ates</w>
Olym pics</w>
ten ds</w>
mil es</w>
rout es</w>
confli ct</w>
ki sh</w>
tradi tions</w>
t ack
sophisti cated</w>
cal ories</w>
photograph s</w>
decre ased</w>
shee p</w>
sup per</w>
trans fer
diver ted</w>
acces sible</w>
b o</w>
et ti</w>
st ages</w>
p a</w>
resul ted</w>
shoc king</w>
every time</w>
si gh</w>
Ne ther
crimin als</w>
H am
coo ler</w>
excit ement</w>
bl ind</w>
in t</w>
ol f</w>
de al
kilome ters</w>
a gh
sh o
T ower</w>
ful fill</w>
accur ate</w>
el f</w>
lim its</w>
cowor ker</w>
occasi onally</w>
L an
un doub
inse cts</w>
pic nic</w>
B angk
maxim um</w>
lab or</w>
. 00</w>
neighb ors</w>
rac es</w>
advi sed</w>
cru el</w>
Shinj uku</w>
cre atures</w>
can e</w>
trou ble
S tr
13 th</w>
Bus iness</w>
ev en
medi ate</w>
ste al</w>
philosoph y</w>
bro ad</w>
m .</w>
head ed</w>
fascin ated</w>
H um
mo vements</w>
evalu ate</w>
T hom
F or</w>
citiz en</w>
A sa
Chi ba</w>
sh ining</w>
L o
re turning</w>
pos ting</w>
V ery</w>
de a
cri tics</w>
process ing</w>
tu me</w>
a er
ad mission</w>
Cam bridge</w>
jum ping</w>
ignor ed</w>
M O
glob alization</w>
per m
Mar t
j u</w>
H ome</w>
rill ed</w>
enc ing</w>
bi ology</w>
2 2
pap er
c ited</w>
defin ed</w>
calend ar</w>
el dest</w>
pr e</w>
pursu e</w>
be longs</w>
wan ting</w>
Di rec
superi or</w>
exc eption</w>
pul led</w>
pun c
v ation</w>
decl ine</w>
deci des</w>
exha ust</w>
un familiar</w>
W ind
canc eled</w>
representa tive</w>
defin e</w>
un healthy</w>
li t</w>
s ickness</w>
b ou
busin ess
amus ement</w>
tem pt</w>
motiv ate</w>
har v
thedr al</w>
inter nal</w>
smoo th</w>
sa iling</w>
vo ices</w>
is lands</w>
therap y</w>
cr aft</w>
Aut umn</w>
ten dency</w>
E D</w>
m un
gr av
t wee
musici an</w>
y ard</w>
encour ages</w>
undoub tedly</w>
diver se</w>
ch est</w>
high way</w>
cer es</w>
kill er</w>
hom est
st ones</w>
work shop</w>
m al
spac es</w>
cos tume</w>
on omi
che str
f illing</w>
sp a</w>
spr ings</w>
comp ul
l ers</w>
Cá ceres</w>
pu shed</w>
g rilled</w>
Tem per
dispos al</w>
n one
defini tion</w>
differ ently</w>
pres ence</w>
b ills</w>
sur ed</w>
sus pe
ham burger</w>
fif th</w>
To y
onomi yaki</w>
V en
Mar k</w>
motor bike</w>
bt w</w>
reve aled</w>
C al
exper t</w>
H en
tom s</w>
vir tual</w>
go ti
ro of</w>
ac compli
W H
boo ts</w>
curri culum</w>
draw n</w>
audi o</w>
Bangk ok</w>
o dy</w>
transl ating</w>
W all</w>
week days</w>
as sume</w>
ur ai</w>
E lec
ug ly</w>
U. S.</w>
A ll</w>
ini sts</w>
Ar gent
Mini ster</w>
.. ..</w>
in ary</w>
ch eri
la dies</w>
robo tics</w>
O ff
ang er</w>
wh el
trac king</w>
ha ha
temper atures</w>
st an</w>
sp agh
investi gation</w>
inten tion</w>
sur f</w>
na sty</w>
prot ecting</w>
si zed</w>
S FR</w>
co inci
uplo ad</w>
D utch</w>
te l</w>
view ers</w>
blo ck</w>
H K</w>
m ol
Pal ace</w>
W in
symbo l</w>
kitch ens</w>
bit ter</w>
si vely</w>
poll ute</w>
none theless</w>
r and
fir m</w>
s ke
Fr ancisco</w>
fa ke</w>
Caf e</w>
10 th</w>
parti ally</w>
mon ster</w>
appe tite</w>
necess ity</w>
z a
se lec
b en
colle cted</w>
b os
ou ts</w>
man ners</w>
ent re
aim s</w>
st un
vers al</w>
Ph il
kore a</w>
4 8</w>
W est</w>
cas ual</w>
aca demy</w>
P oli
col ored</w>
lux urious</w>
overs le
dead line</w>
compl aining</w>
ank ly</w>
ele ven</w>
t less</w>
li vely</w>
B ur
ha y</w>
G M</w>
occur s</w>
distribu ted</w>
guil ty</w>
ex pos
regi ons</w>
1 50</w>
Fe b</w>
m ales</w>
ter min
miser able</w>
Mc Donald</w>
s or</w>
p il
over whel
dam n</w>
C as
K ing
Mexic an</w>
MS N</w>
mach inists</w>
SU MM
N et
S ou
ill a</w>
We b</w>
del ay</w>
CO 2</w>
do or
ap es</w>
t ful</w>
surroun ding</w>
bur gers</w>
k ick</w>
d ently</w>
ex pan
A ir
prefer red</w>
com posed</w>
ob tain
prot ected</w>
you tube</w>
indepen dence</w>
equip ped</w>
out come</w>
V er
succ eeded</w>
i ve</w>
M er
2 4
S us
activ ely</w>
shoo t</w>
a .
predic table</w>
R os
S how</w>
all owing</w>
S ec
of t</w>
geni us</w>
friend ships</w>
bo o</w>
m ani
co ordin
struc k</w>
gard ens</w>
A I
CN N</w>
cos tum
hear ted</w>
out put</w>
viol ent</w>
19 6
microw ave</w>
a ked</w>
princip al</w>
U mm</w>
conf using</w>
arti f
am bul
w are</w>
im por
op en
at temp
Nether lands</w>
nu ts</w>
oppon ent</w>
jus tice</w>
g un
M an</w>
implemen tation</w>
gr a
distribu tion</w>
habit ants</w>
homest ay</w>
pic k
E m
arr ange
Sun </w>
2 7
b less</w>
&quot ;
T ex
w rest
bu l</w>
vul ner
maintain ing</w>
consi st
m alls</w>
s .</w>
spec tac
soci ali
25 th</w>
A g
SUMM ER</w>
ov </w>
ak o</w>
pu ri
ho o</w>
dum pl
ser y</w>
00 pm</w>
po d
sli m</w>
ur t</w>
chil ly</w>
Z Z
M atsu
b order</w>
inter ior</w>
ed ure</w>
spagh etti</w>
princi ples</w>
199 9</w>
crimin al</w>
Res earch</w>
de struction</w>
ab use</w>
b one</w>
tremend ous</w>
gre eting</w>
R ock</w>
bur ned</w>
t ually</w>
con suming</w>
rail way</w>
farm ers</w>
se es</w>
fair ly</w>
pro ven</w>
trouble some</w>
tr age
R adi
ver bs</w>
off ici
pr ene
el or</w>
Rom an</w>
ty ping</w>
grocer y</w>
conduc t</w>
C ha
ani um</w>
3 3
oo ps</w>
infor ma
Sy stem</w>
ser endi
autom o
assi st</w>
Com p
electr onics</w>
scr at
d n
ba ked</w>
cos tly</w>
transl ator</w>
for bi
c able</w>
wa ve</w>
el ing</w>
hot ter</w>
fa iry</w>
g un</w>
fer tili
ch ain</w>
8 0
W on
K im
z zy</w>
di d
R am
grab bed</w>
re servation</w>
T en
gad gets</w>
compar ing</w>
dor m</w>
es sive</w>
passion ate</w>
ch ina</w>
obli gation</w>
os ts</w>
presen tations</w>
su pri
hol ds</w>
J an</w>
lo aded</w>
100 %</w>
scholar ship</w>
wi ld
Wi kipedia</w>
ene my</w>
out doors</w>
Pe ople</w>
h op</w>
li ke
in put</w>
pu ts</w>
Wind ows</w>
kin da</w>
c ate</w>
apologi ze</w>
char ming</w>
imp li
expres sing</w>
see king</w>
nephe w</w>
ang le</w>
ti ed</w>
18 th</w>
gu ese</w>
pen sion</w>
B ro
D r</w>
v a</w>
rap id</w>
proper ty</w>
har dest</w>
woo den</w>
un fair</w>
k ni
Dr agon</w>
en i
T ar
ste ak</w>
gr ows</w>
f oun
fi sh
adv ances</w>
adop ted</w>
edu res</w>
proc edures</w>
i o</w>
requ ested</w>
fil es</w>
off ices</w>
A t
exc ep
clos ing</w>
construc ted</w>
M it
achiev ements</w>
proc edure</w>
ne goti
distingui sh</w>
Le isure</w>
ab sence</w>
ti p</w>
N ara</w>
pos ts</w>
tom mor
em an</w>
ambul ance</w>
se af
Tur kish</w>
cu ps</w>
en coun
plat form</w>
curi osity</w>
exec u
re fu
organi sation</w>
clim bed</w>
disc our
spiri ts</w>
eng ines</w>
ear ned</w>
bun ch</w>
insi st</w>
evol ution</w>
gramma tical</w>
Des ign</w>
h ori
deta iled</w>
Associ ation</w>
Cast le</w>
histor ic</w>
z er</w>
avoi ded</w>
del ayed</w>
skir t</w>
modi fied</w>
in ju
st an
Su per
fast est</w>
a e</w>
bree ze</w>
B en
K e
pe op
brea thing</w>
.html }&#91;HYPERLINK</w>
Temper ature</w>
F ili
: 30</w>
ni ece</w>
ce iling</w>
glo omy</w>
resul ting</w>
sm iles</w>
ari ties</w>
G ames</w>
at tempt</w>
enc e
Dre am</w>
cigare tte</w>
sp reading</w>
e dge</w>
Geor ge</w>
pro hi
h an</w>
sou thern</w>
respe cted</w>
tal ents</w>
congratul ations</w>
ac counts</w>
vac ations</w>
S ep</w>
continu ing</w>
ass ment</w>
artic le
WA S</w>
urg ent</w>
sn ack</w>
C ath
minim um</w>
12 th</w>
H os
la z
ca ve</w>
u ries</w>
vivi d</w>
bri ef</w>
i i
enti rely</w>
b ite</w>
eth ical</w>
p y
Vic tori
n as
arri ving</w>
Ale x
un it</w>
sti ff</w>
pu b
institu te</w>
occas ion</w>
fai ries</w>
K az
au to
entre prene
patter n</w>
su res</w>
seni ors</w>
ak ami</w>
doll s</w>
am e
discipl ine</w>
Ar ts</w>
Ad v
cre di
ann e</w>
B os
k ic
dis abled</w>
han ded</w>
wor th
Jour nal</w>
discus sions</w>
gather ing</w>
elev ator</w>
Ph ys
shar p</w>
nur sery</w>
s pl
bu ya</w>
gr and</w>
we ars</w>
b les
pro verb</w>
deman ding</w>
so il</w>
cos me
Bo b</w>
20 15</w>
profession als</w>
m and
room mates</w>
E li
fr ankly</w>
deep er</w>
orig in</w>
c ough</w>
soli d</w>
arre sted</w>
y i
R I
sp in
tom atoes</w>
re ci
R ain
G over
at ers</w>
H ave</w>
pow ered</w>
posi tively</w>
souven ir</w>
Be at
con tra
advanc ement</w>
D ar
as sum
costum es</w>
re solve</w>
pri de</w>
hum anity</w>
assig ned</w>
C os
in habitants</w>
19 th</w>
stre am</w>
mo des</w>
opti mistic</w>
P ref
R ec
foc using</w>
preci se</w>
rem ote</w>
discover ies</w>
po e
min or</w>
Afri can</w>
G or
coll abor
he ating</w>
Ad am</w>
20 13</w>
shou ting</w>
pos s
compl ained</w>
frigh tened</w>
inev itable</w>
wor n</w>
pros pe
in sufficient</w>
condition ing</w>
H oli
sun day</w>
E mi
C r
ref ers</w>
i phone</w>
re tired</w>
swi t
Bal i</w>
flo ors</w>
ob serve</w>
sin gs</w>
symp toms</w>
wor thy</w>
colle ges</w>
propor tion</w>
journali st</w>
dar kness</w>
P P
dri ven</w>
terrori st</w>
con sume</w>
L os</w>
diag nos
explos ion</w>
ch amp
ban ana</w>
v ote</w>
fri dge</w>
cat astr
si us</w>
H ou
snow y</w>
eri a</w>
et al</w>
Kar aoke</w>
Com pu
mir acle</w>
t ate</w>
g ossip</w>
rec ep
sh aking</w>
so le</w>
ma kers</w>
dre am
L et</w>
sim pli
lim iting</w>
re war
Ma ster</w>
ancest ors</w>
il er</w>
Ch ic
do cu
docu ment</w>
jeal ous</w>
6 00</w>
irrit ated</w>
ac u
5 5</w>
Jen ni
categ ories</w>
seaf ood</w>
fal se</w>
ag u
stor ed</w>
tu ition</w>
mer ely</w>
preser ve</w>
f ancy</w>
p ounds</w>
d le</w>
appro aching</w>
than ked</w>
W ater</w>
qu ake</w>
weak ness</w>
sk ate
expres sed</w>
Mil an</w>
confli cts</w>
ma ke
prom ising</w>
inter ven
fl our</w>
at re</w>
ox y
sus pic
her itage</w>
uc k
analy ze</w>
cor n</w>
bu ff
bl an
sp o
program mer</w>
i le</w>
mag ical</w>
cor respon
depen dency</w>
memor able</w>
ght ful</w>
gr ave</w>
zu oka</w>
occu pi
barbecu e</w>
key board</w>
dis orders</w>
Lit tle</w>
con cre
et ings</w>
ti le</w>
L ake</w>
h en</w>
ink an
document ary</w>
terri bly</w>
def ense</w>
uni verse</w>
enjoy s</w>
B C</w>
b ble</w>
Kan sai</w>
b am
inju ries</w>
in correct</w>
comb ined</w>
st ability</w>
to x
pe ak</w>
am er
Portu guese</w>
mix i</w>
che apest</w>
artif icial</w>
jo y
re luc
de er</w>
g room</w>
di ty</w>
pic king</w>
Mic ros
The atre</w>
op ens</w>
V eg
un lucky</w>
pre ten
communic ations</w>
crow ds</w>
ch r
remain ed</w>
sti cks</w>
So ci
t v</w>
manufactur ing</w>
il st</w>
sele ction</w>
chestr a</w>
Mur akami</w>
cont acted</w>
fi gu
comm it</w>
sugge sts</w>
H D
estim ated</w>
N Z</w>
jo g</w>
prom ises</w>
gu id
C ant
star ring</w>
ang zhou</w>
occas ions</w>
end less</w>
cros sed</w>
caf es</w>
Mi che
e ye
min d
por tion</w>
cul tiv
de le
o x</w>
N BA</w>
exerci sing</w>
convin ce</w>
ES L</w>
inter mediate</w>
automo bile</w>
war ning</w>
n ment</w>
f its</w>
ca u
f ounded</w>
Mus ic</w>
Ste ve</w>
po em</w>
L E</w>
E C</w>
3 2</w>
Thom as</w>
cigare ttes</w>
idi oms</w>
exten sive</w>
develop s</w>
9 th</w>
Miche al</w>
G o</w>
quali ties</w>
summ ari
celebri ty</w>
Y uk
sh a</w>
candi dates</w>
c us</w>
ses sions</w>
wh ilst</w>
dr a</w>
car r
oper as</w>
pay ment</w>
ch ores</w>
re present</w>
e mails</w>
che ers</w>
inv ent
her o
Gene tic</w>
may or</w>
econom ically</w>
head ing</w>
cre ation</w>
su s</w>
ad ding</w>
heli um</w>
the ore
fu me</w>
bom b</w>
transfer red</w>
re ward</w>
NO T</w>
spectac ular</w>
oversle pt</w>
hun ger</w>
poli c
inkan sen</w>
d ol
p in
ju di
e mission</w>
ES T</w>
trav els</w>
in tr
A s</w>
te sted</w>
l le</w>
o i</w>
M oon</w>
play ground</w>
j in</w>
ch or
suppor ters</w>
Chic ago</w>
199 8</w>
audi </w>
desper ate</w>
av a</w>
8 00</w>
contribu ting</w>
00 0
An ne</w>
ski p</w>
Jenni fer</w>
fi li
zer o</w>
id =
dev ast
j ew
to fu</w>
16 th</w>
pal ace</w>
L I
N an
life time</w>
wi d
har sh</w>
acc ents</w>
wri tting</w>
Micros oft</w>
decor ated</w>
figu res</w>
con secu
aqu arium</w>
mee ts</w>
con g
tal k
S .
cat ching</w>
re start</w>
announ cement</w>
K ind
imple ment</w>
en tation</w>
6 0
d are</w>
apar az
abor tion</w>
per si
os y
. 30</w>
limit ations</w>
guaran tee</w>
B .</w>
patter ns</w>
drama tic</w>
sec tors</w>
skir ts</w>
f ellow</w>
grap her</w>
hh hh
brea the</w>
ban ks</w>
r ings</w>
kee per</w>
sm s</w>
oy aki</w>
comprehen sion</w>
laun ched</w>
perform ing</w>
trage dy</w>
S ophi
sw am</w>
illustr ate</w>
adm itted</w>
hop es</w>
Fam ily</w>
reach ing</w>
sal es
Argent ina</w>
tri cks</w>
nutri tion</w>
wild life</w>
promot ed</w>
De c</w>
S E
L D</w>
v ot
ser ver</w>
Mart in</w>
L aw</w>
A A
subm it</w>
gre y</w>
frequ ent</w>
C i
s an
re fund</w>
satis fying</w>
Ch r
fe asi
T ou
Gre ece</w>
appe al</w>
schoo l
J i
on es
im m
1 /
dr ums</w>
occupi ed</w>
gre etings</w>
recip es</w>
un employment</w>
é </w>
sh ell</w>
shoul ders</w>
p ir
ed a</w>
subsi dies</w>
M erry</w>
Shi buya</w>
199 5</w>
ori ented</w>
F OR</w>
necess arily</w>
expl aining</w>
r a</w>
leng th</w>
han dic
P C
prof its</w>
a il</w>
dess erts</w>
o lit
la sts</w>
wait er</w>
cre w</w>
Pref ecture</w>
week ly</w>
Hot el</w>
z ard</w>
o g</w>
cent uries</w>
ch op
du ties</w>
G I
3 4</w>
shel f</w>
fac ulty</w>
12 4
q </w>
ach i</w>
consum er</w>
wi ves</w>
begin ners</w>
I re
des ert</w>
a tic</w>
A C</w>
ref er</w>
stre t
p aparaz
wi re
w s</w>
d at
eng aged</w>
aa aa
olit an</w>
an ti</w>
air planes</w>
4 00</w>
Av atar</w>
cra tic</w>
ex ternal</w>
kne e</w>
r ot
p el
N Y
b at
mo tion</w>
fr on
cru ise</w>
ur anium</w>
J ones</w>
N ic
bu tter</w>
Gr an
pit ch</w>
cong estion</w>
intellig ence</w>
rec ession</w>
h il
atom ic</w>
profes sion</w>
Jes us</w>
l en
So cial</w>
stri ke</w>
out weigh</w>
gen der</w>
g os
back grounds</w>
la id</w>
Y oga</w>
nam ely</w>
comm erci
bl owing</w>
Ash by</w>
c ro
E di
b ay</w>
Prof ess
P ic
dri ed</w>
t at
de ple
super vis
ac compani
Rob ert</w>
su it
le st</w>
em br
ti dy</w>
re fresh</w>
no ti
Kind le</w>
st anti
enti ally</w>
F ast</w>
question na
en dang
Ex tre
prin ts</w>
er e
y a
initi ally</w>
prin cess</w>
coun ted</w>
b ag
ag ger
di zzy</w>
provin ce</w>
canc el</w>
mi es</w>
Cir cle</w>
shel ter</w>
bal lo
sc ored</w>
quot e</w>
G O
9 9
bour ne</w>
O x
pu bs</w>
roll er</w>
concre te</w>
d ust</w>
can dy</w>
Fe der
dr ought</w>
kno cked</w>
practi ces</w>
p ers</w>
Shi zuoka</w>
Ale x</w>
har mon
t ags</w>
s atur
sub stanti
res ses</w>
conne ctions</w>
hon ey</w>
religi ons</w>
do ll</w>
rel ating</w>
Pri me</w>
par tly</w>
the ast</w>
reti re</w>
auth ors</w>
Ang el
snow ed</w>
bas ket</w>
ex changed</w>
incredi bly</w>
we igh
Ch ur
scienti st</w>
bother ed</w>
neighbour hood</w>
accompani ed</w>
d anced</w>
inst all</w>
wa king</w>
Hu ang</w>
under go</w>
P ep
g allery</w>
com ed</w>
Se attle</w>
phar mac
tax is</w>
whe el
t sm
hun t</w>
s oooo
e dition</w>
paragrap h</w>
practi sing</w>
vari ed</w>
di pl
S im
fant asy</w>
l acking</w>
D ickens</w>
w as
dr aft</w>
terrori sts</w>
bri e
K ama
lan e</w>
A P</w>
ti m</w>
ell er</w>
depar ture</w>
TH AT</w>
c kets</w>
survi val</w>
attrac tion</w>
finan cially</w>
contain ers</w>
quali fication</w>
ch a</w>
he arts</w>
mel on</w>
ei ved</w>
St ar</w>
hi p</w>
Ire land</w>
Se con
um in
l or</w>
re moved</w>
M ir
inst antly</w>
astr on
let es</w>
consider able</w>
bul ous</w>
M om
&# 124
Bir thday</w>
G ame</w>
Rog ers</w>
weap on</w>
az aki</w>
vi lle</w>
ch ard</w>
sw ine</w>
de cent</w>
viol in</w>
sec tions</w>
mor nings</w>
e ats</w>
S af
Tom o</w>
H igh
ha bara</w>
hu g</w>
pa ste</w>
environ ments</w>
C ap
T y
ing er</w>
t une</w>
sh ore</w>
t ted</w>
instruc tions</w>
contain ed</w>
so le
G PS</w>
Aki habara</w>
17 th</w>
pan ic</w>
Gre ek</w>
S har
val ent</w>
fun eral</w>
pre tend</w>
ch art</w>
puni shment</w>
in disp
simil arly</w>
&#124 ;</w>
des u</w>
ste am</w>
compul sory</w>
as sem
stor y
sp ell</w>
sm ells</w>
out line</w>
mess y</w>
consecu tive</w>
ag er</w>
m ar</w>
P op
wait ers</w>
paparaz zi</w>
pa irs</w>
low est</w>
or ism</w>
L ast</w>
Wi ll</w>
ic ker</w>
S ports</w>
av y</w>
pollu ting</w>
happ iest</w>
fa ti
c ans</w>
ch ess</w>
don ate</w>
cheri sh</w>
ir on</w>
ath letes</w>
im it
sin c
farm land</w>
so ba</w>
recycl ed</w>
predi ct</w>
bo xing</w>
ay ama</w>
cover s</w>
W ash
uni form</w>
smart phones</w>
car es</w>
comp on
blo oming</w>
em er
ch e</w>
f i</w>
ther mal</w>
acqu ired</w>
od d</w>
ma dur
madur a</w>
free zing</w>
cr af
aff airs</w>
reve aling</w>
fr ench</w>
v oc
Extre madura</w>
ul t</w>
&apos; (
mun ici
prof iciency</w>
Kama kura</w>
6 6
An dre
man ually</w>
dea ths</w>
E d
resi stance</w>
less ly</w>
fai th</w>
Comp any</w>
Lit er
graph y</w>
bil ingu
gent le
gramm er</w>
sh am
exc essive</w>
war m
grad ed</w>
&apos; cause</w>
Cel ine</w>
sh it</w>
ab str
du ll</w>
Publi c</w>
cab ins</w>
jo int</w>
D P</w>
e .
a bun
fin ger
olo g
corpor ate</w>
gy m
an der</w>
wel comed</w>
H all</w>
ki dding</w>
particip ating</w>
k a
: 15</w>
pros per
ten s</w>
sinc ere</w>
oper ators</w>
sh er</w>
terr orism</w>
simil arities</w>
S to
ti ful</w>
fi shes</w>
ren ov
appli ances</w>
R est
pl ain</w>
disp at
gi ant</w>
st in</w>
en dy</w>
acci dentally</w>
goo gle</w>
E T</w>
B U
f ate</w>
consci ously</w>
demonstr ated</w>
Comm unic
hy po
respec tively</w>
ari o</w>
n est</w>
.pd f
tion ist</w>
fa bulous</w>
list en
L earning</w>
t ag
mot or</w>
anc er</w>
Lat in</w>
0 9
b ak
B en</w>
fili al</w>
man ual</w>
chi ef</w>
re serve</w>
ul timate</w>
do l</w>
Cel sius</w>
D I
pro li
we t
ou n</w>
re sc
mul ti</w>
im mer
long est</w>
Har uki</w>
. asp
prop ose</w>
Bos ton</w>
train er</w>
k an</w>
tr ag
e ur
z ak
N ak
tri ck</w>
i ku</w>
R &amp;
Tex as</w>
pac king</w>
char ged</w>
est ation</w>
embarras sing</w>
n an
commit ment</w>
Tem ple</w>
N ot</w>
Is ra
Su shi</w>
Sak ura</w>
Aca demy</w>
exhau sting</w>
belong ed</w>
ap p</w>
s burg</w>
grad ing</w>
G un
vic tory</w>
empha sis</w>
barri er</w>
under graduate</w>
O n</w>
fir ed</w>
associ ation</w>
infor mal</w>
kan ji</w>
avoi ding</w>
L Y</w>
gh osts</w>
f oundation</w>
H at
Be au
end ure</w>
TH </w>
equ ally</w>
team work</w>
S T</w>
comm and</w>
Fl ori
P O
oxy gen</w>
lic ence</w>
O ri
sh ri
negle cted</w>
po or
tim ing</w>
sp ot
invol ve</w>
treat ments</w>
pe pper</w>
lin ked</w>
tack le</w>
hos tel</w>
Singapore an</w>
exc ur
scre amed</w>
thor oughly</w>
b ited</w>
pi e</w>
access ories</w>
compl aints</w>
es the
adop t</w>
Wri ting</w>
MS R</w>
I r
sh u</w>
g ar</w>
Profess or</w>
sex y</w>
serendi pit
collap se</w>
Rob er
for estation</w>
evi dent</w>
vic tim</w>
isol ated</w>
Mon ica</w>
w ed</w>
bu ried</w>
gar age</w>
bo iling</w>
divi sion</w>
colle cting</w>
char m</w>
Centr e</w>
appro ached</w>
N HK</w>
00 am</w>
r o</w>
adi ly</w>
Bi ble</w>
person nel</w>
sc ol
dres sing</w>
Compu ter</w>
ow ns</w>
Le on
pp y</w>
dumpl ings</w>
evalu ation</w>
identi fication</w>
K ag
B E
stom ach
ak i
endang ered</w>
Bel gi
EN T</w>
Ni k
Fa shion</w>
cir cul
Rain bow</w>
Gr and</w>
hon or</w>
br a</w>
bl u
vulner able</w>
D ai
vege t
L a</w>
le um</w>
M oun
enter pri
mo bility</w>
claim s</w>
2 .
2 4th</w>
st in
g gy</w>
profess ors</w>
enjoy ment</w>
kis ses</w>
chil dish</w>
gen re</w>
occup ation</w>
destro ying</w>
med al</w>
new s
new s/
sel ls</w>
ru ption</w>
ele ment</w>
refre shing</w>
i e</w>
inspir ation</w>
G O</w>
st oc
intel lec
s ound
chec k
ex agger
blo cks</w>
soci able</w>
Ox ford</w>
S or
H o
supri sed</w>
dic tion
rela x
n om
gras p</w>
ic an</w>
ele gant</w>
S ol
ha s
even ings</w>
Gover nment</w>
Mi ddle</w>
dis played</w>
usi ve</w>
wal ks</w>
implemen ting</w>
care less</w>
worth while</w>
initi al</w>
b i</w>
vac c
ex clud
str ain</w>
re act</w>
les /
b ench</w>
st ays</w>
exam ine</w>
Ab out</w>
con temporary</w>
i ans</w>
pri ced</w>
lo cked</w>
experi encing</w>
kni fe</w>
expl oring</w>
Wash ington</w>
pow der</w>
Sh ir
gu essed</w>
Ser vice</w>
B ay</w>
Me dic
so dium</w>
spe cially</w>
as sure</w>
30 am</w>
soc ks</w>
duc tion</w>
uplo aded</w>
seas ide</w>
dev ot
li ed</w>
per mission</w>
ul ation</w>
mu sh
ch ani
fla sh</w>
k on
Soci ety</w>
bl ings</w>
ta g</w>
Den mark</w>
ch ri
F C</w>
ir re
al ot</w>
puzz le</w>
VER Y</w>
oni um</w>
kar ate</w>
J i</w>
Mel bourne</w>
&amp; _
comm a</w>
Radi o</w>
---- ----
ig ns</w>
list s</w>
20 :15</w>
olo gy
O K
peri ods</w>
manufactur ers</w>
Fri end</w>
ber ries</w>
w an</w>
suc ks</w>
A ge</w>
B on
ob jects</w>
consider ably</w>
revol u
th under</w>
C re
ap ples</w>
b its</w>
la kes</w>
expos ure</w>
Fr anc
inter s</w>
e ing</w>
cont am
broad en</w>
Cl ass</w>
ologi sts</w>
Buddhi st</w>
fis cal</w>
R ach
le e</w>
198 6</w>
bal con
y ama</w>
stop ping</w>
Cath olic</w>
r r
L ady</w>
per man
NY C</w>
wait ress</w>
gener ating</w>
t ank</w>
me chani
S audi</w>
L and</w>
G lo
N O</w>
Jo b</w>
c tic</w>
gr ay</w>
hang over</w>
chur ches</w>
step ped</w>
resi dential</w>
watch es</w>
contain er</w>
t down</w>
ange l</w>
.pdf }&#91;HYPERLINK</w>
over night</w>
fe ars</w>
dang ers</w>
at tribu
run ny</w>
al y
ki e</w>
5 000</w>
ag oni
disgu sting</w>
un i</w>
Pat ri
facili ty</w>
in fl
7 00</w>
et ly</w>
dev ote</w>
pi g</w>
ut onium</w>
v ard</w>
wat ashi</w>
comb ine</w>
landsc apes</w>
M ot
H ol
W ar
cou se</w>
si blings</w>
law yer</w>
OU T</w>
an e
l iness</w>
answ ering</w>
cooper ate</w>
30 th</w>
six teen</w>
sh ake</w>
resear ching</w>
broadca sting</w>
ex trac
ne u
loc ate</w>
c and
Satur days</w>
scre aming</w>
Miy azaki</w>
frequ ency</w>
cl oud</w>
bla h</w>
t ancy</w>
King dom</w>
see ds</w>
h itting</w>
un easy</w>
el iness</w>
up coming</w>
streng ths</w>
sc oo
H I</w>
er ti
Egyp tian</w>
mu tual</w>
flexi bility</w>
un fortunate</w>
sam ple</w>
resc ue</w>
particip ation</w>
sk ate</w>
coinci dence</w>
demonstr ate</w>
requi rement</w>
compe ting</w>
bam boo</w>
bas s</w>
ba ke</w>
ra tional</w>
achiev ing</w>
cur ed</w>
arti stic</w>
rec k
speciali zed</w>
lin gui
rec overy</w>
expec tation</w>
pl z</w>
contra dic
b ound</w>
obli gated</w>
U T
ca fe
ir a</w>
Wor k</w>
brea th
h ired</w>
un expec
f ing</w>
i res</w>
six th</w>
sty lish</w>
e able</w>
il ly</w>
Br on
h s</w>
en rich</w>
E do</w>
indic ates</w>
bow ling</w>
civili zation</w>
B an
reli eve</w>
cra shed</w>
Gener al</w>
g ur
en cies</w>
inter rup
p owers</w>
cap it
ti re
li sh
en za</w>
S aint</w>
li ar</w>
Mo vi
Every one</w>
N ow</w>
life styles</w>
ste ady</w>
b all
bach elor</w>
F ore
j et</w>
balcon y</w>
care ers</w>
cra sh</w>
an ticip
fav our</w>
Veg as</w>
meaning less</w>
le tting</w>
ba king</w>
athle tic</w>
gun s</w>
inci dents</w>
que ues</w>
d =
ici an</w>
sel s</w>
P I
employ er</w>
Ch il
Nag ano</w>
inspe cted</w>
bilingu al</w>
de pic
ev acu
grab </w>
survi ved</w>
ch est
prai sed</w>
repa ired</w>
clas si
consider ations</w>
diag r
I P</w>
OU R</w>
thi ef</w>
ones elf</w>
sandwi ches</w>
thr own</w>
cros sing</w>
W W
p our</w>
sh out</w>
aim ed</w>
in king</w>
g al
B O
us ions</w>
tal e</w>
p ud
Ok onomiyaki</w>
sc ul
vi br
gr ac
ens able</w>
D or
supervis or</w>
lon eliness</w>
ma tions</w>
cri teria</w>
bl ow</w>
ud on</w>
lim itation</w>
L ord</w>
el ders</w>
dilig ent</w>
ev </w>
or chestra</w>
wh eat</w>
7 %</w>
Liter ature</w>
ev es</w>
har assment</w>
re actions</w>
F ood</w>
ec osy
on ion</w>
p at</w>
make up</w>
tane ously</w>
sch em
manag ers</w>
beauti fully</w>
gu es</w>
laun ch</w>
in visible</w>
doub ts</w>
alter natives</w>
Mus li
so aked</w>
premi um</w>
deci ding</w>
Bus an</w>
con stitu
P aci
Gir l</w>
r inging</w>
han dy</w>
M om</w>
Jap an
organiz ational</w>
s op
f ted</w>
ON E</w>
S wi
co ins</w>
dial ect</w>
mo to</w>
di ve</w>
confir med</w>
0 9</w>
sal aries</w>
champ ion</w>
St ory</w>
mar vel
suppor ts</w>
recor ds</w>
poll en</w>
hand ling</w>
he art
form at</w>
b ones</w>
whi sp
talk ative</w>
inter val</w>
invest ing</w>
Rest aur
T al
conf usion</w>
wi der</w>
in cen
N ap
pos ing</w>
Fun d</w>
cra w
av er</w>
ch u
recor ding</w>
chem icals</w>
sl ower</w>
sm ar
s at
li ght
volunte ering</w>
vit am
Scot land</w>
ge ly</w>
Beat les</w>
vi al</w>
T A</w>
S ky</w>
ong i</w>
2 8
Rach el</w>
head s</w>
all ed</w>
or able</w>
pu shing</w>
grand pa</w>
qui z</w>
unexpec tedly</w>
person alities</w>
believ es</w>
ne c
jus ti
et ary</w>
neighb our</w>
In tro
favor ites</w>
eigh teen</w>
ali ens</w>
door bell</w>
cr acy</w>
Re al</w>
pr aying</w>
streng then</w>
en de
co in</w>
E mma</w>
ta k
Paci fic</w>
di le
ti re</w>
Econom ics</w>
t ap</w>
p. m.</w>
in cl
en g</w>
bre vi
eng er</w>
drop s</w>
L un
Holi day</w>
aw ard</w>
tr ends</w>
un k
obtain ed</w>
pe tro
automa tic</w>
pow er
d ingly</w>
who ever</w>
appe aling</w>
bon us</w>
5 5
ab brevi
feasi ble</w>
view ed</w>
M ee
tion ing</w>
im men
respon dents</w>
pri vi
B E</w>
pl utonium</w>
straw berry</w>
A ir</w>
for getting</w>
Off ice</w>
R on
7 5</w>
P art</w>
requ ests</w>
Won der
sur ing</w>
liqu id</w>
in cur
pres sed</w>
um ber</w>
stric tly</w>
dy nam
proli fer
y /
stan bul</w>
I A</w>
x i</w>
M anga</w>
foo lish</w>
persu ade</w>
sun light</w>
thir teen</w>
S up
far es</w>
eag er
fi es</w>
. c
re served</w>
H ear
K .</w>
D C</w>
Net work</w>
inf o
.edu /
T own</w>
we ed</w>
Emi ly</w>
Qu een</w>
Angel es</w>
Y ama
sh ots</w>
en closed</w>
7 8
fl ood</w>
laugh ter</w>
de forestation</w>
wa stes</w>
Ang els</w>
pur ple</w>
astoni shed</w>
N A</w>
attrac ts</w>
ham burgers</w>
W hi
2 6
d ances</w>
rand om</w>
on ese</w>
c el</w>
ster e
tur tle</w>
gra titude</w>
contribu tes</w>
K am
buff et</w>
zak aya</w>
plan ting</w>
interview ed</w>
addic tion</w>
de pos
ne y
commit tee</w>
fig ured</w>
stat ue</w>
cafe teria</w>
knowle d
d or</w>
Ag ency</w>
sum o</w>
s ne
Te ach
b in
p ad</w>
7 0
be loved</w>
summari ze</w>
ex tin
marvel ous</w>
I stanbul</w>
H ow
Win ter</w>
interview er</w>
en e</w>
cap tain</w>
Mi ss</w>
hu gged</w>
so y
qu icker</w>
ba thing</w>
def end</w>
escap ed</w>
B oo
li ber
Coo led</w>
ga tions</w>
W ang</w>
satur day</w>
effec tiveness</w>
chor us</w>
relax ation</w>
Indones ian</w>
dep th</w>
it chy</w>
C .</w>
restri cted</w>
Chur ch</w>
O ld</w>
ad ju
P hot
ga tha</w>
quarre l</w>
stuff ed</w>
sp lit</w>
30 %</w>
appreci ation</w>
ter ing</w>
on a
understand able</w>
Miy agi</w>
Wi th</w>
R .</w>
op position</w>
en na</w>
m ou
st ove</w>
s -
poe try</w>
analy se</w>
In c
dd ings</w>
Sh inkansen</w>
re t</w>
av ing</w>
sel ler</w>
E A</w>
schem es</w>
tri c</w>
R&amp; D</w>
purch asing</w>
br a
p ital</w>
fati gue</w>
Dani el</w>
sub scri
bo il</w>
revi se</w>
ig ata</w>
Peter sburg</w>
photo graph</w>
laz iness</w>
ob served</w>
tim ately</w>
avail ability</w>
enh anced</w>
te ch</w>
A gatha</w>
hh h</w>
dest inations</w>
on ym
diction aries</w>
indisp ensable</w>
b loo
in tri
ru ined</w>
M ach
un predictable</w>
minim ize</w>
fil med</w>
Ch an
deli cate</w>
vac u
trop ical</w>
preven ting</w>
in convenience</w>
tis su
D O
libr aries</w>
Gr am
tis m</w>
weak nesses</w>
down stairs</w>
G in
Gran ada</w>
moder ni
kin iku</w>
prev ents</w>
be tr
z oos</w>
M ain
Isra el</w>
s nor
Hos pital</w>
i chi</w>
fer ence</w>
ene mies</w>
bet es</w>
sam urai</w>
co zy</w>
Kan ji</w>
lean ing</w>
immigr ants</w>
For um</w>
f ool</w>
uni versal</w>
agri cultural</w>
questionna ire</w>
in al</w>
theore tical</w>
categ ory</w>
h iring</w>
batter ies</w>
i sts</w>
gen u
be ds</w>
aller gy</w>
Jen ny</w>
tox ic</w>
R opp
ch ee
St .</w>
100 00</w>
L as</w>
we ddings</w>
expec tancy</w>
agri culture</w>
I sa
tu b</w>
bos ses</w>
r ay</w>
bel ly</w>
avo id
ligh ting</w>
si tion</w>
exi sted</w>
resi st</w>
stomach ache</w>
ca sts</w>
P ress</w>
joy ful</w>
dri ves</w>
b oun
C y
F il
so cially</w>
pre judi
me ter</w>
gene tically</w>
i or
Or g
ec tural</w>
x D</w>
tra it</w>
mis understanding</w>
he ater</w>
harv est</w>
construc ting</w>
F M</w>
bur st</w>
humi dity</w>
y og
P ost</w>
arri ves</w>
descri bing</w>
ur ing</w>
T T</w>
bri d</w>
ba i</w>
L ang8</w>
Ropp ongi</w>
aer ob
soci eties</w>
scul p
br ains</w>
star ing</w>
be ars</w>
kis sed</w>
g al</w>
air line</w>
cam p
pha se</w>
3 6</w>
bu n</w>
invol ving</w>
gener ous</w>
a ther</w>
frustr ating</w>
mar ine</w>
tun a</w>
spor tsm
est ate</w>
stor age</w>
u h</w>
sound track</w>
ros es</w>
j a</w>
po ems</w>
L isa</w>
g age</w>
Peter son</w>
leg end</w>
campa igns</w>
Secon d</w>
Nov </w>
bo ats</w>
inten do</w>
bran ches</w>
Wi i</w>
K ei
graph ics</w>
pro ceed</w>
Communic ation</w>
sen sation</w>
s ar
star ed</w>
d ai
8 0%</w>
shel ves</w>
elimin ate</w>
challeng ed</w>
desper ately</w>
Gr oup</w>
T im</w>
qu it
Comm it
y elled</w>
3 9</w>
Y e
sust ain</w>
wri tes</w>
inf ected</w>
teen th</w>
par adi
wel coming</w>
K hand
rec over
s kin
exten ded</w>
al ert</w>
port able</w>
deal t</w>
as ion</w>
educ ating</w>
bus tion</w>
es ight</w>
maintain ed</w>
An dro
es timate</w>
Restaur ant</w>
tre ating</w>
en o</w>
Ei ken</w>
B et
ex changing</w>
qui etly</w>
S ho
Kan agawa</w>
G .</w>
4 4</w>
o di
ex cl
seas onal</w>
neighb ours</w>
si an</w>
ar ro
E v
coun sel
thrill ers</w>
j o</w>
forbi dden</w>
scre am</w>
fore hand</w>
suppli es</w>
celebr ating</w>
Hum an</w>
secu rely</w>
lea f</w>
concentr ated</w>
Ju an</w>
li a</w>
Colombi a</w>
ate dly</w>
4 2</w>
e go</w>
D AY</w>
explan ations</w>
uri ty</w>
st ants</w>
hori z
G al
expen se</w>
M ol
petro leum</w>
fl ats</w>
foc uses</w>
har a</w>
dol ph
smo kers</w>
ari ous</w>
cont ent
nat to</w>
encoun tered</w>
.. ..
clos est</w>
200 8
rememb ering</w>
ei ve</w>
h u</w>
Mi le</w>
empha size</w>
pen cil</w>
atter ed</w>
brow ser</w>
mind set</w>
invest ed</w>
descri bes</w>
Y os
mix ture</w>
que ue</w>
Oc ean</w>
lo cations</w>
An n</w>
it ama</w>
li ver</w>
utili ty</w>
i pod</w>
am ate
de pri
de als</w>
par ked</w>
p es
wit ness</w>
wire less</w>
ki dn
in expensive</w>
c it
ani zation</w>
serendipit ous</w>
decor ation</w>
b at</w>
Sp ace</w>
too th
am using</w>
reluc tant</w>
Cul ture</w>
C lar
sla ve</w>
critici sm</w>
H ong
fashi oned</w>
Chil dren</w>
deter ior
S O</w>
et te</w>
gramma tically</w>
Cla us</w>
prolifer ation</w>
v es
fin als</w>
P E</w>
hi ding</w>
0 3</w>
30 00</w>
house wife</w>
ex tend</w>
inten se</w>
ner ves</w>
out let</w>
prot e
spee ches</w>
ch ase</w>
tommor ow</w>
devast ating</w>
l ang8</w>
D ou
diff er</w>
centi ves</w>
2 40</w>
K en</w>
ro y
en ri
medic ines</w>
soo o</w>
ir able</w>
la sting</w>
comedi es</w>
princi ple</w>
k awa</w>
advent ures</w>
prefer ences</w>
wa ist</w>
G R
ak ers</w>
fin ed</w>
ten der</w>
obe y</w>
Pro gram
S ome
offic ers</w>
p y</w>
I &apos;m</w>
p es</w>
demo cracy</w>
A ging</w>
Dis ney
di versity</w>
V ol
AT ION</w>
controll ing</w>
ban king</w>
impor ted</w>
S eas
in centives</w>
un stable</w>
flo ating</w>
glo be</w>
stud ing</w>
clo th</w>
se a
Ram en</w>
Andro id</w>
Nat ural</w>
k ai</w>
gui des</w>
mol ten</w>
por cel
de vi
up dated</w>
woo ds</w>
act or
appro aches</w>
Re public</w>
per fume</w>
unti ll</w>
2 /
bi ological</w>
est ee
all erg
Af ter</w>
ul timately</w>
lar gely</w>
hur ri
T ay
edi tor</w>
ne ys</w>
bre ast</w>
L ong</w>
bo ards</w>
A Y
pri mar
perc eption</w>
A D</w>
in di
tr ading</w>
in directly</w>
Ri chard</w>
wit n
M R
b or</w>
U C
R s</w>
discover ing</w>
Pl ay
TE D</w>
20 %</w>
F err
M ar</w>
rac ing</w>
C our
C ur
promot ing</w>
sc ope</w>
AR E</w>
butter fly</w>
t led</w>
cap ability</w>
en dur
porcel ain</w>
o ons</w>
w age</w>
n augh
De mo
roo ts</w>
ma sters</w>
flu ency</w>
B ab
pi le</w>
B e</w>
be th</w>
er o</w>
k at
J ac
Pro vi
p ino</w>
adap ted</w>
con trac
w ings</w>
conversa tional</w>
accor dingly</w>
fra me</w>
op es</w>
liter acy</w>
Mi ke</w>
Sun days</w>
politici an</w>
ma il
I B
d dy</w>
after ward</w>
brie fly</w>
E .</w>
investi gate</w>
gen e</w>
am ong
g i</w>
c ot
jec tive</w>
sub sequ
mand atory</w>
Su b
fi ghts</w>
memori zing</w>
ro lling</w>
aband on</w>
in i</w>
org ans</w>
m l</w>
si </w>
Spe aking</w>
regre tted</w>
di am
t al</w>
T ru
X i
reflec ts</w>
en vel
catastr oph
pos ter</w>
T am
p .</w>
Au g</w>
ec tive</w>
lo ose</w>
dest iny</w>
Le ague</w>
Commit tee</w>
he ated</w>
vac ancy</w>
che ered</w>
imm une</w>
form ing</w>
o le
se y</w>
U p</w>
sk ates</w>
N intendo</w>
Brazili ans</w>
mi a</w>
kin gs</w>
nation ality</w>
peop les</w>
pur se</w>
en rolled</w>
allerg ic</w>
29 th</w>
coo ks</w>
Cant onese</w>
g .</w>
B or
z o</w>
up stairs</w>
vol can
Rel ations</w>
scri p
GI F</w>
Hi stor
Man ager</w>
recep tionist</w>
passeng er</w>
pen alty</w>
am ent</w>
alle vi
ren ew</w>
ner ship</w>
substanti al</w>
or ous</w>
ob servation</w>
oun ding</w>
Ven ice</w>
Sa itama</w>
reas on
i dol</w>
S am</w>
uk a</w>
Ca thedral</w>
ar o</w>
shoc ks</w>
oper ations</w>
defe ated</w>
swe ating</w>
L .</w>
rewar ding</w>
Be cause</w>
j er
aff ir
mel ody</w>
em en</w>
tr endy</w>
roo t</w>
ec tions</w>
L IS
predi cted</w>
cha os</w>
te ens</w>
con fron
com bustion</w>
AN G
rec re
c ed
dia betes</w>
im asu</w>
ab i</w>
k ot
le an</w>
mi ld</w>
car ries</w>
exhi bi
W ell</w>
S hu
ot yp
strong est</w>
as tically</w>
om i</w>
c ycles</w>
shi pping</w>
US E</w>
perman ent</w>
cu z</w>
sh ow
pri son
cock ro
direc tions</w>
com promise</w>
primar ily</w>
ligh ter</w>
en did</w>
cor ruption</w>
19 :30</w>
XX X</w>
ze ch</w>
ag ana</w>
pr one</w>
eth nic</w>
resear ched</w>
d al</w>
Ro ad</w>
soo oo</w>
Sophi e</w>
hair cut</w>
S W
eng agement</w>
ban k
wee ping</w>
be ers</w>
re jected</w>
spl endid</w>
illustr ation</w>
un employed</w>
compl aint</w>
super vi
trou bled</w>
ra ti
pre sti
Vi enna</w>
Belgi um</w>
psych ologist</w>
soldi er</w>
new ly</w>
cosme tics</w>
week day</w>
fu ri
Nag asaki</w>
om et
ff s</w>
plan ets</w>
be ating</w>
canc elled</w>
p ale</w>
Khand ani</w>
tr apped</w>
Bud apest</w>
dile mma</w>
Je wish</w>
- 4
impres sions</w>
Sy m
like wise</w>
bl amed</w>
IM E</w>
among st</w>
S E</w>
Wil li
As si
sh imi</w>
Tri p</w>
I ri
tr uck</w>
ha tes</w>
naugh ty</w>
clin ical</w>
gu </w>
f est</w>
new com
Air port</w>
W here</w>
os ter</w>
V ac
athle te</w>
as set</w>
ke i</w>
e. g.</w>
polic eman</w>
r ang
b b
E X
scol ded</w>
m o</w>
U r
sing ap
B est</w>
sm elled</w>
inde x
prac tically</w>
Victori a</w>
bi a</w>
apologi zed</w>
stat ues</w>
ey esight</w>
ad dressed</w>
S che
prot agoni
P A</w>
Twi light</w>
Toy ota</w>
dr um</w>
0 7</w>
Chi le</w>
m s
list ed</w>
bo om</w>
hum an
sa tions</w>
arrange ment</w>
eas ing</w>
tran sm
mur der</w>
p o</w>
war dro
dr o</w>
alco holic</w>
fr an
ch iro</w>
repe ated</w>
in et</w>
them es</w>
facili tate</w>
Edi son</w>
IL L</w>
hom ep
r age</w>
c uc
hy brid</w>
sal mon</w>
conclud ed</w>
exp anding</w>
l ayer</w>
Char les</w>
der y
B ack</w>
dial ogue</w>
coo ling</w>
tr am</w>
did nt</w>
T raining</w>
sna ke</w>
h r
J AP
al oud</w>
conqu er</w>
whe els</w>
be e</w>
Joh n
se gre
s our</w>
neu tr
H ai
D anish</w>
curr ency</w>
ber t</w>
Gre en
ki do</w>
. uk
thri lling</w>
ad dy</w>
Dan dery
rom ance</w>
her oes</w>
Ky u
occur ed</w>
el and</w>
ga wa</w>
k yo</w>
repe atedly</w>
Fa ther</w>
smart phone</w>
3 8</w>
to ads</w>
radio activity</w>
En d</w>
G DP</w>
W a
bul let</w>
intellec tual</w>
reven ue</w>
ru in</w>
grocer ies</w>
administr ation</w>
b ond</w>
H ay
Sto ck
d ded</w>
kne es</w>
ge able</w>
mer its</w>
Teach er</w>
inher ited</w>
overwhel med</w>
disappoin tment</w>
Sy stems</w>
na ils</w>
boo king</w>
in fin
n ine
depos it</w>
l end</w>
Gin za</w>
subm itted</w>
exhibi tions</w>
pp ers</w>
f ab
tri vial</w>
pl ural</w>
coun ter
re tail</w>
amate ur</w>
has n&apos;t</w>
pri or</w>
c ic
se t
Asa k
sh ments</w>
in ch</w>
abstr act</w>
dream t</w>
sky scr
recycl able</w>
Ber lin</w>
23 8</w>
fri day</w>
mus cular</w>
produc er</w>
6 7</w>
5 00
ch in</w>
eng age</w>
py ram
sleep s</w>
ven ue</w>
bu m
Mon t
cast les</w>
con vey</w>
ar es</w>
4 29</w>
eth ics</w>
construc t</w>
Stud ent</w>
v able</w>
is ite</w>
Kar ate</w>
im patient</w>
T oshi
hos t
now here</w>
W om
Medi cal</w>
Re ading</w>
ste w</w>
mis understood</w>
ran ked</w>
spec t
h ir
pre scri
J on</w>
threat ening</w>
nation alities</w>
h its</w>
heli cop
fu mes</w>
C zech</w>
sub stances</w>
impli cations</w>
immedi ate</w>
scen ario</w>
P y
For mul
purch ased</w>
met res</w>
ac company</w>
utili ze</w>
I ke
defe at</w>
c ants</w>
m at</w>
sli pped</w>
ro cks</w>
K in
oppos ing</w>
sp anish</w>
C ru
par ade</w>
suit case</w>
th ier</w>
ambi tious</w>
stun ning</w>
ass ess</w>
cur tains</w>
lan ded</w>
E ff
al located</w>
toler ance</w>
I Q
J os
sit ter</w>
pub lish</w>
e ans</w>
obst acle</w>
p ond</w>
v ine
Bl ue</w>
tic ul
Wonder land</w>
7 /
fee ding</w>
commer ce</w>
F CE</w>
Pro ject</w>
Luc y</w>
k uro</w>
time tables</w>
mean time</w>
A I</w>
win ds</w>
Fin land</w>
v an
A n</w>
si zes</w>
Arab ia</w>
P ho
3 7</w>
puni shed</w>
amer ican</w>
n oun</w>
Vac ation</w>
Flori da</w>
ob s</w>
Asak usa</w>
sho e</w>
Juli a</w>
ng e</w>
pu ppy</w>
run ner</w>
A k
k o
le gi
S ony</w>
yog urt</w>
oun g</w>
A S</w>
hesit ation</w>
imp lies</w>
consci ousness</w>
l ord</w>
for um</w>
ban ning</w>
al ds</w>
li tter</w>
earli est</w>
hair style</w>
fol k</w>
la g</w>
A ct</w>
abun dant</w>
con str
absor bed</w>
refer ring</w>
3 8
Di ff
the ories</w>
secre tary</w>
thir sty</w>
far mer</w>
summ er
y ers</w>
shi eld</w>
subur bs</w>
ligh ted</w>
terri fied</w>
TH E
teen age</w>
gu m</w>
G aga</w>
Mi a</w>
co g
re union</w>
ph </w>
a sts</w>
Man agement</w>
E le
preven tion</w>
sop hom
wi des
ori entation</w>
interpre ter</w>
Ac ci
Gu angzhou</w>
prob ability</w>
invest ments</w>
our ing</w>
O per
divor ced</w>
1 :
coun table</w>
func tional</w>
mani pul
pri ori
Sh im
swit ched</w>
li fts</w>
research er</w>
Co .</w>
hal f
hil arious</w>
munici pal</w>
an cies</w>
at y</w>
calcul ate</w>
homep age</w>
gram s</w>
G y
ti er</w>
j ail</w>
influ enza</w>
poss ess</w>
net /
cir cu
ele ph
sur ge
kit ten</w>
th ful</w>
vi able</w>
sh e
Ya hoo</w>
Provi dent</w>
w ell
ama z
craf ts</w>
depres sing</w>
gg ling</w>
ti se</w>
Nar ita</w>
stimul ate</w>
con serv
pref ers</w>
s nee
immen se</w>
o za</w>
new est</w>
2 8th</w>
top s</w>
sat el
ma id</w>
pati ently</w>
ind ul
s al</w>
Ni igata</w>
cou gh
tur ing</w>
M C
bu kuro</w>
cab bage</w>
ec li
view point</w>
Pop ulation</w>
dr ag
org an</w>
re solved</w>
T ig
c ep
install ation</w>
prin ter</w>
top us</w>
T esting</w>
resi dence</w>
ar ina</w>
Fore ign</w>
l ens</w>
ni e</w>
fu cking</w>
di sh
age ous</w>
ev al</w>
che ating</w>
mon day</w>
depar tments</w>
per or</w>
e ic</w>
Th an
warm th</w>
travel ers</w>
scar city</w>
n abe</w>
M ei
ge ment</w>
cos y</w>
se um</w>
U N</w>
bl in</w>
d un
tempor arily</w>
S ir
le m</w>
ww w</w>
subsi di
Stud y</w>
decor ate</w>
Nor way</w>
gl ory</w>
ar di
Y outh</w>
na il</w>
C erti
mur der
st eel</w>
2 3rd</w>
out going</w>
p /
al ties</w>
EN G
er o
wr apped</w>
compe tent</w>
T V
post pon
. wi
thqu ake</w>
min s</w>
lo ads</w>
Au stri
de stri
sp here</w>
le af
Disney land</w>
w oken</w>
veget arian</w>
ab ase</w>
reven ge</w>
determin ation</w>
Ju stin</w>
auth ority</w>
len ses</w>
mini mal</w>
9 5</w>
estee m</w>
h ers</w>
nas tics</w>
an a
desig n
bas ics</w>
pu mp
pri est</w>
Cam bo
u to</w>
C o</w>
soci etal</w>
restri ctions</w>
ali ze</w>
institu tion</w>
acquain tance</w>
dispos ed</w>
op posed</w>
des ires</w>
ver ages</w>
inten sive</w>
trop olitan</w>
c ky</w>
Fili pino</w>
st ole</w>
wheel chair</w>
g ary</w>
uc ks</w>
har mony</w>
adm it
e ch</w>
col our
characteri stic</w>
el er
pro jected</w>
depen dence</w>
al pha
V ER</w>
2 1
d ose</w>
M P
Hen ry</w>
hesit ated</w>
vis its</w>
ve t</w>
Formul a</w>
l or
9 0%</w>
i sh</w>
document aries</w>
water melon</w>
y st
dis abilities</w>
Q Q</w>
prai se</w>
im polite</w>
t son</w>
A ge
US D</w>
sandwi ch</w>
Medic ine</w>
chi p</w>
insi sted</w>
sen ses</w>
19 .30</w>
s wear</w>
ham per</w>
dur ation</w>
comple x
sw ing</w>
z ar
Comm unity</w>
A F
sig n
ten ses</w>
cli p</w>
Y S</w>
J ust</w>
be forehand</w>
gentle man</w>
blan ket</w>
amp ire</w>
un likely</w>
robo tic</w>
vo cal</w>
fore most</w>
sett led</w>
s _
y ay</w>
se ttle</w>
h alls</w>
ble w</w>
fin dings</w>
ess ing</w>
sig nal</w>
prospe cts</w>
R ep
Ad ministr
l ds</w>
pr oo
A l</w>
R ose</w>
pe ers</w>
re ha
Y u</w>
regre ts</w>
s orrow</w>
Ex am
trag ic</w>
apar tments</w>
idi om</w>
mic ros
informa tive</w>
ter n</w>
prohi bited</w>
sk unk
th at
super critical</w>
simul taneously</w>
pe destri
gr ant</w>
fe atur
n us
acqu iring</w>
emplo y</w>
g inger</w>
consi st</w>
reason ably</w>
hy gi
y ak
lo gi
theat ers</w>
jour neys</w>
Direc tor</w>
un natural</w>
su b</w>
t ances</w>
un certain</w>
.htm }&#91;HYPERLINK</w>
Dr .</w>
pil ot</w>
s giving</w>
N 1</w>
P L
Rober tson</w>
dr astically</w>
associ ate</w>
.uk /
Li st
F ar
fa ils</w>
jun gle</w>
sophom ore</w>
Mi d
respon ses</w>
S O
H or
a x
l ined</w>
j </w>
ad orable</w>
S now</w>
Pl an</w>
compe tit
AL L</w>
Col os
business man</w>
ig an</w>
preci sely</w>
accep tance</w>
six ty</w>
acc eler
ex otic</w>
Mar ket</w>
mon key</w>
Fil m</w>
c ater</w>
t su
lun ar</w>
vacu um</w>
exper tise</w>
anim ated</w>
divi de</w>
T ina</w>
0 1</w>
199 6</w>
http:// en
attemp ts</w>
peac efully</w>
dr um
pod cast</w>
P la
D O</w>
Tay lor</w>
floo ds</w>
pa ths</w>
HA VE</w>
n y
sa shimi</w>
100 0
Sum o</w>
no ises</w>
aff i
0 8</w>
M E
ob iles</w>
pr ayed</w>
Ukrain ian</w>
F oo
presen ting</w>
co aches</w>
bel t</w>
kipe dia
autom obiles</w>
cog ni
En viron
fir mly</w>
audi ences</w>
prin ce</w>
sun rise</w>
conf use</w>
insp ire</w>
photo grapher</w>
aff ection</w>
pi ons</w>
inci </w>
fi d
inv iting</w>
2 50</w>
cere mon
Fuku i</w>
nat ure
proper ties</w>
ful ness</w>
colour ful</w>
19 5
atta ch</w>
b bing</w>
punc tual</w>
s word</w>
HD B</w>
esthe sia</w>
F RI
appli cants</w>
og i</w>
ill in</w>
coun tless</w>
sustain ability</w>
ad ds</w>
appropri ately</w>
p ays</w>
guit ari
ac es</w>
6 5
r oughly</w>
sh in</w>
distur b</w>
6 /
high school</w>
le f
cu ts</w>
g in</w>
ot e
C old</w>
hom es
p ools</w>
pro found</w>
ri a</w>
roy al</w>
CE O</w>
g arian</w>
fac ial</w>
suspic ious</w>
T un
ecli pse</w>
Chri st</w>
interven tion</w>
199 7</w>
accur acy</w>
in ser
ecosy stem</w>
ar med</w>
mon sters</w>
Econom ic</w>
olog ically</w>
prepar ations</w>
broadca sted</w>
archit ect</w>
r ope</w>
in ated</w>
pre ad</w>
appe aring</w>
liter ate</w>
ff le</w>
will power</w>
We b
quar ters</w>
br ain
The ory</w>
Bo ard</w>
e astern</w>
Ta ke
car ed</w>
fe males</w>
Y oung</w>
excur sion</w>
wi ki
gam bling</w>
anc e
bir th
perspec tives</w>
ac id</w>
sen tim
dis satisfaction</w>
you t</w>
em pa
cap tured</w>
dispat ched</w>
conveni ently</w>
hur ting</w>
Prin ce</w>
10 %</w>
goo dness</w>
P lan
bl ank</w>
ac coun
T ER
ta ils</w>
pd f
bur nt</w>
li te</w>
rub ber</w>
star ving</w>
down loaded</w>
am bition</w>
mel tdown</w>
cl ari
L FR</w>
Y OUR</w>
J azz</w>
lab our</w>
conne cting</w>
den i
P R
compli cations</w>
G oth
paragrap hs</w>
in s
C air
cri pt</w>
car d
gre edy</w>
ab oli
profession ally</w>
gym nastics</w>
respec tive</w>
pill ow</w>
d fish</w>
termin al</w>
l ay
acquain tances</w>
A IN</w>
ani e</w>
pain ter</w>
den ied</w>
P ok
sli de</w>
eas ed</w>
omet res</w>
du </w>
ch ment</w>
Tak oyaki</w>
es el</w>
Ya mag
Kan to</w>
wor m</w>
black out</w>
li ve
re processing</w>
M em
Li br
memori zed</w>
peri al</w>
T AK
fail ures</w>
damag es</w>
. ph
absolu te</w>
po ckets</w>
en tic</w>
kil ometres</w>
OM E</w>
M ars</w>
Gr and
snow board</w>
volun tary</w>
sp y</w>
mel ting</w>
Mich el</w>
check up</w>
Eli za
n ut
us ages</w>
W I
ch u</w>
inter f
t ap
U eno</w>
gi ous</w>
resi stant</w>
Movi e</w>
no dded</w>
clos ure</w>
un avoid
wi shing</w>
f ence</w>
st ina</w>
F av
n in
sur gical</w>
t wins</w>
distin ct</w>
as sa
ad er</w>
h ills</w>
sacri fic
t om</w>
grap es</w>
ple ss</w>
pro ves</w>
be ll
pl u
shr ines</w>
work out</w>
fol ks</w>
C in
regul ation</w>
Ai kido</w>
ec tion
ca tion
suspe ct</w>
gad get</w>
weal thy</w>
D A</w>
corpor ation</w>
he al</w>
ten ing</w>
wet land</w>
expan sion</w>
convin cing</w>
ic ed</w>
perm it</w>
H ei
admit tedly</w>
plac ing</w>
an onym
tru sted</w>
A z
p essi
Gram mar</w>
high ways</w>
bri gh
super sti
decre ases</w>
il a</w>
4 /
establi shment</w>
an as</w>
ani an</w>
der i
c ows</w>
ge ograph
v ary</w>
Mich igan</w>
. in
loy alty</w>
loy al</w>
bath tub</w>
he ctic</w>
ri ver
co z</w>
ang els</w>
I zakaya</w>
K S</w>
ful filled</w>
wiki /
archit ectural</w>
V inci</w>
yu an</w>
G M
con ci
en z
Yamag ata</w>
Ear thquake</w>
Sup er</w>
H it
tor ture</w>
Y am
El ena</w>
FRI EN
individu ally</w>
tr ous
fla g</w>
£ </w>
198 0</w>
hero ine</w>
3 00
er a
chop sticks</w>
Se ville</w>
tra il</w>
Gar den</w>
insul a</w>
devot ed</w>
chri stmas</w>
tit ania</w>
mon etary</w>
ge ar</w>
back pack</w>
ic illin</w>
pl um</w>
form ula</w>
issu ed</w>
J O
un consciously</w>
draw back</w>
a ks</w>
j an
h mmm</w>
fertili ty</w>
L O</w>
don ation</w>
se ed</w>
C ra
tt a</w>
ch o</w>
astron au
tru st
ee ds</w>
publi shing</w>
Sus an</w>
W OR
Har vard</w>
kipedia .org/
Y ak
Glo bal</w>
en ting</w>
ed it</w>
en suring</w>
lat ent</w>
ali sation</w>
dipl om
Me tro</w>
investi g
sli p</w>
Eliza beth</w>
7 0%</w>
3 9
de tri
ali a</w>
ra il</w>
preten ded</w>
yi eld</w>
kipedia.org/ wiki/
interpre t</w>
i zed</w>
pe er</w>
secre tly</w>
pl er</w>
spin ning</w>
Arab </w>
An ton
on ions</w>
correc ts</w>
reach es</w>
bu g</w>
E U</w>
em itted</w>
car di
na vi
eager ly</w>
decl ining</w>
J obs</w>
si gh
bac teria</w>
L abor
negle ct</w>
hum ble</w>
wides pread</w>
regi onal</w>
1 20</w>
Ani me</w>
oc topus</w>
lo gged</w>
at eg
ha mm
immigr ation</w>
Fr ank
serv ant</w>
W olf</w>
selec ting</w>
- nuclear
gui ded</w>
br ut
F OR
e ver
Australi ans</w>
act resses</w>
moder ate</w>
fashi ons</w>
P on
pro jec
up grading</w>
re sem
Cam er
er ies</w>
ani mations</w>
http://en .wi
o live</w>
witn essed</w>
mo chi</w>
che fs</w>
s in</w>
up dating</w>
con ve
ari a</w>
disp ute</w>
X Y
sal ty</w>
I chiro</w>
5 6</w>
cur se</w>
distr acted</w>
pi res</w>
D NA</w>
pl ots</w>
N ature</w>
T s
rum or</w>
memori al</w>
Holl and</w>
inter personal</w>
AN A</w>
log ic</w>
incen tive</w>
entreprene ur
theat res</w>
ti tion</w>
ur ge</w>
I m</w>
Pep per</w>
be verages</w>
hoo ked</w>
J im</w>
tem per</w>
re infor
brow sing</w>
3 %</w>
Gu am</w>
organiz er</w>
O ur</w>
jo king</w>
r ating</w>
card board</w>
pan els</w>
bak ery</w>
des ired</w>
tele vi
ir ation</w>
otyp es</w>
des irable</w>
Inc eption</w>
Certi ficate</w>
believ ing</w>
rati o</w>
ut ter</w>
respon ded</w>
guid ance</w>
J ose</w>
inter n</w>
assum ed</w>
fat al</w>
per t</w>
ran king</w>
C rac
LIS H</w>
Z ac</w>
C e
S lo
su ke</w>
wr ap</w>
hon e
W el
fi ref
absor b</w>
a /
pan cakes</w>
P E
ne ck
ici ans</w>
spiri tual</w>
h on</w>
D ance</w>
ill umin
consist ent</w>
suspen ded</w>
contain ing</w>
bu bble</w>
commerci als</w>
adm ired</w>
it e
Br own</w>
g ains</w>
ri l</w>
monit oring</w>
tr ams</w>
postpon ed</w>
stri ve</w>
t an</w>
mis understand</w>
4 9
ver ted</w>
stat ements</w>
sta ffs</w>
los es</w>
trous ers</w>
re scu
au ction</w>
Re gar
pud ding</w>
http://en.wi kipedia.org/wiki/
Ai chi</w>
re turns</w>
p ills</w>
sim pler</w>
S ri</w>
gos h</w>
hoo ds</w>
J ake</w>
v ell
guaran te
7 7
op edi
U. S.
sk ill
cr yst
understand ings</w>
t ours</w>
gi an</w>
st on</w>
se mi</w>
AS A</w>
accumul ate</w>
om ele
wi l
ing -
por trait</w>
tal s</w>
S ong</w>
a use</w>
3 1st</w>
competit ors</w>
b att
consider ate</w>
K Y
L ost</w>
Z u
Wal ter</w>
maj ored</w>
P an
sub stitute</w>
U M
hot test</w>
e es</w>
S at
un written</w>
inspir ing</w>
H ot</w>
af ting</w>
U K
en roll</w>
ff y</w>
I V
ca ution</w>
. co
nee dy</w>
J ava</w>
evol ved</w>
helicop ter</w>
no tic
liqu or</w>
K now</w>
be couse</w>
horiz ons</w>
ar chi
lou nge</w>
barri ers</w>
jud ging</w>
butter flies</w>
cultiv ate</w>
ad es</w>
accom mo
accommo date</w>
D ic
Ph D</w>
team mates</w>
di men
info /
drop ping</w>
popul ations</w>
semin ars</w>
B I
hi bition</w>
aff air</w>
recogni tion</w>
ti ger</w>
chest er</w>
eng aging</w>
bag gage</w>
z ona</w>
as sets</w>
ic o</w>
Pro gram</w>
divor ce</w>
ri sky</w>
po is
pursu ing</w>
tou gh
O bon</w>
UN IQ
Hon da</w>
floo ded</w>
St or
az awa</w>
be aten</w>
qu et</w>
prefer ence</w>
sea weed</w>
qu een</w>
p oured</w>
as sured</w>
Ari zona</w>
Ron al
cr ack</w>
re str
a tives</w>
in timate</w>
bother ing</w>
ta sting</w>
after shocks</w>
S S</w>
Ex am</w>
cal li
ph oned</w>
embr ace</w>
ici ous</w>
bul b</w>
cover ing</w>
direc tors</w>
S ome</w>
L ev
inst in
Tran s
g ment</w>
Do g</w>
comp ose</w>
over weight</w>
po ison</w>
hurri cane</w>
sched ules</w>
m aps</w>
pur a</w>
sna kes</w>
sou ls</w>
la tions</w>
offici als</w>
shar es</w>
gre et</w>
e ed</w>
to ast</w>
kil o
obli ged</w>
high light</w>
Iri sh</w>
h ana</w>
na ked</w>
ap le</w>
st um
reas oning</w>
neigh boring</w>
suspen se</w>
Re g
O d
Fr om</w>
% 2
administr ative</w>
imag inary</w>
pres sion</w>
di sch
J unior</w>
De ath</w>
tur b
a sted</w>
a g</w>
2 7th</w>
frag r
min ority</w>
Cat al
ow ice</w>
en abled</w>
ma iled</w>
fri es</w>
kit a</w>
Y o
go ds</w>
a tively</w>
exten sion</w>
ag ents</w>
H .</w>
M S</w>
Ya kiniku</w>
di ous</w>
affi ti</w>
gr affiti</w>
K aw
po lish</w>
R oy
ak ana</w>
deli ghtful</w>
le mon</w>
pronoun ciation</w>
U l
on el</w>
bar gain</w>
er es</w>
new s.
nur ses</w>
N ote</w>
lo s</w>
tr ucks</w>
K ur
mar vell
r y
arch ery</w>
re min
hu h</w>
un safe</w>
Lu ci
Kag oshima</w>
W ay</w>
prejudi ce</w>
hand made</w>
trust worthy</w>
fi er
critici ze</w>
u l</w>
offici ally</w>
M ost</w>
enti a</w>
pizz as</w>
em it</w>
ba shi</w>
carr ot</w>
ole sc
Th ank
ag encies</w>
pro vo
Fri ed
strugg led</w>
gu ards</w>
er nity</w>
mar ked</w>
ques tioned</w>
Mich el
th o
list ens</w>
G l
nus .edu
hur ried</w>
av en</w>
disch ar
Pok emon</w>
Cambo dia</w>
conver ted</w>
ob s
. e
wi sely</w>
dat abase</w>
I ran</w>
glo ves</w>
20 30</w>
separ ation</w>
sti cal</w>
sh ita</w>
repe ating</w>
t ape</w>
ad olesc
appro val</w>
bar ber</w>
invest ors</w>
P sych
assi stants</w>
twee t</w>
wrest ling</w>
aff ecting</w>
ma ths</w>
tri cky</w>
nos tal
y ang</w>
ex cer
dis agre
ow n
requ esting</w>
tr e</w>
te ar</w>
op pose</w>
Re actors</w>
Pla za</w>
Di ego</w>
C R</w>
am ic</w>
T ER</w>
fini shes</w>
adv oc
to kyo</w>
acces sibility</w>
on ous</w>
consul t</w>
satis factory</w>
demo li
e quality</w>
TH ER</w>
I w
r ank</w>
presti gious</w>
typh oons</w>
les ser</w>
20 50</w>
Dani ela</w>
con sole</w>
str ange
u ment</w>
air ed</w>
far ming</w>
5 .
Toshi ba</w>
ph y
Par k
consum ed</w>
en sures</w>
Park our</w>
Mar athon</w>
m asks</w>
I ra
summ ers</w>
back stage</w>
é s</w>
Swe dish</w>
ru ins</w>
che ering</w>
AN T</w>
2 2nd</w>
expres ses</w>
rac ket</w>
memb ership</w>
indepen dently</w>
D el
seven th</w>
. net/
Engine er</w>
Labor atory</w>
tou ches</w>
cell phones</w>
wor lds</w>
sc or
re late</w>
Intro duction</w>
l ap</w>
e dly</w>
sh ook</w>
underst ands</w>
Dandery d</w>
migr ation</w>
P R</w>
it ably</w>
skate board</w>
&apos;( 2:
bac on</w>
G W</w>
h iro</w>
es e
L y
pa inters</w>
belong ing</w>
run ners</w>
happ end</w>
pack aging</w>
bit ten</w>
ta i
inter active</w>
un deni
cough ing</w>
Di sc
Ts z</w>
hum our</w>
Du que</w>
gu chi</w>
c ap</w>
om ed</w>
How ever</w>
T IME</w>
wi </w>
qu isite</w>
re placement</w>
J un</w>
mel ted</w>
Than ks</w>
l on</w>
0 5</w>
e gg
on y
chi ll</w>
ow e</w>
il y
concl usions</w>
argu ing</w>
L or
9 00</w>
2 6th</w>
ven ding</w>
ep y</w>
cont acts</w>
Pr acti
tori al</w>
cover age</w>
I II</w>
sci ence
fl owing</w>
E astern</w>
H 1
alpha bet</w>
Administr ation</w>
Fin al</w>
NO W</w>
certi fication</w>
fin ances</w>
or ph
deb t</w>
hon ey
a shi
12 3
4 1</w>
sp oil</w>
W ILL</w>
h m</w>
analy zing</w>
re hear
p tions</w>
ri des</w>
t aller</w>
Ike bukuro</w>
un clear</w>
su al</w>
hair styles</w>
serv ants</w>
Mor ning</w>
shap es</w>
ap h
ona ire</w>
PS P</w>
th um
o e</w>
congratul ate</w>
C O</w>
im posed</w>
mic rop
ex quisite</w>
char ges</w>
mis understandings</w>
half way</w>
oc arina</w>
re views</w>
ver sions</w>
T ot
ob a</w>
ad as</w>
con ce
on i</w>
Luc as</w>
T re
Hel p</w>
) .
gover ment</w>
sl ation</w>
Cos ta</w>
li d</w>
AI ES
K ou
Rep ort</w>
fur </w>
habit ats</w>
in qu
Spe ech</w>
J ess
satel lite</w>
reha bili
L ot
class rooms</w>
r at</w>
D ays</w>
In du
din os
Ma o</w>
dete ctive</w>
de vil</w>
em o</w>
ge ography</w>
tt on</w>
fish er
AIES EC</w>
sub stance</w>
we gian</w>
ch asing</w>
pres sing</w>
ar do</w>
ENG LISH</w>
le /
com positions</w>
acc o</w>
An d
0 2</w>
snor k
mo ck</w>
fi er</w>
Mari o</w>
he im
mod est</w>
May be</w>
J P
differ enti
Ki y
k en
roll s</w>
Sor ry</w>
Stu di
0 4</w>
amaz ingly</w>
Roy al</w>
ti l
fa thers</w>
swe aty</w>
stret ching</w>
ban anas</w>
practi sed</w>
re signed</w>
ha c
S HO
indic ate</w>
es cal
ro e</w>
for es
N ations</w>
fun ni
ful l
K or
mu ff
resear ches</w>
pat ri
Elec tric</w>
imp ul
U se</w>
kic ked</w>
Ex hibition</w>
thrill ed</w>
ballo on</w>
cl ue</w>
fire work</w>
bi o</w>
4 7</w>
U don</w>
H al
Per u</w>
ok i</w>
Thank sgiving</w>
speciali st</w>
Colombi an</w>
M ath</w>
consi sted</w>
S ud
on ia</w>
JAP AN</w>
ingredi ent</w>
sli des</w>
c ott
e ding</w>
li onaire</w>
ol a</w>
wardro be</w>
Ch ang
decl ined</w>
with stand</w>
n ut</w>
D J</w>
ca thedral</w>
high lighted</w>
pharmac eu
g ang
lef to
influ ential</w>
Phys ical</w>
B on</w>
ba ths</w>
as th
bloo dy</w>
e ted</w>
hol m</w>
advant ageous</w>
floo ding</w>
and ler</w>
Exam ination</w>
Sc out</w>
enti tled</w>
St an
com pos
re sting</w>
breath taking</w>
por tr
Val en
pronoun ced</w>
F all</w>
p per
war ned</w>
rout ines</w>
econom ies</w>
ri cher</w>
C ould</w>
faul ts</w>
classi fied</w>
p ag
F F
era dic
fru it
ski pped</w>
tion ality</w>
X X</w>
4 3</w>
P ir
S pi
prosper ity</w>
ste adily</w>
z awa</w>
ele cted</w>
T .</w>
Bre ak</w>
sa fest</w>
XY Z</w>
inci dentally</w>
am med</w>
Ali </w>
post graduate</w>
constitu tion</w>
calli graphy</w>
eur os</w>
pi er
arro gant</w>
199 0</w>
Kit ty</w>
ch ased</w>
oy ama</w>
ro ast</w>
bom bs</w>
p ouring</w>
squ ee
origin ated</w>
PC s</w>
Co de</w>
accompli shed</w>
st le</w>
stam ina</w>
qui to</w>
inev itably</w>
O ut
guitari st</w>
uu uu
pl ed</w>
wan dering</w>
d ges</w>
sam ples</w>
pregn ancy</w>
Li ber
u el</w>
S of
nit ude</w>
c on</w>
skunk works</w>
nut shell</w>
ra ises</w>
T ree</w>
H1 N1</w>
thre ats</w>
ma x</w>
par alle
Pr ague</w>
awar ded</w>
M s.</w>
contribu tions</w>
A my</w>
N ick</w>
app s</w>
n ate</w>
min g
pro x
wri tings</w>
cell ular</w>
envel ope</w>
Ferr ari</w>
Y as
cou ld
Don alds</w>
0 6</w>
Sta ti
T ele
conserv ative</w>
8 4</w>
R un
iP hone
ru g
main land</w>
or ite</w>
uni forms</w>
m ps</w>
U P</w>
Eng l
AB C</w>
interrup ted</w>
Li ke</w>
y le</w>
dem entia</w>
los er</w>
re me
encour agement</w>
m elt</w>
Con cer
baby sitter</w>
straw berries</w>
flu te</w>
Pi ece</w>
uni st</w>
maj ors</w>
li hood</w>
dead ly</w>
C L
M essi
en ligh
toi lets</w>
gen res</w>
tal es</w>
Da ily</w>
ye ar
P as
p c</w>
bl own</w>
ali ke</w>
N ASA</w>
tar gets</w>
z heim
reli ability</w>
ur er</w>
non sense</w>
dres ser</w>
ne at</w>
Eng lish
U F
W E</w>
Fer n
Medi save</w>
Jo ey</w>
unavoid able</w>
ob serv
detri mental</w>
handic apped</w>
p and
clos et</w>
smo ked</w>
in er</w>
p acks</w>
Y ellow</w>
subsequ ently</w>
? id=
pre ced
ch it
Y en</w>
ab normal</w>
leg ally</w>
ow l</w>
T it
es days</w>
ende av
mo le
Libr ary</w>
bus ier</w>
win es</w>
prof itable</w>
ru ce</w>
A y
pre positions</w>
Ar tic
k er
U D
opti mi
Pa ul
T wo</w>
F ree</w>
snow s</w>
Jess ica</w>
6 6</w>
dynam ic</w>
du st
dr agon</w>
pr o</w>
Y ang
W .</w>
W ak
Bri dge</w>
refle cted</w>
S F</w>
sever ely</w>
L ab
not ed</w>
den sity</w>
perf ection</w>
infin ite</w>
del ays</w>
gl ance</w>
Steph anie</w>
r ays</w>
v ent
pan el</w>
seven teen</w>
pump kin</w>
Alex ander</w>
foun tain</w>
P hone</w>
D ad</w>
u x</w>
str ateg
shri mp</w>
lear ns</w>
z i
mus icals</w>
bi e</w>
W u
Mei ji</w>
W oo
M is
ca shi
gre ss</w>
ori e</w>
refer red</w>
mu d</w>
ri ses</w>
comedi an</w>
im pe
G FR</w>
comp ens
brut al</w>
equi valent</w>
C op
corpor ations</w>
cr ab</w>
sc an
Tr av
A t</w>
pain s</w>
C R
inten tions</w>
endur ance</w>
Gun dam</w>
entreprene ur</w>
at tain</w>
cinem as</w>
carri ers</w>
fam ine</w>
i e
} </w>
behavi ors</w>
Z ar
gard ening</w>
Goth ic</w>
mar t</w>
Mar ina</w>
D om
accur ately</w>
N ext</w>
r afting</w>
Leon ardo</w>
mic ro
clu es</w>
un willing</w>
open ha
mag nitude</w>
cal mly</w>
sp an</w>
H R</w>
smar ter</w>
frustr ation</w>
techn ically</w>
girl friends</w>
c es
en sive</w>
h it
rug by</w>
Ac counting</w>
PS 3</w>
t les</w>
chec ks</w>
catastroph ic</w>
b by</w>
us u
a a</w>
X mas</w>
re verse</w>
m ang
respec tful</w>
comb at</w>
Chan nel</w>
l acks</w>
Han ami</w>
K on
3 2
rum ors</w>
m c
diagnos ed</w>
accep ting</w>
u ts</w>
recogni sed</w>
lun ch
pen gu
OU LD</w>
C A</w>
scar f</w>
the irs</w>
C offee</w>
sy l
ho ly</w>
tire dness</w>
Ch andler</w>
paper backs</w>
Mari anne</w>
homes ick</w>
I denti
cot ton</w>
bl ink</w>
MR T</w>
L en
summer time</w>
Prin cess</w>
com modi
tab let</w>
vari eties</w>
st alls</w>
te dious</w>
no tion</w>
E th
prom p
Kat owice</w>
des k
gran ny</w>
ener gy
Steph an</w>
rob bed</w>
inf ection</w>
stoc ks</w>
in ity</w>
A ll
aj ima</w>
pan cake</w>
mm mm
conf ess</w>
3 6
D a</w>
inv asion</w>
circum stance</w>
G en</w>
anno y</w>
un limited</w>
199 1</w>
Wom en</w>
consul tant</w>
M B</w>
en close</w>
sub ways</w>
Mr s.</w>
Kyu shu</w>
k ills</w>
weak er</w>
re presented</w>
ran ean</w>
R oss</w>
K FC</w>
Bo y</w>
re fr
li b
L ima</w>
A dri
lin ks</w>
ter ranean</w>
marvell ous</w>
inste in</w>
W ee
B all</w>
im port</w>
stic ky</w>
Nar uto</w>
Fin an
vitam ins</w>
un ting</w>
B EC
r fid
pl as
P T</w>
A m</w>
contr ols</w>
ec tures</w>
interf ere</w>
Phys ics</w>
S et
an cho
gi ble</w>
defin ite</w>
ó n</w>
complex ity</w>
on ically</w>
ti ans</w>
Sin cerely</w>
subur b</w>
honest y</w>
Wil pert</w>
at ly</w>
sli ced</w>
C ari
occur ring</w>
P AR
ote chn
An y
second hand</w>
institu tes</w>
ph ony</w>
o ice</w>
f ain
allow ance</w>
modi fy</w>
medi eval</w>
adverti se</w>
cour ts</w>
Su z
G PA</w>
le ak</w>
trans lations</w>
T U</w>
ab out
conver sely</w>
at ure
intri gu
si de
no ve
be half</w>
nus.edu .sg/
P os
k ung</w>
re port
O l
C openha
obs essed</w>
r in
signific ance</w>
mos quito</w>
g ang</w>
attrac ting</w>
C OM
pr ayer</w>
me ats</w>
auth entic</w>
On sen</w>
recover ing</w>
attribu ted</w>
cou ch</w>
L ine</w>
strange ly</w>
exerci sed</w>
B run
A gain</w>
pos ters</w>
nee d
V O
sl opes</w>
I M</w>
struc tured</w>
seri al</w>
ti ghtly</w>
LO VE</w>
IF A</w>
begin ing</w>
F oundation</w>
ke t
hal e</w>
H an</w>
tow el</w>
scu ba</w>
Finan cial</w>
re actor
el ines</w>
sy st
m ere</w>
cap ture</w>
y an</w>
ER E</w>
trac ks</w>
avo ca
ge t
Sil ver</w>
pand as</w>
paradi se</w>
I ce</w>
fac ture</w>
indic ated</w>
Is su
4 9</w>
deb ates</w>
trans f
Sh op
kn it</w>
sh t
l ine
commu ters</w>
utili zed</w>
atten dant</w>
6 7
inten tionally</w>
gi e</w>
on om
exc ess</w>
inter face</w>
ot ype</w>
concentr ating</w>
ste aling</w>
ti ble</w>
di an</w>
hi a</w>
tre m
imit ate</w>
a ud
Cor rec
N u
H T</w>
shor tly</w>
Y ears</w>
ca m</w>
Medi terranean</w>
tur ally</w>
Li ve</w>
Age ing</w>
o id</w>
Saf ety</w>
st eep</w>
os is</w>
S car
p on</w>
anti que</w>
ic e
el abor
m ic</w>
Colos seum</w>
ch ir
fu ton</w>
intro duces</w>
19 70</w>
m oo
N ep
tr </w>
mush rooms</w>
th ats</w>
cal orie</w>
sympa thy</w>
OO D</w>
val id</w>
albu ms</w>
s ors</w>
qui sition</w>
ut a</w>
Ap p</w>
as a</w>
fi xing</w>
suppor tive</w>
butt ons</w>
chr onic</w>
yy yy
in ent</w>
visit or</w>
Pr ot
f laws</w>
er d</w>
Mi ami</w>
UNIQ LO</w>
B ank</w>
deli ght</w>
3 4
199 4</w>
stuff s</w>
a e
inf eri
Fried land</w>
less ness</w>
bu gs</w>
ha ts</w>
Al li
e ds</w>
aw ards</w>
to b
L es
F our</w>
Nor wegian</w>
W ould</w>
poor ly</w>
Musli ms</w>
don ated</w>
threat ened</w>
f lights</w>
os hop</w>
meas ured</w>
guil t</w>
sen ds</w>
ble eding</w>
col li
ag r
master ing</w>
NE W</w>
narr ator</w>
som nia</w>
Regar ds</w>
Man chester</w>
gi a</w>
genu ine</w>
. 15</w>
sc ar</w>
es thetic</w>
as is</w>
bri cks</w>
ap ology</w>
listen er</w>
s ers</w>
apologi se</w>
dy nasty</w>
dou gh
decl ared</w>
E instein</w>
mu ggy</w>
ov a</w>
f erry</w>
5 2</w>
sl aves</w>
design ated</w>
Sh r
home made</w>
re p
n an</w>
A th
o a</w>
explo ded</w>
Char lie</w>
un be
3 7
tu t
ing ness</w>
Al zheim
G S</w>
In no
identi fied</w>
tu </w>
B y</w>
Stock holm</w>
http://www. gen
Ch ap
Ani mal</w>
Con ver
cor ri
M L</w>
Crac ow</w>
fro g</w>
gr ad</w>
bi bli
punc tu
S om
B L
B lo
PI EC
st ure</w>
ne ur
out look</w>
poli tely</w>
demo cratic</w>
im per
O ut</w>
ai ds</w>
demonstr ation</w>
cott age</w>
Ira q</w>
http://www. world
expl or
Patri ck</w>
P aki
ju ggling</w>
land lord</w>
ener gies</w>
d ants</w>
four teen</w>
ambi gu
o date</w>
wor s
sci ences</w>
om an</w>
Dar k</w>
S imp
Seas on</w>
G old</w>
p ic</w>
de graded</w>
D id</w>
OU N
re stored</w>
pre cau
IK E</w>
F ant
arrange ments</w>
0 7
fore head</w>
coo ker</w>
UR E</w>
C oke</w>
cashi er</w>
swimm er</w>
f old</w>
spo iled</w>
F ai
P D
col lo
p sy
sin k</w>
tun nel</w>
wa kes</w>
figh ter</w>
A USE</w>
200 7
St and
circul ation</w>
ve g
wi ch</w>
com pri
gi ri</w>
T ake</w>
work shops</w>
Buddhi sm</w>
ff any</w>
allevi ate</w>
.com .
hi ke</w>
Stu dies</w>
c ents</w>
sympa th
IT E</w>
E .
W ha
ani shed</w>
cab inet</w>
Beau tiful</w>
po et</w>
G et</w>
Ti ffany</w>
&apos; &apos;</w>
Adv anced</w>
V it
Chi </w>
d ancer</w>
wr ong
hos ted</w>
che er
jew el
flav ors</w>
re solutions</w>
v ain</w>
over view</w>
En try</w>
PIEC E</w>
P .</w>
as ian</w>
us sels</w>
Br ussels</w>
Sh er
V IP</w>
H D</w>
jud ged</w>
symp tom</w>
ab ata</w>
lingui stics</w>
BEC AUSE</w>
g ard</w>
compon ent</w>
Valen cia</w>
tre ats</w>
fl at
Af gh
s ma
any how</w>
men us</w>
gol dfish</w>
deri ved</w>
p age
TH IS</w>
List ening</w>
H A</w>
6 .
M ON
tran spar
sp ends</w>
ms n</w>
clear er</w>
se l</w>
hom eland</w>
my th</w>
accoun tant</w>
Copenha gen</w>
interpre tation</w>
Sec ret</w>
r ul
Y E
l av
M en</w>
discipl ined</w>
im pose</w>
prote in</w>
condition ers</w>
def ence</w>
Th en</w>
sion al</w>
cham ber</w>
WI TH</w>
trans formation</w>
oin t</w>
off ence</w>
br ac
ar y
sociali ze</w>
A ff
zz z</w>
in fr
asi a
smo ker</w>
T on
train ee</w>
v als</w>
en vious</w>
reali zing</w>
G hi
ag it
ju ana</w>
fe ared</w>
artic les/
ver bal</w>
suff ers</w>
acci dental</w>
f ow
ology /
B I</w>
fier ce</w>
fo x</w>
terri tory</w>
as ia</w>
ow er
sc attered</w>
Fre ddy</w>
fran chi
po o</w>
lif ting</w>
Mo ham
integr ated</w>
respe cts</w>
W ind</w>
ti res</w>
enter tains</w>
cl um
sne akers</w>
ol is</w>
S ally</w>
, 2009</w>
empha sized</w>
fre ak</w>
cop ing</w>
C C
ts al</w>
dele ted</w>
Y an
R oc
J im
.co .uk/
we l</w>
illustr ates</w>
bles sed</w>
brow se</w>
r ussi
protagoni st</w>
B ou
Ex po</w>
exam ined</w>
long ed</w>
he els</w>
sl ump</w>
up grade</w>
Chr is</w>
Ch all
glob ally</w>
neck l
per ate</w>
O pen</w>
skate boarding</w>
M any</w>
J ay</w>
surpri ses</w>
commu ter</w>
Cu ba</w>
adver se</w>
mom s</w>
S ee</w>
dolph ins</w>
inj a</w>
Val ley</w>
T ra
p ound</w>
M id</w>
newcom er</w>
Y el
asth ma</w>
compon ents</w>
M BA</w>
cab </w>
con front</w>
men tation</w>
exc uses</w>
hard ware</w>
I shi
4 0%</w>
ali en</w>
furi ous</w>
scrip ts</w>
tob acco</w>
respec ting</w>
broad er</w>
loc als</w>
im press</w>
str ation</w>
cli ff</w>
pod casts</w>
ex port</w>
manu facture</w>
oper ator</w>
ren ting</w>
spect ators</w>
col oured</w>
colle ctions</w>
re sig
H is</w>
O ber
Ar sen
pot entially</w>
B y
hi d</w>
jum ps</w>
per sever
rehabili tation</w>
ali stic</w>
z ations</w>
coordin ation</w>
a is
geograph ical</w>
nec essi
shar ply</w>
ab o
.asp x
k ong</w>
war n</w>
twi sted</w>
conne cts</w>
will ingness</w>
Coun cil</w>
clean ers</w>
ex pli
Psych ology</w>
kn itting</w>
B ott
C au
can teen</w>
integr ate</w>
t att
M A</w>
un successful</w>
ni sh</w>
ad ren
t ang
Le o</w>
mp 3</w>
astoni shing</w>
un realistic</w>
Fern anda</w>
heal ing</w>
m acy</w>
Ex cel</w>
tr ol
ash a</w>
analy tical</w>
mos quit
tr um
in somnia</w>
mon keys</w>
ca ster</w>
mer chan
M ing</w>
bo dy
fis sion</w>
n oun
Alzheim er</w>
ograph ic</w>
eleph ant</w>
sentim ental</w>
light ning</w>
t ones</w>
un ch</w>
credi ts</w>
mess enger</w>
fr ame
hol es</w>
Super critical</w>
cre ature</w>
zz a</w>
co aster</w>
Oper a</w>
thin ner</w>
cuisin es</w>
Mon go
medi cation</w>
negoti ate</w>
mo on
v ampire</w>
bi scu
S oc
lou der</w>
http://www. nature
deci sive</w>
al -
he i
SW CR</w>
renov ated</w>
Acci dent</w>
s .com/
fa iling</w>
cop y
alu able</w>
and -
dis close</w>
Yel ts
Yelts in</w>
ul u</w>
Mal e
parti al</w>
ili </w>
initi ative</w>
os es</w>
Fav orite</w>
P rob
lea ther</w>
ll ed</w>
Hun ger</w>
2 %</w>
Hear t</w>
dete ction</w>
Pe ace</w>
flav ored</w>
fr ank</w>
adv ices</w>
bli </w>
certain ty</w>
inv aluable</w>
king dom</w>
pel let</w>
3 1
ob session</w>
ombi e</w>
ome o</w>
spi der</w>
in ds</w>
belong ings</w>
swe ater</w>
enterpri ses</w>
appro ved</w>
Ar chit
bra very</w>
preser ved</w>
bran ded</w>
v am
V ir
gg ers</w>
oper ated</w>
su bli
baby sitting</w>
pu mp</w>
a shes</w>
lo ans</w>
Lan ka</w>
murder er</w>
critici zed</w>
gene tic
H om
as er</w>
H E
motor cycles</w>
op hone</w>
st ent</w>
.org/ info/
Tan z
necessi ties</w>
aller gies</w>
su ited</w>
n ar
omi zu</w>
super vision</w>
N ice</w>
Iw ate</w>
vine gar</w>
sl al
disc o</w>
Ghi bli</w>
fe ar
9 8
process ed</w>
p ad
e tr
der n</w>
Mit ty</w>
rest room</w>
Hak odate</w>
L L
un c
ann ually</w>
am oto</w>
na ive</w>
wa ffle</w>
F IFA</w>
conver sion</w>
A tom
motiv ating</w>
desk top</w>
He aven</w>
mis sion
top ic
wi ped</w>
ad dresses</w>
idi ot</w>
vir uses</w>
te st
Anton io</w>
mon ument</w>
graph ite</w>
V ide
Male fic
fi l</w>
cop ied</w>
A gri
lam p</w>
radi cal</w>
d an</w>
refer ee</w>
Shr ine</w>
plas tics</w>
Demo cratic</w>
F i</w>
W E
re y</w>
sole ly</w>
G as</w>
pessi mistic</w>
fi res</w>
won ders</w>
C ar</w>
tra iler</w>
Fin ance</w>
D ome</w>
bath rooms</w>
out skirts</w>
J un
spor ting</w>
p p</w>
bru shing</w>
announ ce</w>
Cl ass
dou </w>
i Tun
Feder al</w>
rang ing</w>
pack ages</w>
alle st</w>
mo h
re tri
distur bing</w>
comp act</w>
phy si
revi sed</w>
continu ation</w>
exhi bit</w>
st ain</w>
H in
re spir
Luc ky</w>
sti r</w>
Foo tball</w>
contin ually</w>
ve ter
ren owned</w>
cent ric</w>
gor ous</w>
S R</w>
consul ting</w>
athle tics</w>
n avy</w>
accumul ated</w>
lan es</w>
Messi </w>
bru shed</w>
emo tionally</w>
li p</w>
b bean</w>
revolu tionary</w>
comp as
re use</w>
b en</w>
aim ing</w>
v a
AR S</w>
Y uki</w>
dete ct</w>
z ards</w>
H P</w>
pot tery</w>
rel ay</w>
in spec
valu ed</w>
form ul
dr ag</w>
bum ped</w>
d yed</w>
blu e
ha ss
wri st</w>
lun g</w>
TO R
sh in
mi stry</w>
AM A</w>
pro cra
l .gov/
cho ir</w>
prepar es</w>
z o
car pet</w>
IK EA</w>
conver t</w>
viol ation</w>
K O
J ean</w>
master piece</w>
ci </w>
re write</w>
re mo
mechani sm</w>
speciali sts</w>
S hel
ri val</w>
ell ow
st o
Gor bach
ro l</w>
D y
ballo ons</w>
ick y</w>
to s</w>
mi le
Yam an
Willi am</w>
circu it</w>
air craft</w>
http:// news.
preten ding</w>
l ang
6 4</w>
W as</w>
speci alty</w>
handic ap</w>
soooo o</w>
S ei
repor ter</w>
tu re
C are</w>
Ku ma
popul ated</w>
N orr
reali sm</w>
H all
Moun tain</w>
hard ships</w>
ili ty</w>
jac kets</w>
ec ology</w>
b ols</w>
dis closure</w>
p ine
D D
addic tive</w>
Sche me</w>
plan ed</w>
ha ve
hop eless</w>
iTun es</w>
Dr ama</w>
inter acting</w>
Spe cial</w>
C AN</w>
cal med</w>
M A
sm allest</w>
bu ng
Austri a</w>
y uk
K ev
shor ts</w>
I da
st a</w>
pi ety</w>
long ing</w>
down lo
mu m
il t</w>
4 4
Kim ono</w>
water fall</w>
transl ators</w>
kic king</w>
experim ental</w>
N ot
gri ef</w>
cockro ach</w>
T EST</w>
na use
r ence</w>
coo kie</w>
- -</w>
ID =
bu ry</w>
ceremon ies</w>
ha tr
p av
fruit ful</w>
shr inking</w>
a wa
w ound</w>
L aw
v ow
Col um
Q U
re ject</w>
gi fted</w>
123 45
tremend ously</w>
ex it</w>
L i</w>
hh hh</w>
ir onically</w>
puzz led</w>
f a</w>
The ater</w>
pyram ids</w>
d ong</w>
M ore</w>
identi fying</w>
fr y</w>
con sent</w>
off spring</w>
at us</w>
ter race</w>
por tal
prox y
xx x</w>
appro ve</w>
A ur
ful filling</w>
cru sh</w>
N az
ES T
hatr ed</w>
pe cu
prof icient</w>
recogni se</w>
os u
Bott om</w>
sp oon</w>
dic tation</w>
Nor thern</w>
no ticing</w>
Alli son</w>
S A
infl ation</w>
G ab
un ite</w>
m it
spe cul
mer it</w>
col ds</w>
Qu e
progres sive</w>
8 8</w>
ad u
E ri
in ton
graph s</w>
ap ologies</w>
ad or</w>
kin s</w>
objec tives</w>
Mat t</w>
develop ers</w>
St ore</w>
col umn</w>
re viewed</w>
al um
pres sures</w>
u chi</w>
trans form</w>
lib proxy
l ly</w>
Disc overy</w>
diagr ams</w>
article /
privi leg
poin ting</w>
Elec tr
P op</w>
Un it</w>
Bri gh
Bron te</w>
trans formed</w>
Histor ical</w>
pl ying</w>
foll owers</w>
Se bas
enz hen</w>
bil li
u ous</w>
R af
Her itage</w>
pl s</w>
bles sing</w>
co her
B EST</w>
min ing</w>
at r
Re view</w>
ad option</w>
enterpri se</w>
J on
tur key</w>
h t</w>
str ous</w>
Te a</w>
s th</w>
S L
h ut
ci ations</w>
Com ing</w>
centi meters</w>
Ida ho</w>
ess ence</w>
fi st</w>
us an</w>
interest ingly</w>
libproxy 1.
ex pose</w>
fo g</w>
met aph
5 /
Ronal do</w>
d read
un wanted</w>
subli me</w>
Cor por
per forms</w>
el der
O k</w>
bor ders</w>
IC E</w>
dent ary</w>
hum orous</w>
foot steps</w>
L IF
ver i
di mini
V ar
preser vation</w>
obe di
bu ck
seem ingly</w>
f us
ti st</w>
Mar keting</w>
heavi er</w>
recru it</w>
war ri
pl az
suc k</w>
sym bols</w>
al location</w>
P anda</w>
cul turally</w>
the w</w>
b ang</w>
organi sations</w>
un sure</w>
after no
stimul ates</w>
Cham pion
re ver
empha si
F BI</w>
overwhel ming</w>
B and</w>
rel ying</w>
con sen
tun es</w>
Cari bbean</w>
tournam ents</w>
un its</w>
ol an</w>
V e
M L
ou ter</w>
O P
aerob ic</w>
pre position</w>
in doors</w>
tra uma</w>
p ong</w>
a f</w>
a while</w>
ab s</w>
twi sts</w>
Ale jan
ycl opedi
Prof iciency</w>
re dun
Ten nis</w>
g id</w>
ar able</w>
deliver ing</w>
D an</w>
poll utes</w>
st al
199 0s</w>
H E</w>
voca bu
hair dresser</w>
incl ined</w>
de ck</w>
Norr gard</w>
C G</w>
thou ghtful</w>
distribu te</w>
H a</w>
G lee</w>
conduc tor</w>
my ths</w>
d addy</w>
a holic</w>
C S</w>
j ection</w>
la yout</w>
sp ices</w>
Gir ls</w>
fresh men</w>
mon s</w>
Shop ping</w>
dr ome</w>
Ri k
microp hone</w>
b ol
Atom ic</w>
Les son</w>
C li
e ter</w>
ver ing</w>
whisp ered</w>
mon d</w>
cl ay</w>
re sign</w>
refle ction</w>
Pl ace</w>
tap as</w>
mem o</w>
dial y</w>
Mc Donalds</w>
k y
persu aded</w>
w ery</w>
Isa bel</w>
clean liness</w>
maxim ize</w>
co des</w>
foot print</w>
vers a</w>
cul t</w>
b bed</w>
pre li
se i</w>
initi atives</w>
bed rooms</w>
v ague</w>
sc are</w>
strateg ic</w>
arr ow</w>
at ories</w>
f on
confi denti
fi ance</w>
spor ty</w>
oc o</w>
mo s</w>
harmon ious</w>
Clar k</w>
hesit ating</w>
reve als</w>
w rec
l ent</w>
om ori</w>
ore dom</w>
d anc
D E
K r
prom inent</w>
stor ing</w>
ank le</w>
a emon</w>
happ en
3 /
Par ents</w>
hel pless</w>
rac ial</w>
pharmaceu tical</w>
n es</w>
suspe cted</w>
I Y
ste amed</w>
H o</w>
Ch erry</w>
g ic</w>
Sh enzhen</w>
televi sions</w>
thre aten</w>
Br ad</w>
Juli et</w>
e /
vacc ine</w>
ca ine</w>
ev e
id ols</w>
g ently</w>
Ter min
L am
es a</w>
Cr oss</w>
mul ticul
av en
sh iny</w>
-nuclear .org/info/
dow ns</w>
cation s/
doc tor
to ll</w>
collap sed</w>
ambigu ous</w>
em bar
wa sh
journ al
O p
20 s</w>
gre eted</w>
nee ding</w>
fr om
se dentary</w>
ful fil</w>
sp id
illustr ations</w>
reinfor ce</w>
to es</w>
art a</w>
cap su
thi eves</w>
Brigh ton</w>
tat too</w>
15 00</w>
k ara</w>
jewel ry</w>
tri gger</w>
rel ates</w>
re serves</w>
in efficient</w>
am eni
S ide</w>
S oba</w>
Gre y</w>
Aur ora</w>
conduc ting</w>
ameni ties</w>
ing /
mach in
un preced
d s
Victori an</w>
oo p</w>
o zone</w>
Mi e</w>
sa kura</w>
A re
S S
6 2</w>
hygi ene</w>
Hu an</w>
her e
M etal</w>
Budd ha</w>
Coun try</w>
pe d
cele ss</w>
g aller
r ats</w>
f oster</w>
em a</w>
Kev in</w>
separ ating</w>
sa una</w>
galler ies</w>
Res ort</w>
o b</w>
abbrevi ation</w>
Ed ward</w>
simpli city</w>
L ula</w>
sc ent</w>
ske tch</w>
Pa ula</w>
ci se</w>
ta il
k k</w>
spac ious</w>
sa usage</w>
ep ing</w>
wi re</w>
oc curr
4 6</w>
dr ow
wh ales</w>
ten ded</w>
IN A</w>
kis sing</w>
D ri
ph one
K un
Wee k
Cour se</w>
le le</w>
bud gets</w>
pri celess</w>
sh ade</w>
pack aged</w>
On ly</w>
g our
U.S. A.</w>
D ig
lo an</w>
streng th
dele te</w>
noun s</w>
re sum
ch en</w>
. sht
thr ows</w>
he y</w>
co caine</w>
excep tional</w>
reck on</w>
Sci ences</w>
dis liked</w>
gr ated</w>
lap tops</w>
diagr am</w>
preli min
B ruce</w>
story line</w>
ZZ ZZ
On line</w>
boy friends</w>
ic on</w>
ar cha
s log
str ings</w>
cr own</w>
ad el
Che mistry</w>
C A
p als</w>
expl ored</w>
weigh ed</w>
inspe ct</w>
respir atory</w>
s ir</w>
Conver sation</w>
post p
skyscr apers</w>
h yp
tur tles</w>
plan ing</w>
diver t</w>
fro gs</w>
expan ded</w>
adren al
medi tation</w>
el ove</w>
short com
adop ting</w>
00 yen</w>
firef lies</w>
Am ster
spi res</w>
govern mental</w>
migr ate</w>
cri es</w>
s oooooooo
Christi ans</w>
3 60</w>
B at
Te am</w>
tre k
ear nings</w>
sugge sting</w>
cic adas</w>
Ch u
inton ation</w>
le ak
f an
9 0
air way</w>
tw in</w>
t ness</w>
under going</w>
bo thers</w>
U mmm</w>
lan do</w>
in appropriate</w>
chemi st</w>
L eg
re sorts</w>
d ors</w>
impro vi
afterno ons</w>
Amster dam</w>
comp en
laugh s</w>
Ty ph
John ny</w>
T sunami</w>
hir agana</w>
str ing</w>
Lin ux</w>
extin ction</w>
mid term</w>
Wor ds</w>
dedic ate</w>
vocabu lar
frag ile</w>
dic t
Pr o</w>
gr um
ES S</w>
with draw</w>
4 8
1 %</w>
F le
im planted</w>
Fri days</w>
di f
Dr ag
th west</w>
Qu estion</w>
Res our
dec or</w>
comp lim
7 5
sen sor</w>
t as
Boo ks</w>
C ac
for cing</w>
B each</w>
tim er</w>
ner ve</w>
where by</w>
Bab y</w>
To eic</w>
Or lando</w>
pol ar</w>
Fl or
R evolution</w>
won t</w>
ap parent</w>
en vi
fri st</w>
nine teen</w>
mon op
gi g</w>
L ar
au dition</w>
C ro
dis k</w>
B hut
obli gations</w>
dar ies</w>
squ ash</w>
ne tic</w>
Har aj
reli ance</w>
discour aged</w>
phar macy</w>
Franc o</w>
P ac
bibli ography</w>
grac eful</w>
fai thful</w>
Tru elove</w>
con servation</w>
pas sions</w>
AS AP</w>
pre y</w>
tissu e</w>
r ust</w>
re serv
mechani sms</w>
An dy</w>
18 0</w>
van illa</w>
G ot
bas ement</w>
shortcom ings</w>
intern ships</w>
v om
Tar o</w>
N et</w>
F un</w>
he a</w>
L ion</w>
bas il</w>
infor ming</w>
f m
Ital ians</w>
na ise</w>
domin ant</w>
scrat ch</w>
spid ers</w>
che ap
AV AT
men tioning</w>
cr ac
fl ows</w>
uk o</w>
in adequate</w>
nega tively</w>
liter ary</w>
grand children</w>
ak er</w>
B ye</w>
moun tain
car bo
pri zes</w>
di esel</w>
do z
friend liness</w>
Ober on</w>
L ag
supervi sed</w>
radi sh</w>
fow ard</w>
E IK
orig ami</w>
Al though</w>
ac usa</w>
pick led</w>
kot atsu</w>
excep tions</w>
hu gs</w>
war ran
re al
deser ved</w>
inf ections</w>
investig ating</w>
b oredom</w>
B ang</w>
A ussi
Arsen al</w>
ex changes</w>
Simp sons</w>
B un
v in</w>
comm ented</w>
í a</w>
finger prints</w>
otechn ology</w>
mar ch</w>
eeee eeee
g ates</w>
Ac tive</w>
Arab ian</w>
brigh ter</w>
y _
n /
Ri o</w>
depic ts</w>
Wri te</w>
view /
6 8
H as
Ch ocol
ok onomiyaki</w>
Kuma moto</w>
N in
cre epy</w>
sham eful</w>
adap tation</w>
favor able</w>
st are</w>
slal om</w>
obe se</w>
Sir acusa</w>
regi stration</w>
B ad
compens ate</w>
disappoin t</w>
m es
recru it
comedi ans</w>
C at</w>
cuc umber</w>
mot to</w>
pos ture</w>
distri cts</w>
z ones</w>
Bi o
au ton
H ope</w>
i ties</w>
cham pions</w>
there by</w>
Malefic ent</w>
or ious</w>
D am
Aca demic</w>
t os
cryst al</w>
bir d
M ai
down side</w>
L ight</w>
correspon ding</w>
Ge ographic</w>
C lin
Fr an
Co ast</w>
&#93 ;
Th ink</w>
sales man</w>
Im perial</w>
ben to</w>
wor ship</w>
http://www. i
sh aved</w>
ec r
Cac eres</w>
Uni versal</w>
Dor aemon</w>
h r</w>
C .
resig nation</w>
tici an</w>
Fe urer</w>
depri ved</w>
L uck</w>
Q tr</w>
regre ttable</w>
ani stan</w>
conveni ences</w>
rec ite</w>
so o</w>
mo bil
reli ant</w>
W AT
ga e</w>
V ol</w>
Afgh anistan</w>
ali an</w>
D j
el ine</w>
oper ates</w>
stri kes</w>
night life</w>
TH ING</w>
in direct</w>
lo gy</w>
carbo hydr
temp tation</w>
rela xes</w>
on na</w>
deman ded</w>
Phot oshop</w>
grav ity</w>
HA PP
ll as</w>
L IKE</w>
f ect</w>
re viewing</w>
men tions</w>
c oup</w>
sa usages</w>
li king</w>
cat ches</w>
sol o</w>
C hel
claim ing</w>
bat ting</w>
x ia</w>
kim chi</w>
ee ding</w>
buil ds</w>
B ad</w>
3 5
di stress</w>
Pi zza</w>
dr ain</w>
a. m.</w>
Li onel</w>
spot ted</w>
FRIEN DS</w>
Mom oko</w>
Bo at</w>
fu ck</w>
re form</w>
T op
perc eived</w>
dis plays</w>
g aming</w>
terri fying</w>
w ay
spee ds</w>
B log</w>
invent ors</w>
H ig
as cular</w>
ban e</w>
comprehen sive</w>
Sam sung</w>
tem pura</w>
T ony</w>
sy r
coun ty</w>
Paki stan</w>
arrang ing</w>
scar ce</w>
b are</w>
dis solution</w>
in au
perm itted</w>
Christi anity</w>
p iled</w>
Chri st
carr ots</w>
Sal t</w>
dig nity</w>
s ought</w>
Sh in</w>
T ouri
un reasonable</w>
syn the
the ft</w>
ear rings</w>
pref ectures</w>
5 4</w>
com e
Di strict</w>
kit ty</w>
vocabular ies</w>
stu b
sp ouse</w>
excl usive</w>
1 10
gri pping</w>
acti vi
explo de</w>
R aku
MP 3</w>
cli ps</w>
I van</w>
ell ery</w>
OO OO
comb ining</w>
competi tiveness</w>
prefer able</w>
instruc tion</w>
escap ing</w>
p ion</w>
appoin ted</w>
mi xing</w>
l ouse</w>
men ted</w>
rele asing</w>
Hou sing</w>
un aware</w>
te ous</w>
co ke</w>
gi o</w>
bi ased</w>
illustr ated</w>
intrigu ing</w>
ow ling</w>
mobil es</w>
Practi ce</w>
cosme tic</w>
oo o</w>
adv ancing</w>
Av ril</w>
a ster
Medi a</w>
form ers</w>
featur ed</w>
to dd
franchi se</w>
boun daries</w>
se wing</w>
l ad
sequ ence</w>
tut oring</w>
G as
I bar
L et
repe ats</w>
phenom ena</w>
ani st</w>
Portu gal</w>
tissu es</w>
Ma thema
ord an</w>
g ent</w>
ri e</w>
LIF E</w>
dri ll</w>
camp site</w>
G OOD</w>
Ac tually</w>
russi an</w>
entertain ed</w>
re wards</w>
r on</w>
Org anization</w>
develop er</w>
S port</w>
G ala</w>
in comes</w>
20 .15</w>
mul tin
empa thy</w>
ad ore</w>
I t
kilo grams</w>
us able</w>
sol ves</w>
op he</w>
des pair</w>
ven tion</w>
Ch an</w>
ok u
Fu ll</w>
refriger ators</w>
Bi ll</w>
execu tive</w>
pa th
ac knowledge</w>
us er
book stores</w>
N emo</w>
197 9</w>
L AS
pi gs</w>
mat urity</w>
S K
at ri
3 .
H ere</w>
argu es</w>
Poli cy</w>
recei ves</w>
W ant</w>
Hak one</w>
Je ju</w>
Tan abata</w>
AK B
di arr
fragr ance</w>
pecu liar</w>
rec alled</w>
w ages</w>
Bi e
nostal gic</w>
Gene tic
lean ed</w>
cogni tive</w>
pen icillin</w>
dic ally</w>
v ar
har bor</w>
nic er</w>
craw l</w>
200 00</w>
Nep al</w>
fle sh</w>
com unic
remo val</w>
terri fic</w>
evalu ated</w>
analy zed</w>
fain ted</w>
cand le</w>
spar k
du al</w>
labor atories</w>
y elling</w>
compani on</w>
vam pires</w>
Phil adel
Wor d</w>
ver sus</w>
L om
entertain ments</w>
ch ickens</w>
CE T</w>
Fl am
Ch icken</w>
conver se</w>
Pen n
cur tain</w>
infra structures</w>
emerg ing</w>
sy ste
collo qui
back yard</w>
re adily</w>
e ternal</w>
up unc
Archit ecture</w>
pe ach</w>
fab ric</w>
tommor row</w>
collabor ation</w>
Wat er
agit ated</w>
birth days</w>
es que</w>
Z oo</w>
H ama
AKB 48</w>
in ers</w>
S even</w>
Mo dern</w>
re trieved</w>
fun ded</w>
un common</w>
fol ding</w>
Mor oc
oc eans</w>
perc eive</w>
doz ens</w>
H il
sch i
U L</w>
sil ently</w>
Pro duc
pen sions</w>
000 yen</w>
mista ken</w>
New s/
sla very</w>
repa irs</w>
ser vers</w>
sc oring</w>
con tem
asi ve</w>
clos es</w>
pronun ciations</w>
Ci vil</w>
bl in
di z</w>
ac upunc
on ds</w>
kidn apped</w>
un ited</w>
sci </w>
A ra
deple tion</w>
ten ess</w>
K ha
ma stered</w>
Jac ob</w>
jud gement</w>
str ay</w>
elabor ate</w>
dipl oma</w>
p hia</w>
ou ting</w>
syr up</w>
honey moon</w>
Sh into</w>
la bel</w>
advanc ements</w>
O ta
OR T</w>
funni est</w>
So dium</w>
undeni able</w>
spor ts
precau tions</w>
y ell</w>
ver t</w>
ci an</w>
B S</w>
sa il
at able</w>
be ac
E ye</w>
R en
ori al</w>
surve ys</w>
Nan jing</w>
shi p
tran sit</w>
vers y</w>
foun der</w>
vir tu
jo gged</w>
ari ses</w>
irrit ating</w>
sub ordin
trum pet</w>
9 9</w>
LO L</w>
hospit alized</w>
fir ms</w>
consist ently</w>
elimin ated</w>
c ock</w>
V S</w>
on going</w>
dial ects</w>
reci eved</w>
di eting</w>
Flor ence</w>
val ley</w>
a o
sof as</w>
Sebas tian</w>
bank rupt</w>
fre el
stres ses</w>
chu an</w>
neckl ace</w>
libproxy1. nus.edu.sg/
ous y</w>
ca ge</w>
&apos; T</w>
our able</w>
I &apos;
Mee ting</w>
B ee
ther ing</w>
contro versy</w>
practi tion
install ing</w>
bur d
R omeo</w>
Cos t
gr oss</w>
care lessness</w>
hel met</w>
bul lied</w>
ii ii
p is
Gi ants</w>
ro cket</w>
mess ed</w>
stun ned</w>
dis ser
cap abilities</w>
da e</w>
ol ds</w>
s son</w>
Ken ne
constr aints</w>
sli ce</w>
deli ber
mat ched</w>
dial og</w>
10 1</w>
do s</w>
sham poo</w>
co ast
am p</w>
1 ,
mi st</w>
i .e
gy ms</w>
se p
AL LY</w>
Tou louse</w>
dis counted</w>
bus iest</w>
Tig er</w>
occu pa
sin ess</w>
un countable</w>
volcan o</w>
fu tsal</w>
bu ki</w>
g li
book shelf</w>
J ordan</w>
Typh oon</w>
i.e .</w>
read ings</w>
uck land</w>
pe ar
tr ace</w>
segre gation</w>
prelimin ary</w>
Philadel phia</w>
W ars</w>
roo fs</w>
N am</w>
swe ated</w>
Fac ulty</w>
pac ed</w>
e tta</w>
10 .00</w>
EIK EN</w>
J ak
y ness</w>
los ses</w>
St one</w>
appli ance</w>
cat er
stimul ating</w>
Gr ace</w>
slog an</w>
y ad
Sam urai</w>
compl ains</w>
bon ds</w>
A uckland</w>
post card</w>
spon ge</w>
let t</w>
ad jective</w>
n ing
ha zard</w>
der ella</w>
bi d</w>
oll en</w>
bi ography</w>
advent ur
decor ations</w>
T at
dread ful</w>
O ver
bl ond</w>
back wards</w>
na tionally</w>
t win
end a</w>
sc and
post cards</w>
P ay
ar u</w>
lay ers</w>
um ental</w>
cand les</w>
fl ouri
tr ap</w>
air y</w>
g lim
warran ty</w>
Haraj uku</w>
fe der
Cau cas
A qu
k ay
m l
Bet ty</w>
cau tious</w>
ow nership</w>
min eral</w>
doub ted</w>
Ser gio</w>
ok es
po le</w>
sh it
c off
utili zation</w>
pun ch</w>
jew ellery</w>
off ended</w>
inter rupt</w>
w o
en /
op tional</w>
http://www.world -nuclear.org/info/
Yuk ata</w>
in ely</w>
Du blin</w>
multicul tural</w>
b ot
E mp
in corpor
Mathema tics</w>
Im prove</w>
f oli
-------- --------
scre ening</w>
Mos que</w>
communic ative</w>
Mag az
Han eda</w>
be i</w>
stub born</w>
imag ining</w>
sportsm en</w>
reme dy</w>
diarr hea</w>
un ted</w>
ki yaki</w>
N obe
Au th
Ori g
ec centric</w>
http://www.gen -4
str a
confidenti ality</w>
tal lest</w>
20 17</w>
W i</w>
C K</w>
incur red</w>
guid elines</w>
j elly</w>
Tr ade</w>
in n</w>
e ter
it y
sign als</w>
mi ll</w>
on sen</w>
diver ting</w>
k ka</w>
refu ge
leaf lets</w>
surf ed</w>
em ed</w>
se i
con dem
U t
US B</w>
M en
Sec urity</w>
S elf</w>
whi ch
ch eat</w>
characteri zed</w>
Cul tural</w>
S D</w>
Whi ch</w>
Ma j
motor bikes</w>
disa strous</w>
contradic tion</w>
it ch</w>
pic ally</w>
Stati stics</w>
calcul ated</w>
th x</w>
psych ologists</w>
Mon days</w>
machin ery</w>
F u</w>
pi pe</w>
ro adm
oli </w>
A Z
tatt oos</w>
categ ori
prop ag
transm it</w>
dum p</w>
ood le</w>
- and-
Sh op</w>
wi zard</w>
reli es</w>
dead lines</w>
toler ant</w>
under wear</w>
eye br
ha il</w>
Comm unist</w>
t =
ga zed</w>
diam onds</w>
Pr of</w>
t z</w>
min ers</w>
cour ty
con sol
betr ayed</w>
les sen</w>
consen sus</w>
Y aku
uni v</w>
Qu es
prob able</w>
Mar cus</w>
AVAT AR</w>
S ic
syl v
pe tition</w>
ss ness</w>
um p
auto graph</w>
dis appearance</w>
sc out</w>
up side</w>
im ply</w>
Ex change</w>
co ding</w>
back ache</w>
sculp tures</w>
sh oud</w>
Sim on</w>
sylv ania</w>
Malay sian</w>
so da</w>
Bor is</w>
Isl am</w>
business men</w>
kk k</w>
so ak</w>
conqu ered</w>
T U
representa tives</w>
An aly
renew ed</w>
amp li
rewar ded</w>
Hol mes</w>
wa x</w>
brac ele
edi ting</w>
Be y
S anti
E qu
defin ing</w>
ch eek</w>
blo cked</w>
fr o</w>
li ghtly</w>
t ar</w>
oo oo</w>
ju icy</w>
eri e</w>
stic ally</w>
B ath</w>
demo graphic</w>
.ph p
ar m
rehear sal</w>
b our</w>
iPhone 4</w>
R P
acquain ted</w>
dec eived</w>
h older</w>
al i</w>
N ative</w>
Em peror</w>
S traits</w>
ob serving</w>
V ill
d ary</w>
pri v
perform ers</w>
new er</w>
uku lele</w>
Si b
g le
out fits</w>
J erry</w>
prom pt</w>
AN G</w>
4 000</w>
tak oyaki</w>
Ho ly</w>
e f
pal m</w>
n n
compar able</w>
inv aded</w>
gener ates</w>
k ab
ana esthesia</w>
Hir o</w>
pup il</w>
star ter</w>
ha shi</w>
spee ch
ro asted</w>
wh ale</w>
singap ore
fe min
benef ited</w>
Mi xi</w>
Tok u
Shar ma</w>
m ud
Ota ku</w>
dd ess</w>
k oku</w>
skill ful</w>
st ag
suspic ion</w>
D ong</w>
ow a</w>
f ills</w>
ang es</w>
ten sions</w>
ag oza</w>
squ id</w>
fil ter</w>
Me tropolitan</w>
glim pse</w>
de di
th al</w>
moderni zation</w>
tow els</w>
origin s</w>
de emed</w>
New s
cop ies</w>
knowled geable</w>
J or
pen s</w>
F our
des ks</w>
nor m</w>
Zar agoza</w>
soy beans</w>
v ic</w>
catastr ophe</w>
voc alist</w>
back up</w>
30 pm</w>
ha hahaha</w>
hypo the
Moham ed</w>
8 .
organi sms</w>
tex ting</w>
diam ond</w>
Penn sylvania</w>
leak age</w>
le tt
sp okes
c oc
Assi stant</w>
sli ces</w>
exagger ated</w>
river side</w>
cas ually</w>
3 :
inter actions</w>
guarante ed</w>
tex ture</w>
Nap les</w>
p ots</w>
Program me</w>
umbre llas</w>
ben ches</w>
Mal aga</w>
mu tation</w>
Sen ior</w>
hydr au
in er
night time</w>
mus ics</w>
un acceptable</w>
supple mentation</w>
n ick</w>
G E
toler ate</w>
sc ru
por n</w>
recruit ment</w>
stre tch</w>
e ti
bre ed</w>
down turn</w>
mon k</w>
M OR
sub title</w>
a bu</w>
an na</w>
Al ham
skin ny</w>
sp ice</w>
quot ation</w>
of -
r ink</w>
Santi ago</w>
anonym ous</w>
transpor ted</w>
rele ases</w>
Alham bra</w>
bu cket</w>
hi des</w>
Bro ad
e books</w>
R ab
ta tive</w>
Stand ard</w>
syn ag
hol ders</w>
mer ch
colloqui al</w>
rec order</w>
as en</w>
pleas ing</w>
hand led</w>
S I
M ath
9 /
sin cer
P il
disser tation</w>
geni uses</w>
m im
ca ff
cha ir
H angzhou</w>
do ba</w>
re tain</w>
clear ed</w>
7 1</w>
mur dered</w>
prot ects</w>
P ur
s way</w>
aerob ics</w>
med als</w>
certi fic
- &quot;
han ami</w>
privi lege</w>
F requ
frigh tening</w>
techn ician</w>
Cair o</w>
anticip ated</w>
tre ss</w>
Mari e</w>
A nat
re moving</w>
tu m</w>
O s</w>
tran si
inj ection</w>
T EN
ty pically</w>
Mad onna</w>
ap ri
ic ked</w>
bo k</w>
go al
yo go</w>
pu shes</w>
war nings</w>
spee dy</w>
mon ot
G allery</w>
procra stin
be having</w>
15 %</w>
ol o</w>
asser t</w>
Tom orrow</w>
an ch
C H</w>
hin der</w>
under taken</w>
Ok ayama</w>
Pu er
Puer to</w>
L ew
bed ded</w>
f ill
Al bert</w>
re sted</w>
Pri vacy</w>
clum sy</w>
ari ans</w>
bb c
occup ying</w>
man sion</w>
Studi o</w>
obtain ing</w>
Em plo
squ irre
compen sation</w>
z ers</w>
draw ings</w>
IG HT</w>
Li ver
re fined</w>
Sur ve
postp one</w>
micros cop
fu ck
Par t
re presentation</w>
symbo li
vi g
con dom
hori zon</w>
enh ancing</w>
l ining</w>
wrest lers</w>
ch ats</w>
occurr ence</w>
du m</w>
si ghted</w>
Pen insula</w>
Musli m</w>
summ it</w>
me a</w>
ar oma</w>
inter nationally</w>
co aching</w>
sta tic</w>
li fes
li p
m ers</w>
M á
F F</w>
S ex</w>
C ome</w>
AB OUT</w>
Y or
t ence</w>
Y ester
U ru
J L
20 16</w>
restri ction</w>
re marks</w>
equip ments</w>
occup y</w>
Swi ss</w>
C LI
s ni
pav ement</w>
nit rate</w>
we ir
cu t
par a</w>
Main tenance</w>
: )</w>
fro ze</w>
Cin derella</w>
ri gid</w>
comple ting</w>
humi li
becu ase</w>
stor ey</w>
ex ter
hor n</w>
&apos;(2: 2:
Kiy omizu</w>
Re fer
bro ch
ob sole
or z</w>
2009 /0
sel fish
Ter ri
all ing</w>
re store</w>
Nobe l</w>
tim es
ex er
tag line</w>
jud ges</w>
yad h</w>
. A.</w>
u mi</w>
ecr aft</w>
pleas ures</w>
fun fair</w>
R un</w>
mail .com</w>
supple ments</w>
b bles</w>
S ept</w>
squee ze</w>
che wing</w>
scen ic</w>
cr ow</w>
tow ers</w>
k un</w>
am an</w>
spin ach</w>
unpreced ented</w>
1 Q
compe ted</w>
CLI L</w>
v anished</w>
L CD</w>
B ach
du bbed</w>
H ans</w>
L t
Cá diz</w>
ambi a</w>
cra shes</w>
appli es</w>
c ann
W as
oo h</w>
ch ig
Luci la</w>
wei ghts</w>
Mont és</w>
Ri yadh</w>
pi ll</w>
won do</w>
I &apos;ll</w>
W BC</w>
Cl audi
. (
al as</w>
frame work</w>
sett ings</w>
Bie ber</w>
man us
AG E</w>
L ong
vide o
law n</w>
co ats</w>
pass word</w>
li ament</w>
fr ying</w>
Ser ies</w>
dedi cation</w>
func tionality</w>
icul t</w>
€ </w>
p unk</w>
question able</w>
Y Y
discus ses</w>
W est
Sher lock</w>
acc used</w>
Gi fu</w>
Jak arta</w>
C ON
E ven</w>
pill ar</w>
nerv ously</w>
shap ing</w>
co di
H H
quot es</w>
habit at</w>
inau gur
out fit</w>
health ily</w>
- 0
sus cep
http://www.gen-4 .org/
US HI</w>
ni g</w>
S how
stri king</w>
th under
proo f
bul ly</w>
M ake</w>
trek king</w>
tane ous</w>
ment ality</w>
fi a</w>
her bal</w>
AR D</w>
ten tion</w>
uc a</w>
ad ly</w>
lig ence</w>
wa sher</w>
a h
B ec
198 7</w>
wr ink
U p
Mac Book</w>
ir onic</w>
st en</w>
de br
photograph ers</w>
distin ctive</w>
exclud e</w>
thr op
boo th</w>
mush room</w>
St even</w>
dis appearing</w>
iso ba</w>
buck wheat</w>
AK I</w>
ci ao</w>
disp ose</w>
comp ati
Fi ji</w>
psy chi
s ir
end ers</w>
G og
invent or</w>
U me
turb ine</w>
intr ud
por ter</w>
vent ure</w>
198 0s</w>
destro ys</w>
San dra</w>
Pir ates</w>
gi sh</w>
cat ering</w>
Ti juana</w>
r ap</w>
inf o</w>
pat ent</w>
cheap ly</w>
t ches</w>
p anda</w>
G ossip</w>
m op
controll er</w>
cloth s</w>
d ye</w>
bu ys</w>
ov ascular</w>
bo x
forbi d</w>
he mi
g eek</w>
mar g
sp ells</w>
WH O</w>
investi gations</w>
Bri s
facili t
bou quet</w>
ang ar
10 .
def ects</w>
sp her
it is</w>
motor way</w>
D D</w>
se ated</w>
S on</w>
D un
coll age</w>
web page</w>
on wards</w>
avoca do</w>
mi st
stere otypes</w>
ac ute</w>
st ard</w>
sup press</w>
Ke i</w>
off ensive</w>
multin ational</w>
um bers</w>
pir ate</w>
conven tion</w>
Ni ch
Swi ft</w>
Emp ire</w>
in complete</w>
cat chy</w>
atten dance</w>
phr as
rand om
provi ders</w>
Aussi e</w>
Vide o</w>
w aved</w>
vari ables</w>
be y</w>
Mu ay</w>
E F</w>
k atsu</w>
D own
train ers</w>
stimul us</w>
inde x</w>
K al
dial o
Del hi</w>
hus bands</w>
duc k</w>
pp .
Uru gu
sequ el</w>
Chel sea</w>
mi schi
qu itting</w>
sc ram
Plan et</w>
H olden</w>
C oll
syst em
rab bits</w>
Dic tionary</w>
speci fied</w>
spon sor
Chri stop
A hh</w>
damag ing</w>
CE T
Pi x
or nam
pine apple</w>
Adv ent
un g
ignor ance</w>
e be</w>
invol vement</w>
Ch ange</w>
be verage</w>
P it
bl ues</w>
l um
drum mer</w>
hos ting</w>
9 8</w>
lam ps</w>
Environ ment</w>
wi ser</w>
air ports</w>
grap e</w>
T rap
supple ment</w>
ins ane</w>
P an</w>
audi o
conven tionally</w>
con science</w>
scrat ches</w>
execu tives</w>
step ping</w>
revi ve</w>
debr is</w>
Bi ology</w>
out dated</w>
am in</w>
M ENT</w>
j k</w>
vibr ation</w>
acupunc ture</w>
S pen
Gr ade</w>
purch ases</w>
p f
lot te</w>
Tran sport</w>
log ically</w>
Ex press</w>
f ound
navi gation</w>
bar gains</w>
H ana</w>
5 1</w>
des cen
separ ately</w>
all y
sympath ize</w>
dete c
Egyp tians</w>
4 00
6 0%</w>
er ic</w>
poor er</w>
Ki ev</w>
gar ita</w>
shi ko</w>
pen sion
A id</w>
ar ena</w>
Liver pool</w>
w ou
h ka</w>
pic ks</w>
Bl ack
Rog er</w>
pop corn</w>
lin gu
G B</w>
persever ance</w>
che ated</w>
stam ps</w>
meth od
J in
j ol
be ard</w>
sub mer
sleep iness</w>
G il
bo iler</w>
unbe arable</w>
hass le</w>
dis appears</w>
Vi ew
quot ed</w>
P RO
al ley</w>
man power</w>
obsole te</w>
comp elled</w>
W A</w>
tr um</w>
re build</w>
Cal gary</w>
M AR
f ty</w>
ga str
Fai thfully</w>
pres so</w>
es presso</w>
J ir
is en</w>
mel ancho
condom ini
Vic tor</w>
y uku</w>
Urugu ay</w>
addi ct</w>
C S
mathema tical</w>
M ango</w>
inferi or</w>
acti c</w>
house wives</w>
K AR
insul ted</w>
i stic</w>
mis use</w>
asp ire</w>
ch t</w>
promot es</w>
196 0s</w>
synthe si
u i</w>
Pre mi
decor ating</w>
N ana</w>
v est</w>
ag ues</w>
H u</w>
step mother</w>
Lu ther</w>
dough nuts</w>
An ci
Termin ator</w>
surge on</w>
can o
trav ag
explo ited</w>
8 5</w>
ha tt
dar ker</w>
Pal er
stric ken</w>
CP U</w>
pac i
Scar lett</w>
enc yclopedi
Stud ents</w>
projec tor</w>
D R
Tal k</w>
wor ms</w>
thin g
Ang el</w>
pay ers</w>
ac quisition</w>
execu ted</w>
b able</w>
tri gg
cler ks</w>
document s/
shi fts</w>
W ood</w>
transpar ent</w>
H ide
danc ers</w>
EL L</w>
poin tless</w>
progres sing</w>
Pro cess</w>
he hehe</w>
Lun ch</w>
s ap
19 00</w>
contin ent</w>
manus cript</w>
pes tici
St at
Su mi
ma ki</w>
random ly</w>
b oshi</w>
au d</w>
/ pdf
Toy ama</w>
condi tioned</w>
D ep
O w
mechan ics</w>
O hana</w>
in take</w>
gr ot
to e</w>
V .</w>
P ain
R eas
co a
en ties</w>
regre tful</w>
Me th
bell s</w>
Bri t
al ysis</w>
champion ships</w>
on ship</w>
Ju l</w>
me ji</w>
cir cles</w>
Slo v
tu tors</w>
ei ving</w>
drag ged</w>
overs leep</w>
up graded</w>
un conscious</w>
le aking</w>
or g</w>
mi stre
priori ties</w>
le ap</w>
Ry oma</w>
st roll</w>
&apos; S</w>
plan ner</w>
Jon as</w>
d an
merchan di
sel f
Rom a</w>
ju ven
Bu il
conc eption</w>
ri cal</w>
snork eling</w>
E L</w>
col oni
Hat oyama</w>
tab lets</w>
be gg
shu ttle</w>
sh ave</w>
sou theast</w>
book let</w>
in ate</w>
mat ernity</w>
ell ers</w>
oli via</w>
B olivia</w>
be live</w>
comprehen sible</w>
Yang yang</w>
Brun o</w>
e k
bung ee</w>
pul ling</w>
i ch</w>
entrepreneur ship</w>
tooth ache</w>
foot prints</w>
colle c
ex travag
ul ts</w>
12 3</w>
Tou ch</w>
e z</w>
E ast
be i
on os</w>
Corpor ation</w>
197 5</w>
arch y</w>
V ene
oc ks</w>
ca sting</w>
le agues</w>
ex tro
T D
distr action</w>
Anat omy</w>
it ori</w>
er up
os pe
s ack</w>
al ar
AN T
H ard</w>
lan tern</w>
Anci ent</w>
Th ese</w>
El derly</w>
publi cations</w>
archa e
AK E</w>
P oint</w>
6 %</w>
Gog yo
surge ons</w>
tw enties</w>
suff er
Ste fan</w>
wi fi</w>
th read</w>
scoo ters</w>
inven ting</w>
op pot
gi g
L L</w>
adm iration</w>
ol as</w>
ill um
T ol
decl are</w>
dem o</w>
bu z
organi ser</w>
J I</w>
ak y</w>
comple tion</w>
en force</w>
de grad
polic emen</w>
ch ic
di versi
seas on
Th ird</w>
qu ette</w>
O L</w>
F AV
seas oned</w>
sl and</w>
sub tle</w>
Mi k
rescu ed</w>
AM E</w>
compe tence</w>
eth ic
re sour
Ven us</w>
7 6</w>
dis comfort</w>
eni x</w>
in sight</w>
carbohydr ates</w>
es i
head aches</w>
o is</w>
198 8</w>
n ag
descri bable</w>
cas ino</w>
ro ds</w>
stand ardi
tar ily</w>
sand als</w>
faul ty</w>
ess entially</w>
Associ ate</w>
Sta dium</w>
head set</w>
Du bai</w>
clari fy</w>
R ight</w>
HA D</w>
black outs</w>
S PS
c ot</w>
endeav or</w>
Al as
sit com</w>
wal k
char coal</w>
BU T</w>
bul let
di g</w>
for ums</w>
Identi fication</w>
hu gging</w>
be g</w>
Bris bane</w>
ma shita</w>
Char lotte</w>
ey el
au to</w>
S ent
fav ourable</w>
auto graphs</w>
finger print</w>
C ab
dr astic</w>
par as
Gu ang
i ously</w>
corri dor</w>
con ditional</w>
or dering</w>
y oshi</w>
v ent</w>
bird watching</w>
expendi tures</w>
ag i
hi me</w>
Ap pli
repli es</w>
comfor ted</w>
ca v
fi anc
schol ars</w>
Y A</w>
justi fied</w>
f ade</w>
compreh end</w>
g ance</w>
prescri ption</w>
M imi</w>
bud dy</w>
K E
mosquit oes</w>
j e</w>
Ch ang</w>
br ake</w>
instin ct</w>
distr act</w>
hesit ant</w>
pul se</w>
aff lu
distin ction</w>
discour age</w>
in describable</w>
bri ck</w>
Wedn esdays</w>
ab used</w>
vitam in</w>
re forms</w>
Mar garita</w>
sub stitu
re consider</w>
ignor ing</w>
on ic
wi pe</w>
appear ances</w>
Gogyo hka</w>
S uk
bi as</w>
sof tly</w>
head quarters</w>
Gr adu
interpre ted</w>
bo ld</w>
de fic
am el</w>
t /
tin ent</w>
a z</w>
Heal th
th ai</w>
Fant asy</w>
im mature</w>
u an</w>
in ge</w>
billi ards</w>
T on</w>
assa ult</w>
S em
ur able</w>
C C</w>
A ges</w>
un certainty</w>
Scot t</w>
di stor
draw s</w>
br ass</w>
pe el</w>
De te
R ice</w>
nic ely</w>
k ite</w>
presi dential</w>
AT E</w>
craw ling</w>
cli cked</w>
neighbor hoods</w>
K ri
hatt an</w>
Soc cer</w>
Ap r</w>
tain ing</w>
P M
will ingly</w>
T est
we dn
poll ut
enri ched</w>
Y oshi
mer ry</w>
Jim my</w>
distur b
Com mission</w>
fat ty</w>
U I</w>
compani onship</w>
Gu y</w>
bur gh</w>
la be
al ter</w>
wat ering</w>
Lun ar</w>
Cri mea</w>
Mol ly</w>
dea f</w>
R ap
a is</w>
Rik ako</w>
ab by</w>
in capable</w>
beha ved</w>
F ire</w>
IS S</w>
sociali zing</w>
b ows</w>
gu ts</w>
Andre a</w>
J .
pit cher</w>
puni shments</w>
dete cted</w>
om o</w>
so ver
ab sur
usi vely</w>
shad es</w>
G ot</w>
Per fect</w>
sp ine</w>
cas u
http://www. n
Paul o</w>
ang s</w>
a esthetic</w>
sc ape</w>
an ted</w>
Nik ko</w>
Bo ys</w>
cl ar
civili zations</w>
se w</w>
an do</w>
e iro</w>
pe e</w>
immer sed</w>
prop he
act u
am ming</w>
Hay ao</w>
US SR</w>
g on
os ex
alco holi
p ig
Sh ould</w>
il le</w>
sing les</w>
e h</w>
sl ope</w>
contam inated</w>
drow sy</w>
AY A</w>
cre ator</w>
aur s</w>
K ung</w>
alter nate</w>
associ ates</w>
v icious</w>
biscu its</w>
human kind</w>
bu ri</w>
mc ys
sim ple
re am</w>
blo g
rail road</w>
wind surfing</w>
mor ality</w>
celebr ations</w>
sk ies</w>
t ango</w>
quarre led</w>
gr ants</w>
de shiko</w>
m ice</w>
8 50</w>
T hi
R C
Web site</w>
Ibar aki</w>
gl ed</w>
ki d
por tions</w>
S le
reg ain</w>
counsel or</w>
ca de</w>
in ert</w>
inse ct</w>
R yo</w>
prosper ous</w>
priv ately</w>
jer k</w>
cr ane</w>
Rab bit</w>
DO E</w>
Hi meji</w>
J av
plaz a</w>
KY O</w>
sh o</w>
en n
uplo ading</w>
pi anist</w>
c ke
th ur</w>
pper y</w>
S ul
cont ex
snee zing</w>
stam p</w>
lam b</w>
ac ou
AN Y</w>
PC O</w>
sy ll
lo go</w>
priori ti
pp l</w>
M ak
break through</w>
6 :
yuk ata</w>
assem bly</w>
sen sible</w>
th ic</w>
oun dly</w>
en sured</w>
congratul ated</w>
conf essed</w>
inser ted</w>
1 40</w>
sle xia</w>
c astic</w>
Min h</w>
par cel</w>
bou l
dy slexia</w>
punctu ality</w>
compar atively</w>
gene tics</w>
stu res</w>
eyebr ows</w>
s ank</w>
en go</w>
deal er</w>
adju sted</w>
prac tic
suppli ers</w>
3 50</w>
ro ad
egg plant</w>
0 .
tac tics</w>
disgu sted</w>
TV s</w>
Bul garian</w>
tri als</w>
proble matic</w>
al _
consi sting</w>
tran scri
b iting</w>
man ages</w>
Refer ences</w>
trans forming</w>
Cra zy</w>
arr ag
myster ies</w>
S AT</w>
K an</w>
thir st</w>
m aple</w>
sigh ed</w>
n ano</w>
sle e
en to</w>
ony m</w>
h oll
B M
00 AM</w>
K ong
certific ates</w>
spr ay</w>
od or</w>
ail ed</w>
F ig
pi pes</w>
weigh s</w>
cor ros
prison ers</w>
Jan eiro</w>
par ting</w>
des cent</w>
Yu an</w>
b and
t ories</w>
fer tile</w>
Sy ria</w>
op t</w>
out comes</w>
ero om</w>
Mag ic</w>
Gu i
commodi ties</w>
il literate</w>
swi m
bre wery</w>
Na deshiko</w>
R MB</w>
osu ke</w>
monit ored</w>
un intentionally</w>
nephe ws</w>
f aded</w>
recomm ending</w>
F A</w>
Fi ve</w>
th es</w>
repor ters</w>
survi v
9 2</w>
tre al</w>
voca tional</w>
tu torial</w>
exha us
M all</w>
Bl ossom
http:// nuclear
prot otype</w>
W R
IL Y</w>
S wan</w>
che ese
Pri son</w>
C ent
S n
be cas
logi stics</w>
Yester day</w>
by pass</w>
S ai
hard ship</w>
th ood</w>
cho oses</w>
stro kes</w>
la h</w>
g ossi
sh ogi</w>
Th ere
ax y</w>
O scar</w>
P O</w>
tar ge
grot esque</w>
in can
est ates</w>
I ll
carto grapher</w>
k m
sw ollen</w>
R an
r s</w>
Ham let</w>
e Bay</w>
view points</w>
Ni pp
sacrific ed</w>
ti tu
F AM
Hir agana</w>
bit ter
col dness</w>
cro codi
D P
We ather</w>
sli ppery</w>
Fle ming</w>
pr ag
s can</w>
nin ety</w>
fuck in</w>
compli ment</w>
V in
h l
B am
gym n
de ar
inten sity</w>
illumin ated</w>
l aying</w>
found ations</w>
At l
arrag ona</w>
parti cles</w>
publi sh
re l</w>
prot est</w>
dilig ently</w>
Fu ri
C M</w>
N .</w>
refr ain</w>
adju st
a ar</w>
bu m</w>
AS E</w>
B ot
Br oo
G ol
ri tual</w>
roadm ap
Indu stri
B eg
DI Y</w>
trans actions</w>
p ings</w>
S wee
D ON</w>
beac use</w>
me tri
ur b
F ur
San dr
dar ity</w>
ici ently</w>
cardi ovascular</w>
adul thood</w>
diagnos is</w>
t el
t ing
metaph or</w>
.com. libproxy1.nus.edu.sg/
lo ve
syn drome</w>
z aki</w>
occasi onal</w>
ag ers</w>
compu ting</w>
zu mi</w>
excl usively</w>
you ths</w>
provo king</w>
merchandi se</w>
ni h
TE PCO</w>
accompli shment</w>
V in</w>
Sun ny</w>
s orr
Law rence</w>
ta i</w>
inter section</w>
selec tions</w>
bl on
Re tri
synag ogue</w>
m ack
ye arly</w>
per pe
gen to</w>
Agri gento</w>
ad ers</w>
at os</w>
Pre sent</w>
Sic ily</w>
cop s</w>
wors ening</w>
ali se</w>
20 20</w>
emer ged</w>
le d
or anges</w>
speciali ze</w>
HAPP Y</w>
K ai
Ar thur</w>
wit ch</w>
evol ve</w>
not ebooks</w>
depar ted</w>
ming ham</w>
Han shin</w>
sover e
ster ing</w>
4 50</w>
demoli tion</w>
ge stures</w>
ra tive</w>
def ective</w>
7 9</w>
y ards</w>
hin t</w>
Sou theast</w>
wedn esday</w>
gener ators</w>
be am</w>
W EE
h all
E very</w>
T rac
bor ne</w>
over look</w>
el ong</w>
F ol
genu inely</w>
ag ara</w>
Bach elor</w>
han di
eli te</w>
promo tional</w>
de but</w>
publi cation</w>
Wha ts
Whats App</w>
H yogo</w>
Mat eri
T arragona</w>
dischar ged</w>
ap t</w>
K ee
ch ung</w>
soli darity</w>
r ation</w>
ex tract</w>
To y</w>
over crowded</w>
hi ko</w>
25 -year</w>
pedestri an</w>
min a</w>
Hall o</w>
4 %</w>
A tt
om atic</w>
econom ists</w>
lett uce</w>
deli c
off line</w>
t ue</w>
Sophi a</w>
Cor n
Bro ther</w>
v est
Asa hi</w>
rr rr
Moroc co</w>
Jack &amp;
Matsu ri</w>
od ds</w>
Con ference</w>
gre ed</w>
govern or</w>
bu ll</w>
Magaz ine</w>
Jir ga</w>
tal ity</w>
plan ners</w>
duc ed</w>
in different</w>
SPS U</w>
M ess
bl ows</w>
hydrau lic</w>
poli teness</w>
h um</w>
dolph in</w>
pas time</w>
Week end</w>
gr aves</w>
1Q 84</w>
fla kes</w>
Fu ji
mo i
el son</w>
Man hattan</w>
mi sle
9 %</w>
J ud
stud y
collabor ate</w>
v ices</w>
Sym ba</w>
access ed</w>
confi dently</w>
pengu ins</w>
curi ously</w>
My self</w>
Flam engo</w>
figh ters</w>
Bir mingham</w>
@ g
p ayed</w>
s its</w>
dis ability</w>
me ow</w>
Jack&amp; Jones</w>
in significant</w>
T RE
tri cs</w>
sc old</w>
oph y</w>
refuge es</w>
recru iting</w>
refu ge</w>
O ni
ear nest</w>
tri jk</w>
bri dges</w>
en vir
co s</w>
ch ili</w>
descri ptions</w>
J in</w>
live lihood</w>
sw allow</w>
B illy</w>
M AN</w>
si h</w>
hi ps</w>
s able</w>
book shop</w>
atmosph eric</w>
treas ures</w>
temp o</w>
astronau t</w>
on naise</w>
k w</w>
i ble</w>
Bhut an</w>
de eds</w>
pre school</w>
N ad
Mon treal</w>
ut most</w>
fla sh
be lla</w>
Steph en</w>
RO M</w>
G ambia</w>
her bs</w>
se gment</w>
pu ck</w>
198 5</w>
u ed</w>
Ma sters</w>
di m</w>
interven e</w>
bou ti
acou stic</w>
Ri char
industri alization</w>
Ni all</w>
G ri
vi o
cy ber
al locate</w>
bul bs</w>
essi vely</w>
P om
Ti an
cock tail</w>
bas sy</w>
bur ns</w>
Bas il</w>
sa x
capac ities</w>
w ow</w>
atta chment</w>
Sandr ine</w>
ex ited</w>
ot aku</w>
/ n
wait resses</w>
environ ment
TO KYO</w>
ci vic</w>
mou ths</w>
subsi dy</w>
Mus ical</w>
Kor trijk</w>
excur sions</w>
astronau ts</w>
produc ers</w>
N abe</w>
simple st</w>
LO Z
no ble</w>
simpli fied</w>
pan man</w>
D oes</w>
M um
mm mm</w>
ge l</w>
Frequ ency</w>
Sib eria</w>
confi dential</w>
Mit su
en gr
00 00
strai gh
Py ram
Was eda</w>
Fer nan
Isl ands</w>
Li ving</w>
sensi tivity</w>
sc ars</w>
atten tive</w>
ga ze</w>
ba the</w>
sar castic</w>
Mac Donald</w>
expos ing</w>
t read
R us
pass ages</w>
G ates</w>
hypo thesis</w>
vari ations</w>
stor ms</w>
establi shing</w>
contam ination</w>
um ba</w>
thum b</w>
c it</w>
ma m
ST AR
fol ded</w>
counsel ing</w>
exam ining</w>
. j
sing ular</w>
Asi ans</w>
scholar ships</w>
disc re
listen ers</w>
bo os
your selves</w>
communic ated</w>
y l</w>
pis sed</w>
K hos
Mon ey</w>
There fore</w>
Dig ital</w>
O asis</w>
char ts</w>
exec ute</w>
Wed ding</w>
me tropolitan</w>
Set su
gr ace</w>
oy sters</w>
is s
phras al</w>
re vision</w>
E ric</w>
sen s</w>
vit ae</w>
over ly</w>
k on</w>
H S
thank fully</w>
can dies</w>
confron ted</w>
C rimin
hon go</w>
for gi
Colum bia</w>
el bow</w>
can ned</w>
notic e
S aga</w>
dr un
cr an
id le</w>
p in</w>
Fi ref
vac ancies</w>
3 -</w>
predic tion</w>
Fre eman</w>
H aw
.. ...</w>
be et
domin ated</w>
M um</w>
7 pm</w>
conf ection
seven ty</w>
sp ell
ali e</w>
fe t
Hun garian</w>
Pho ebe</w>
con scienti
zu shi</w>
da unting</w>
Han oi</w>
pick pockets</w>
%2 B
re produce</w>
extravag ant</w>
T w
Mi ku</w>
coa sters</w>
am o</w>
Cur ry</w>
assem bled</w>
B ai
chop ped</w>
Moun t</w>
cur ing</w>
quali fy</w>
K ra
star ters</w>
appe als</w>
ti l</w>
L ink
redun dant</w>
un popular</w>
ste in</w>
master pieces</w>
zz ling</w>
aca use</w>
k angar
Tit anic</w>
appar atus</w>
198 1</w>
em peror</w>
it iner
ri chest</w>
MC YS</w>
Diff usion</w>
mack er
Kan azawa</w>
En trance</w>
puni sh</w>
who le
ev ing</w>
pal aces</w>
s mi
twee ts</w>
ang les</w>
p t
harm less</w>
sculp ture</w>
pac e
in sur
Xi a
swit ching</w>
vill agers</w>
sof tball</w>
c itation</w>
un usually</w>
L au
re son
marri ages</w>
Tak a
com posing</w>
thor ough</w>
repa iring</w>
A omori</w>
un related</w>
cor ners</w>
con serve</w>
rec entry</w>
X P</w>
t ability</w>
por traits</w>
recre ational</w>
f law
gui ding</w>
sel lers</w>
pedestri ans</w>
ti ary</w>
we ster
repe ti
negoti ation</w>
don ating</w>
nih .gov/
through s</w>
pos session</w>
tele phones</w>
conf uses</w>
dang er
capsu le</w>
defini tions</w>
y age</w>
vi </w>
Cru ise</w>
C amp
e go
co hes
pi ge
c art</w>
sal sa</w>
be ats</w>
as sed</w>
a wait</w>
lunch time</w>
fisher men</w>
Bur ton</w>
Eur o</w>
nu ance</w>
sk aters</w>
re au</w>
pur suit</w>
Tanz ania</w>
Ad vi
bit ch</w>
ham per
nove list</w>
col m</w>
C are
aw fully</w>
igh t
BI G</w>
Wak ayama</w>
S el
8 /
associ ations</w>
sl ammed</w>
preser ving</w>
pl un
pe ppers</w>
mist ook</w>
em bedded</w>
synthesi zer</w>
be es</w>
aw ara</w>
ge sture</w>
cha otic</w>
mo ther
mil lionaire</w>
bri ghtly</w>
good night</w>
discipl inary</w>
ani sm</w>
Hy de</w>
col dest</w>
T an</w>
avi ation</w>
over coming</w>
comm itting</w>
re started</w>
hel per</w>
exc essively</w>
cou pon</w>
oo t</w>
F alls</w>
dinos aurs</w>
as e
M US
v ings</w>
pre ce
B ond</w>
con vic
wou ld
Kaw asaki</w>
ingu </w>
Car los</w>
1 20
hand ball</w>
mo du
y ment</w>
P U
pre valent</w>
b acked</w>
a waiting</w>
at tain
blon de</w>
aven ue</w>
spec trum</w>
str ained</w>
S mart</w>
determin ing</w>
ar rest</w>
Mal colm</w>
flu id</w>
Li b
sci ss
M au
sh ells</w>
p itation</w>
om ag
zz ard</w>
do es
mi ti
prescri bed</w>
fil ming</w>
soooo oo</w>
he ared</w>
8 6
en ko</w>
Coo per</w>
ag enda</w>
Ni kita</w>
star vation</w>
visu ally</w>
rem lin</w>
K remlin</w>
ther ine</w>
ster ation</w>
30 s</w>
now days</w>
S OME</w>
casu alties</w>
heal ed</w>
Na me</w>
Yuk a</w>
Hun gary</w>
Si chuan</w>
ba za
s ://
7 4</w>
Kaz u
Hai ti</w>
eradic ate</w>
mcys .gov.sg/
ar ou
discrimin ated</w>
a ji</w>
sig nature</w>
z ombie</w>
UN D
Canadi ans</w>
Aff airs</w>
ham ster</w>
enh ances</w>
je wel</w>
cr ows</w>
ti les</w>
cano eing</w>
nerv ousness</w>
bas sad
com mission</w>
st ling</w>
GR E</w>
He ad</w>
Feder ation</w>
sympa thetic</w>
am used</w>
broch ure</w>
baza ar</w>
chan geable</w>
becas ue</w>
gy oza</w>
In ter</w>
b last</w>
correspon dence</w>
school mates</w>
itiner ary</w>
est a</w>
al ong
ag grav
GO D</w>
plu g</w>
cuc umbers</w>
excell ence</w>
j amas</w>
Trans formers</w>
F ul
Catal onia</w>
mat ching</w>
Langu ages</w>
O hh</w>
hei ghts</w>
bu shes</w>
monot onous</w>
Crimin al</w>
contrac ts</w>
T rain</w>
Mee t</w>
Hel ena</w>
re t
prop s</w>
indul ge</w>
K oshi
http s://
B LO
attemp ted</w>
N A
coordin ator</w>
I .</w>
VO A</w>
for gave</w>
archit ects</w>
le ment</w>
v re</w>
10 km</w>
W ANT</w>
absur d</w>
Mol ten</w>
break throughs</w>
mm ing</w>
bbc .co.uk/
A h
sust ained</w>
w olf</w>
Pl ant</w>
ath ers</w>
mel o
Har u
vot ed</w>
Q ing</w>
k ably</w>
De ad</w>
pa ella</w>
ud a</w>
Econom y</w>
tough er</w>
mang as</w>
N uclear
mu s</w>
q ing</w>
H ur
evacu ation</w>
re ar</w>
cont acting</w>
motiv ates</w>
cr abs</w>
Bl ood</w>
mo de
wid th</w>
deep est</w>
pleas antly</w>
ali sts</w>
sun burn</w>
as sing</w>
preci sion</w>
ain an</w>
o i
R is
sta ir
extin ct</w>
deterior ation</w>
L ei
con v
Trap ani</w>
de part</w>
inj ections</w>
car ved</w>
may onnaise</w>
disagre es</w>
diff ers</w>
col ony</w>
st all</w>
kilome ter</w>
pr ou
paradi g
Chin at
Oc e
dou bled</w>
suppli er</w>
contex ts</w>
top ping</w>
hand writing</w>
the se
Dete ctive</w>
Pe dro</w>
Play Book</w>
Tai chung</w>
pe tals</w>
Brit ney</w>
lefto vers</w>
surr ound</w>
whi s
W arri
sun bathing</w>
O pen
bracele t</w>
munici p
char ging</w>
inher ent</w>
cal ender</w>
domin ate</w>
ann i</w>
gu ide
re mark</w>
bl ur
N umber</w>
u d</w>
sur ge</w>
squirre ls</w>
d ous</w>
paper back</w>
e ine</w>
u ted</w>
soy bean</w>
Tran slation</w>
ic ec
I phone</w>
perc us
ses ame</w>
Sou thern</w>
ear th
Hi kar
al together</w>
Fi sh</w>
Nat to</w>
w ool</w>
privileg ed</w>
preci pitation</w>
cl ocks</w>
br ook</w>
explo it</w>
win ding</w>
kat akana</w>
sle eves</w>
wan dered</w>
W he
appoin tments</w>
I E
dumpl ing</w>
hom eroom</w>
perc ep
accep ts</w>
conve y
199 3</w>
Any way</w>
confer ences</w>
ye a</w>
oin ted</w>
Shi ga</w>
d ging</w>
Mo z
ter tiary</w>
S he
sex u
deb ated</w>
Engine er
Li st</w>
investi gated</w>
ri x</w>
jec tives</w>
T W
F 1</w>
j ima</w>
Advi sory</w>
b f</w>
opp y</w>
Ce bu</w>
con tests</w>
devast ated</w>
simil arity</w>
twi light</w>
pl a
warri or</w>
seas oning</w>
dis likes</w>
inno c
Tig ers</w>
cou d</w>
min t</w>
ER S</w>
skyscr aper</w>
ignor ant</w>
A ward</w>
g lish</w>
justi fy</w>
Str ate
wa ste
I cel
em en
dig est</w>
rac ism</w>
sli ppers</w>
oo th</w>
simul ation</w>
af ts</w>
sof t
Wi th
co con
ph o
B az
disgu ise</w>
a .org/
pu rely</w>
No a</w>
IN TER
5 7</w>
Bel ar
cer amic</w>
Issu es</w>
Pre sen
Th ing</w>
sk a</w>
os e
Link in</w>
Cri sti
.in l.gov/
ha d
boo t</w>
se chi</w>
ã o</w>
shu tt
P .
fi ber</w>
• </w>
sh ly</w>
ci o</w>
SP ORT</w>
B T</w>
gentle men</w>
thedr als</w>
Sci enti
K ot
Bri an</w>
speci ality</w>
E V
Lar ry</w>
at ings</w>
ty po
us yu</w>
ff er
Ros etta</w>
hamm ed</w>
C KS</w>
m ango</w>
com memor
ha zar
IT Y</w>
ele ssness</w>
ati can</w>
V atican</w>
og gy</w>
hy per
bi z</w>
B our
le vel
st ating</w>
Jos e
l eness</w>
con jun
cros s
Strate gy</w>
g aps</w>
Bee th
affir mation</w>
10 /
me tal
li ters</w>
LE D</w>
conscienti ous</w>
snow fall</w>
High way</w>
k oto</w>
advoc ate</w>
Mo hammed</w>
S ON
Michel le</w>
Nic o</w>
r uled</w>
fre inds</w>
Cristi ano</w>
ch er
pa stry</w>
go d
Mic key</w>
along side</w>
un fortun
espe ci
Cham pion</w>
Her oes</w>
Cam era</w>
D own</w>
curri cular</w>
ë </w>
bon ding</w>
O t
ami e</w>
vir tue</w>
Europ eans</w>
kim onos</w>
Claudi a</w>
compas sion</w>
ske p
Bron t
Bront ë</w>
cat tle</w>
T P</w>
bit es</w>
Correc t</w>
s ounding</w>
bl end</w>
inno vate</w>
broadca sts</w>
ir regular</w>
al way</w>
in tre
Hong kong</w>
provi sion</w>
K ir
ni val</w>
dir t</w>
o ca
mini ature</w>
Ni agara</w>
suscep tible</w>
h anding</w>
E VER
acr o</w>
ic king</w>
equ ations</w>
en ic</w>
meas u
it en</w>
con es</w>
don ald</w>
3 0000</w>
Chi ld</w>
at ric</w>
High er</w>
ci us</w>
Lev el</w>
she er</w>
asser tion</w>
mid day</w>
grad er</w>
femin ine</w>
dis agreement</w>
M es
j ong</w>
hospit ality</w>
ya hoo</w>
Green wich</w>
hot mail</w>
t eller</w>
Techn ology/
str aw</w>
A na
Camer oon</w>
mom ent
im moral</w>
sl ender</w>
F .</w>
J er
stuff y</w>
notic eable</w>
tradi tionally</w>
differenti ate</w>
im pa
T et
su ki</w>
cur sed</w>
comple mentary</w>
C ard</w>
dear est</w>
T hu
Setsu bun</w>
t ington</w>
Engl sih</w>
hac ker</w>
Y ang</w>
G yo
v ana</w>
iP ad
consul tation</w>
met aboli
en qu
D A
eag le</w>
For est</w>
Oce ania</w>
1 -</w>
O mi
assi e</w>
att acking</w>
win ners</w>
sciss ors</w>
bi an</w>
Fin nish</w>
V IS
AT M</w>
N elson</w>
m ill
N am
oc al
Ka buki</w>
Ma i</w>
a for
Sh y
enthusias tically</w>
uni ver
n es
av </w>
N FL</w>
shor ten</w>
b ill
er als</w>
el o</w>
neg lec
. n
avi g
techn ologically</w>
kk kk
M .
pir ates</w>
Hawai ian</w>
Holi days</w>
e u</w>
v is</w>
ru shing</w>
sur ger
gover ned</w>
spr ink
199 2</w>
chi p
Be er</w>
de en</w>
vacc ination</w>
Te aching</w>
B one</w>
Can on</w>
ir rational</w>
L avig
Rom ans</w>
d v
pl ing</w>
i v
Miy ajima</w>
foo d
sh owers</w>
Shir in</w>
S on
tr is</w>
Vill age</w>
aj a</w>
ath ly</w>
ot to</w>
ca thedrals</w>
Y U</w>
bri de
WH EN</w>
In c</w>
educ ates</w>
To T</w>
http://www.world-nuclear.org/info/ inf
U E</w>
alum ni</w>
w ol
suff iciently</w>
hi /
ail ing</w>
bro ther
hu a</w>
Lavig ne</w>
O r</w>
jo in
0 5
An panman</w>
her edi
pil gri
Ath ens</w>
ha unted</w>
H EL
wan der</w>
cri tically</w>
ti est</w>
swee p</w>
B ar</w>
Tot oro</w>
so aking</w>
vir tually</w>
Cru z</w>
Lan caster</w>
tri ple</w>
publi c
o ll</w>
sa i
J R</w>
an throp
. nih.gov/
cr ap</w>
prote ins</w>
ear phones</w>
fr aud</w>
Ni hon</w>
is matic</w>
vivi dly</w>
typ ed</w>
F an
I d=
struc tural</w>
X O</w>
in able</w>
L ad
fli r
Mot or</w>
ci ls</w>
DP J</w>
paralle l</w>
batt les</w>
10 pm</w>
ST UD
trav eller</w>
snow man</w>
i zing</w>
bassad or</w>
ol y
dust bin</w>
Con test</w>
astron omy</w>
gu essing</w>
envi ed</w>
G T
pr ud
fil let</w>
N ur
.... ....
P ower
un know
f ell
Gr aying</w>
pol es</w>
miser y</w>
Bas eball</w>
So chi</w>
c gi
A wards</w>
consi ders</w>
squ ares</w>
assi sted</w>
v anity</w>
Po z
fianc ee</w>
Sp ani
fe ast</w>
per tinent</w>
G A</w>
ad dressing</w>
ne ts</w>
pr a
vit ality</w>
Fer re
advi sor</w>
compati ble</w>
200 0
Al lah</w>
pa use</w>
r au</w>
origin ality</w>
C ou
Alejan dro</w>
f aint</w>
d ough</w>
boul dering</w>
shi pped</w>
Pix ar</w>
S au
dialo gues</w>
stre et
fin ancing</w>
O B
Wor king</w>
kidn apping</w>
surr ender</w>
sun glasses</w>
li ter</w>
pro longed</w>
http://www.gen-4.org/ Technology/
ML B</w>
so de</w>
N R
hydr ange
M eg
I P
an ical</w>
hazar dous</w>
Th ings</w>
p ine</w>
pu m
tom b</w>
adrenal ine</w>
P od
E y
night mar
consul ted</w>
N ow
green er</w>
extrac ted</w>
it ative</w>
li gible</w>
Sim ple</w>
o ily</w>
syste matic</w>
25 %</w>
fr ames</w>
c ycl
ex iting</w>
Te ch
L ap
k it</w>
or tho
afflu ent</w>
impli ed</w>
con son
P ap
Beeth oven</w>
short ages</w>
loc ker</w>
k ov</w>
excer cise</w>
attemp ting</w>
B R
use way</w>
Ca useway</w>
re ap</w>
8 :00</w>
UF Os</w>
a el</w>
strai ght
Corn wall</w>
content /
re locate</w>
Am ber</w>
sax ophone</w>
electr omag
lifes pan</w>
pre view</w>
be aring</w>
perform er</w>
M IN
in correctly</w>
lea ked</w>
ancest or</w>
L im
Khos rau</w>
publi cations/
e cho
in hi
mel ons</w>
o h
propos ition</w>
olo s</w>
Sym phony</w>
ten th</w>
Pri ze</w>
dem ption</w>
AC K</w>
6 1</w>
over sea</w>
cu b
Econom ist</w>
Baz aar</w>
.sht ml</w>
li an</w>
cl apping</w>
j ar
cor rupt</w>
demonstr ates</w>
dar ts</w>
le i
cle ver
ac knowled
ar bit
comm ands</w>
F UT
d os
fic tional</w>
im prison
embr ac
Rom antic</w>
an at
log in</w>
Buil ding</w>
I Q</w>
http://news. bbc.co.uk/
col a</w>
ul tra</w>
plat forms</w>
eter nity</w>
eigh ty</w>
pi tiful</w>
wor sen</w>
Has sel
ir u</w>
don ations</w>
sear ch
compos er</w>
x x</w>
flav ours</w>
S ite</w>
I chi
mu tton</w>
100 ,000</w>
thou ght
Mon ster</w>
aw an</w>
exclud ed</w>
F R
= 1
S onic</w>
d ine</w>
a ur</w>
anch or</w>
Ma il</w>
gh ty</w>
re tr
condomini um</w>
op ath
mar i
us tice</w>
free ze</w>
198 4</w>
evacu ated</w>
Shu ttle</w>
u a</w>
po tion</w>
Bl ink</w>
noti fy</w>
sk unk</w>
adap ting</w>
Champion ship</w>
HD D</w>
omi ya</w>
explor ation</w>
Broad way</w>
tran sition</w>
auton omy</w>
du ci
M ende
18 00</w>
av atar</w>
am ple</w>
a us</w>
pu </w>
emen tioned</w>
respec table</w>
G ul
om sday</w>
goal keeper</w>
preven tive</w>
sp er
bu sh</w>
blo omed</w>
T op</w>
Mende z</w>
h ook</w>
e th</w>
educa tive</w>
Mac book</w>
he ars</w>
di ets</w>
hamm er</w>
ili a</w>
pas sports</w>
trigg ered</w>
Bet ter</w>
r owing</w>
j in
An th
need les</w>
whis key</w>
reali zes</w>
I ro
ate au</w>
Mar c</w>
de struc
O C</w>
Mat thew</w>
suppli ed</w>
sal ts</w>
se cured</w>
cockro aches</w>
y -
do x</w>
lun gs</w>
bo oming</w>
d au
chil dr
De vil</w>
Firef ox</w>
excep tionally</w>
rot ation</w>
ign ty</w>
sovere ignty</w>
2009 /
ti p
s .org/
pag an</w>
Eur asian</w>
N inja</w>
Sin ce</w>
ce ase</w>
bad ge</w>
aaaa aaaa
iPad 2</w>
th ursday</w>
Pi az
Lab or</w>
shad owing</w>
An drew</w>
reserv ations</w>
me tery</w>
K h
pa thetic</w>
ren e</w>
deple ted</w>
mar ke
re construction</w>
Sk ills</w>
WW II</w>
Wor k
.c fm
fer mented</w>
Mum bai</w>
gl adly</w>
sti cking</w>
Camer on</w>
trav ellers</w>
par ody</w>
c ology</w>
Th er
urb anization</w>
revolu tion
U g
sp reads</w>
u bi
Al so</w>
low ering</w>
Nipp on</w>
di so
ne atly</w>
j uni
inqu iry</w>
Tur in</w>
insi ghts</w>
ge ome
J AL</w>
AC E</w>
H em
fear ful</w>
integr ation</w>
ic ycle</w>
yo gh
F ool</w>
Pl ay</w>
vibr ant</w>
Anth ony</w>
E din
Cair ns</w>
for gets</w>
Pho enix</w>
O thers</w>
spac ecraft</w>
system s/
hac kers</w>
d ude</w>
la sh</w>
travel er</w>
adventur ous</w>
cap tions</w>
y uki</w>
vio let</w>
Yu ki
ju do</w>
microscop es</w>
fat ter</w>
ch ew</w>
publi ci
s ay
RE ALLY</w>
tele communication</w>
survi ving</w>
Ex peri
Shi koku</w>
Len non</w>
U L
ch al
sm elly</w>
inher it</w>
mer cy</w>
serendi pity</w>
CC TV</w>
3 5%</w>
Indi ans</w>
G oya</w>
citiz en
f ting</w>
Lin da</w>
RP G</w>
du g</w>
mat s</w>
sex ually</w>
Hal f</w>
divi des</w>
V an
7 .
mo tive</w>
impe de</w>
buil der</w>
water falls</w>
d ged</w>
ap olitan</w>
back pac
zar re</w>
in competent</w>
portal /
Dep p</w>
Poli ce</w>
reali zation</w>
chee ky</w>
ö n
incorpor ated</w>
N T</w>
na h</w>
defic it</w>
ef l</w>
scoo ter</w>
M un
Nu tri
imper ative</w>
adolesc ence</w>
2 -</w>
D est
D awn</w>
Wh it
Chocol ate</w>
eur op
war ts</w>
l anding</w>
IN E</w>
enorm ously</w>
T en</w>
FAM ILY</w>
Bur ger</w>
Fernan do</w>
repor ting</w>
scre wed</w>
Industri al</w>
spokes person</w>
C z
b ery</w>
ri pe</w>
Sha w
Al ps</w>
caf é</w>
re charge</w>
par lor</w>
ill usion</w>
Shin agawa</w>
swi f
memori zation</w>
coll ar</w>
moder ately</w>
Ques tions</w>
Fi eld</w>
stri ps</w>
emer ge</w>
P AS
commun al</w>
in ating</w>
sa uc
exten ding</w>
particip ant</w>
a do</w>
w aving</w>
announ c
pill ars</w>
S tri
coast al</w>
ay ton</w>
renew al</w>
Hu gh</w>
rain fall</w>
T ai</w>
en forced</w>
K A</w>
cur ve</w>
E M
A H</w>
scre en
char ismatic</w>
ha zards</w>
pros titu
obli g
Lot te</w>
to eic</w>
appli cable</w>
sep tember</w>
Han as
O ther</w>
featur ing</w>
bene ath</w>
entrepreneur s</w>
f ading</w>
Org ani
5 0000</w>
nuclear _
Ex pl
Willi ams</w>
mo ose</w>
Icel and</w>
ris en</w>
Indones ians</w>
mm er</w>
ES OL</w>
Chinat own</w>
scre ens</w>
3 -
rain coat</w>
teach ings</w>
im asen</w>
mis ses</w>
dis rupt</w>
pe aches</w>
incan descent</w>
H ina</w>
ine quality</w>
sto ch
A gu
cr ay
flu ffy</w>
organiz ers</w>
el le</w>
Sy n
bir thr
S U</w>
qu est</w>
re com
icec ream</w>
ur u</w>
reg on</w>
O regon</w>
9 1</w>
anno ys</w>
volun tarily</w>
C en
aff ili
bar k</w>
deser ted</w>
dis sap
H ag
i i</w>
shar ks</w>
ide ology</w>
8 %</w>
C ris
smo g</w>
sur faces</w>
es -
foc us
ll s</w>
che on</w>
ass essed</w>
Mon ter
post man</w>
loc ally</w>
ha ka</w>
Grand ma</w>
vi an</w>
sh ire</w>
T ag
t is</w>
IN G
u me
Gab ri
H oo
est e</w>
shar k</w>
sust aining</w>
spher es</w>
lingu al</w>
in sti
adequ ately</w>
2/ hi/
dis c</w>
top ped</w>
cin o</w>
pop ped</w>
alter ed</w>
assum ption</w>
part 2</w>
Direc tion</w>
ch on</w>
s berg</w>
lefto ver</w>
supersti tion</w>
oc ol</w>
tri angle</w>
f oggy</w>
dest ined</w>
G ra
dilig ence</w>
copy right</w>
re placing</w>
Lor ena</w>
comm ing</w>
bul k</w>
par amount</w>
objec tions</w>
5 8</w>
sli d</w>
Ne apolitan</w>
hun ter</w>
1 -
Pon t
All en</w>
pat ch</w>
X i</w>
Che f</w>
atten dants</w>
M ul
d haka</w>
Dj ur
sal ads</w>
dinos aur</w>
B uc
iso ara</w>
controversi es</w>
al /
day light</w>
Un der
cap s</w>
O E
men ber</w>
ili bri
foll ower</w>
d ge
Dre ams</w>
Lag os</w>
me l</w>
sincer ity</w>
cu be</w>
ble ed</w>
popul ation
gl orious</w>
bil lions</w>
war med</w>
part nership</w>
land mark</w>
encoun ters</w>
wh ite
Suk h</w>
M U
expres sway</w>
F act
some things</w>
P ope</w>
dum ped</w>
avoi ds</w>
reg ained</w>
B in
Par agu
mu t
hyp er</w>
at oms</w>
ar cade</w>
o tism</w>
ang olo</w>
Hi m</w>
num b</w>
7 am</w>
Ju do</w>
den ying</w>
am use</w>
por ted</w>
blo gger</w>
beli ever</w>
ę stoch
ęstoch owa</w>
Cz ęstochowa</w>
fin est</w>
gener ator</w>
stret ched</w>
\ l</w>
our self</w>
bother some</w>
9 .
fr action</w>
0 8
el se
et ooth</w>
emplo ying</w>
P ear
ad jectives</w>
Pro vin
histor ically</w>
k ou
fr at
su kiyaki</w>
in ter</w>
cr um
Y oy
EN T
expli cit</w>
@g mail.com</w>
w all
ant is</w>
up ward</w>
on ary</w>
al o
eve dra</w>
Mon steration</w>
C ach
5 km</w>
Be fore</w>
un wind</w>
asia .com/
o z
pal ms</w>
W oo</w>
YE AR</w>
M in</w>
&apos;( 3:
Gi ant</w>
Nin h</w>
jud gment</w>
Fr ank</w>
K eep</w>
cri ses</w>
Mach achi</w>
Meth od</w>
http://news.bbc.co.uk/ 2/hi/
y ar
th on</w>
http://www.nature .com/
cu angolo</w>
Iro ha</w>
far ms</w>
Fig ure</w>
mu </w>
s ab
advi sing</w>
vers aries</w>
.in el
Hassel t</w>
Di et</w>
w ood
bi king</w>
sh og
king ham</w>
d ots</w>
p ou
O u
opti mal</w>
Mal ta</w>
ves sel</w>
oblig atory</w>
% 25
E p</w>
Leon berg</w>
Ch ong
í n</w>
ang ri
e house</w>
in secure</w>
coher ent</w>
d ences</w>
ast a</w>
te or
Car di
Trav el</w>
N oman</w>
b reads</w>
arr ows</w>
forgi veness</w>
Ani mation</w>
Di sa
Me kka</w>
W OULD</w>
po tions</w>
Cu stom
afor ementioned</w>
metri us</w>
De metrius</w>
T SU
prohi bit</w>
ar y/
T E</w>
Gr ou
dur able</w>
198 9</w>
Vi et</w>
[...]
